{
  "version": "1.0",
  "truncation": null,
  "padding": null,
  "added_tokens": [
    {
      "id": 0,
      "content": "[UNK]",
      "single_word": false,
      "lstrip": false,
      "rstrip": false,
      "normalized": false,
      "special": true
    }
  ],
  "normalizer": null,
  "pre_tokenizer": {
    "type": "Whitespace"
  },
  "post_processor": null,
  "decoder": null,
  "model": {
    "type": "BPE",
    "dropout": null,
    "unk_token": "[UNK]",
    "continuing_subword_prefix": null,
    "end_of_word_suffix": null,
    "fuse_unk": false,
    "byte_fallback": false,
    "ignore_merges": false,
    "vocab": {
      "[UNK]": 0,
      "!": 1,
      "\"": 2,
      "'": 3,
      "(": 4,
      ")": 5,
      ",": 6,
      "-": 7,
      ".": 8,
      "1": 9,
      "2": 10,
      "3": 11,
      "4": 12,
      "5": 13,
      "6": 14,
      "8": 15,
      ":": 16,
      ";": 17,
      "<": 18,
      ">": 19,
      "?": 20,
      "A": 21,
      "B": 22,
      "C": 23,
      "D": 24,
      "E": 25,
      "F": 26,
      "G": 27,
      "H": 28,
      "I": 29,
      "J": 30,
      "K": 31,
      "L": 32,
      "M": 33,
      "N": 34,
      "O": 35,
      "P": 36,
      "Q": 37,
      "R": 38,
      "S": 39,
      "T": 40,
      "U": 41,
      "V": 42,
      "W": 43,
      "Y": 44,
      "Z": 45,
      "[": 46,
      "]": 47,
      "a": 48,
      "b": 49,
      "c": 50,
      "d": 51,
      "e": 52,
      "f": 53,
      "g": 54,
      "h": 55,
      "i": 56,
      "j": 57,
      "k": 58,
      "l": 59,
      "m": 60,
      "n": 61,
      "o": 62,
      "p": 63,
      "q": 64,
      "r": 65,
      "s": 66,
      "t": 67,
      "u": 68,
      "v": 69,
      "w": 70,
      "x": 71,
      "y": 72,
      "z": 73,
      "th": 74,
      "the": 75,
      "an": 76,
      "in": 77,
      "and": 78,
      "re": 79,
      "ou": 80,
      "of": 81,
      "he": 82,
      "to": 83,
      "ll": 84,
      "on": 85,
      "ha": 86,
      "is": 87,
      "er": 88,
      "or": 89,
      "es": 90,
      "en": 91,
      "at": 92,
      "ed": 93,
      "ing": 94,
      "hi": 95,
      "se": 96,
      "ar": 97,
      "it": 98,
      "be": 99,
      "as": 100,
      "wi": 101,
      "you": 102,
      "me": 103,
      "sa": 104,
      "le": 105,
      "that": 106,
      "we": 107,
      "ve": 108,
      "sha": 109,
      "ho": 110,
      "nd": 111,
      "id": 112,
      "st": 113,
      "ro": 114,
      "no": 115,
      "for": 116,
      "his": 117,
      "ld": 118,
      "shall": 119,
      "gh": 120,
      "ah": 121,
      "all": 122,
      "ay": 123,
      "him": 124,
      "od": 125,
      "ir": 126,
      "with": 127,
      "un": 128,
      "And": 129,
      "ce": 130,
      "them": 131,
      "ut": 132,
      "ch": 133,
      "The": 134,
      "li": 135,
      "ra": 136,
      "they": 137,
      "ri": 138,
      "ver": 139,
      "ther": 140,
      "ght": 141,
      "ent": 142,
      "co": 143,
      "de": 144,
      "al": 145,
      "will": 146,
      "ke": 147,
      "ca": 148,
      "not": 149,
      "ore": 150,
      "who": 151,
      "my": 152,
      "am": 153,
      "your": 154,
      "was": 155,
      "ord": 156,
      "ow": 157,
      "unto": 158,
      "up": 159,
      "are": 160,
      "el": 161,
      "have": 162,
      "us": 163,
      "pe": 164,
      "ain": 165,
      "whi": 166,
      "out": 167,
      "God": 168,
      "rom": 169,
      "ion": 170,
      "said": 171,
      "ven": 172,
      "so": 173,
      "their": 174,
      "one": 175,
      "from": 176,
      "there": 177,
      "man": 178,
      "which": 179,
      "il": 180,
      "fore": 181,
      "ab": 182,
      "ad": 183,
      "ma": 184,
      "ur": 185,
      "ye": 186,
      "hou": 187,
      "king": 188,
      "ess": 189,
      "Yah": 190,
      "son": 191,
      "est": 192,
      "weh": 193,
      "Yahweh": 194,
      "go": 195,
      "lo": 196,
      "thou": 197,
      "LO": 198,
      "RD": 199,
      "LORD": 200,
      "were": 201,
      "do": 202,
      "ter": 203,
      "fi": 204,
      "whe": 205,
      "our": 206,
      "ne": 207,
      "ly": 208,
      "ag": 209,
      "Is": 210,
      "ac": 211,
      "her": 212,
      "fe": 213,
      "op": 214,
      "say": 215,
      "fa": 216,
      "day": 217,
      "by": 218,
      "rael": 219,
      "Israel": 220,
      "ren": 221,
      "but": 222,
      "He": 223,
      "red": 224,
      "thy": 225,
      "this": 226,
      "chi": 227,
      "ts": 228,
      "sp": 229,
      "rou": 230,
      "had": 231,
      "ers": 232,
      "ation": 233,
      "ul": 234,
      "hear": 235,
      "came": 236,
      "te": 237,
      "again": 238,
      "peop": 239,
      "la": 240,
      "now": 241,
      "house": 242,
      "come": 243,
      "when": 244,
      "sel": 245,
      "men": 246,
      "thing": 247,
      "way": 248,
      "com": 249,
      "pt": 250,
      "people": 251,
      "con": 252,
      "hand": 253,
      "child": 254,
      "into": 255,
      "ck": 256,
      "thee": 257,
      "ine": 258,
      "ever": 259,
      "ight": 260,
      "For": 261,
      "ge": 262,
      "ness": 263,
      "off": 264,
      "land": 265,
      "urn": 266,
      "ok": 267,
      "ud": 268,
      "children": 269,
      "own": 270,
      "gi": 271,
      ".\"": 272,
      "before": 273,
      "ser": 274,
      "hold": 275,
      "went": 276,
      "wo": 277,
      "use": 278,
      "word": 279,
      "she": 280,
      "ru": 281,
      "ong": 282,
      "ity": 283,
      "gre": 284,
      "ves": 285,
      "against": 286,
      "af": 287,
      "os": 288,
      "cause": 289,
      "im": 290,
      "ast": 291,
      "ak": 292,
      "father": 293,
      "also": 294,
      "hat": 295,
      "But": 296,
      "und": 297,
      "wor": 298,
      "Be": 299,
      "pro": 300,
      "over": 301,
      "ant": 302,
      "ear": 303,
      "ose": 304,
      "et": 305,
      "has": 306,
      "if": 307,
      "made": 308,
      "ard": 309,
      "upon": 310,
      "saying": 311,
      "ake": 312,
      "know": 313,
      "serv": 314,
      "ies": 315,
      "ise": 316,
      "ath": 317,
      "ep": 318,
      "even": 319,
      "av": 320,
      "ass": 321,
      "ist": 322,
      "ted": 323,
      "su": 324,
      "ans": 325,
      "other": 326,
      "offer": 327,
      "pl": 328,
      "oun": 329,
      "ind": 330,
      "iah": 331,
      "ment": 332,
      "ev": 333,
      "may": 334,
      "res": 335,
      "pr": 336,
      "did": 337,
      "Then": 338,
      "hath": 339,
      "br": 340,
      "ous": 341,
      "end": 342,
      "ti": 343,
      "let": 344,
      "bre": 345,
      "comm": 346,
      "mb": 347,
      "na": 348,
      "lt": 349,
      "down": 350,
      "ith": 351,
      "sons": 352,
      "right": 353,
      "things": 354,
      "Lord": 355,
      "bo": 356,
      "great": 357,
      "They": 358,
      "ound": 359,
      "every": 360,
      "Dav": 361,
      "David": 362,
      "Jes": 363,
      "see": 364,
      "because": 365,
      "ang": 366,
      "then": 367,
      "its": 368,
      "ide": 369,
      "any": 370,
      "offering": 371,
      "make": 372,
      "pri": 373,
      "ved": 374,
      "Jer": 375,
      "turn": 376,
      "after": 377,
      "bu": 378,
      "bro": 379,
      "Je": 380,
      "ap": 381,
      "nor": 382,
      "self": 383,
      "ga": 384,
      "So": 385,
      "earth": 386,
      "these": 387,
      "ice": 388,
      "Jesus": 389,
      "di": 390,
      "ars": 391,
      "Whe": 392,
      "like": 393,
      "ct": 394,
      "away": 395,
      "ree": 396,
      "ill": 397,
      "sin": 398,
      "name": 399,
      "per": 400,
      "put": 401,
      "priest": 402,
      "lem": 403,
      "command": 404,
      "qu": 405,
      "sto": 406,
      "mon": 407,
      "rought": 408,
      "les": 409,
      "give": 410,
      "ount": 411,
      "ry": 412,
      "acc": 413,
      "those": 414,
      "Jud": 415,
      "ither": 416,
      "ward": 417,
      "among": 418,
      "orn": 419,
      "You": 420,
      "par": 421,
      "mo": 422,
      "led": 423,
      "days": 424,
      "brought": 425,
      "oses": 426,
      "city": 427,
      "There": 428,
      "Moses": 429,
      "call": 430,
      "wat": 431,
      "pass": 432,
      "ites": 433,
      "heart": 434,
      "Jeru": 435,
      "dom": 436,
      "might": 437,
      "two": 438,
      "Judah": 439,
      "fo": 440,
      "hed": 441,
      "good": 442,
      "less": 443,
      "salem": 444,
      "Jerusalem": 445,
      "work": 446,
      "Ab": 447,
      "ording": 448,
      "shalt": 449,
      "hould": 450,
      "lace": 451,
      "spe": 452,
      "ants": 453,
      "aven": 454,
      "ten": 455,
      "phe": 456,
      "eat": 457,
      "sou": 458,
      "si": 459,
      "Now": 460,
      "place": 461,
      "ught": 462,
      "live": 463,
      "ol": 464,
      "according": 465,
      "should": 466,
      "eth": 467,
      "ish": 468,
      "take": 469,
      "forth": 470,
      "bring": 471,
      "took": 472,
      "gy": 473,
      "po": 474,
      "cri": 475,
      "well": 476,
      "ate": 477,
      "more": 478,
      "therefore": 479,
      "pre": 480,
      "Egy": 481,
      "Egypt": 482,
      "whom": 483,
      "ance": 484,
      "ces": 485,
      "what": 486,
      "ations": 487,
      "set": 488,
      "sent": 489,
      "gn": 490,
      "ple": 491,
      "ft": 492,
      "cha": 493,
      "neither": 494,
      "stand": 495,
      "where": 496,
      "under": 497,
      "ey": 498,
      "ould": 499,
      "gl": 500,
      "rough": 501,
      "eld": 502,
      "Behold": 503,
      "oice": 504,
      "As": 505,
      "ub": 506,
      "When": 507,
      "fir": 508,
      "ex": 509,
      "ci": 510,
      "da": 511,
      "burn": 512,
      "selves": 513,
      "brother": 514,
      "through": 515,
      "dis": 516,
      "des": 517,
      "It": 518,
      "than": 519,
      "prophe": 520,
      "behold": 521,
      "jud": 522,
      "ure": 523,
      "eous": 524,
      "heard": 525,
      "saith": 526,
      "ust": 527,
      "ph": 528,
      "hund": 529,
      "time": 530,
      "hundred": 531,
      "ite": 532,
      "ving": 533,
      "cer": 534,
      "evil": 535,
      "row": 536,
      "righteous": 537,
      "If": 538,
      "tre": 539,
      "sand": 540,
      "heaven": 541,
      "saw": 542,
      "tru": 543,
      "called": 544,
      "hus": 545,
      "law": 546,
      "hr": 547,
      "hast": 548,
      "aul": 549,
      "med": 550,
      "ach": 551,
      "ened": 552,
      "irit": 553,
      "tle": 554,
      "first": 555,
      "words": 556,
      "seven": 557,
      "cei": 558,
      "daught": 559,
      "thousand": 560,
      "dest": 561,
      "Chr": 562,
      "ful": 563,
      "head": 564,
      "Christ": 565,
      "pp": 566,
      "She": 567,
      "ning": 568,
      "fathers": 569,
      "done": 570,
      "how": 571,
      "ty": 572,
      "cked": 573,
      "servant": 574,
      "found": 575,
      "fire": 576,
      "mer": 577,
      "ink": 578,
      "ities": 579,
      "cle": 580,
      "given": 581,
      "years": 582,
      "says": 583,
      "himself": 584,
      "many": 585,
      "Jo": 586,
      "str": 587,
      "ace": 588,
      "alt": 589,
      "about": 590,
      "Therefore": 591,
      "don": 592,
      "would": 593,
      "ark": 594,
      "side": 595,
      "eyes": 596,
      "hu": 597,
      "ng": 598,
      "soul": 599,
      "blo": 600,
      "glor": 601,
      "Let": 602,
      "servants": 603,
      "gave": 604,
      "dr": 605,
      "ence": 606,
      "gether": 607,
      "together": 608,
      "beg": 609,
      "roy": 610,
      "voice": 611,
      "answere": 612,
      "hy": 613,
      "hab": 614,
      "four": 615,
      "holy": 616,
      "gold": 617,
      "spo": 618,
      "mount": 619,
      "har": 620,
      "answered": 621,
      "ign": 622,
      "three": 623,
      "cut": 624,
      "yet": 625,
      "tri": 626,
      "speak": 627,
      "life": 628,
      "wicked": 629,
      "che": 630,
      "rem": 631,
      "bread": 632,
      "dwell": 633,
      "unt": 634,
      "can": 635,
      "om": 636,
      "turned": 637,
      "pres": 638,
      "able": 639,
      "tain": 640,
      "capt": 641,
      "bes": 642,
      "commanded": 643,
      "blood": 644,
      "Ja": 645,
      "wr": 646,
      "thine": 647,
      "light": 648,
      "outh": 649,
      "thir": 650,
      "thereof": 651,
      "destroy": 652,
      "fu": 653,
      "list": 654,
      "ase": 655,
      "judg": 656,
      "ings": 657,
      "cities": 658,
      "hands": 659,
      "ue": 660,
      "ken": 661,
      "mies": 662,
      "In": 663,
      "ef": 664,
      "ments": 665,
      "twe": 666,
      "car": 667,
      "cre": 668,
      "gra": 669,
      "until": 670,
      "shi": 671,
      "another": 672,
      "fam": 673,
      "mouth": 674,
      "?\"": 675,
      "mid": 676,
      "cl": 677,
      "ene": 678,
      "alk": 679,
      "um": 680,
      "Who": 681,
      "face": 682,
      "old": 683,
      "been": 684,
      "sword": 685,
      "nations": 686,
      "Saul": 687,
      "cast": 688,
      "keep": 689,
      "Thus": 690,
      "water": 691,
      "This": 692,
      "pray": 693,
      "wife": 694,
      "clo": 695,
      "peace": 696,
      "clean": 697,
      "fles": 698,
      "kill": 699,
      "round": 700,
      "prin": 701,
      "flesh": 702,
      "tell": 703,
      "themselves": 704,
      "priests": 705,
      "mul": 706,
      "hor": 707,
      "tak": 708,
      "mber": 709,
      "glory": 710,
      "rest": 711,
      "high": 712,
      "Re": 713,
      "What": 714,
      "ot": 715,
      "llow": 716,
      "ws": 717,
      "Am": 718,
      "sil": 719,
      "jo": 720,
      "ba": 721,
      "ack": 722,
      "cob": 723,
      "death": 724,
      "sea": 725,
      "year": 726,
      "didn": 727,
      "Jacob": 728,
      "sy": 729,
      "fall": 730,
      "bless": 731,
      "altar": 732,
      "kind": 733,
      "uch": 734,
      "asse": 735,
      "god": 736,
      "young": 737,
      "ains": 738,
      "long": 739,
      "faith": 740,
      "den": 741,
      "pos": 742,
      "lay": 743,
      "very": 744,
      "ic": 745,
      "Lev": 746,
      "midst": 747,
      "Ar": 748,
      "ses": 749,
      "ried": 750,
      "dead": 751,
      "love": 752,
      "drink": 753,
      "woman": 754,
      "recei": 755,
      "read": 756,
      "happ": 757,
      "lam": 758,
      "without": 759,
      "lon": 760,
      "field": 761,
      "lie": 762,
      "burnt": 763,
      "toward": 764,
      "left": 765,
      "ction": 766,
      "full": 767,
      "aron": 768,
      "Aaron": 769,
      "ised": 770,
      "wild": 771,
      "walk": 772,
      "Go": 773,
      "az": 774,
      "habit": 775,
      "fied": 776,
      "anger": 777,
      "mine": 778,
      "Thou": 779,
      "ble": 780,
      "Phi": 781,
      "ond": 782,
      "igh": 783,
      "five": 784,
      "part": 785,
      "night": 786,
      "reign": 787,
      "mighty": 788,
      "lled": 789,
      "herit": 790,
      "both": 791,
      "ared": 792,
      "fear": 793,
      "spirit": 794,
      "bl": 795,
      "sh": 796,
      "Ne": 797,
      "Gi": 798,
      "All": 799,
      "mother": 800,
      "war": 801,
      "sight": 802,
      "My": 803,
      "righteousness": 804,
      ".'": 805,
      "wise": 806,
      "ham": 807,
      "ished": 808,
      "kings": 809,
      "ave": 810,
      "fru": 811,
      "tem": 812,
      "kingdom": 813,
      "sacri": 814,
      "stood": 815,
      "sacrifi": 816,
      "ary": 817,
      "taken": 818,
      "twent": 819,
      "ps": 820,
      "ek": 821,
      "aces": 822,
      "Sam": 823,
      "tit": 824,
      "ines": 825,
      "same": 826,
      "daughter": 827,
      "liver": 828,
      "silver": 829,
      "wall": 830,
      "writ": 831,
      "ini": 832,
      "some": 833,
      "cont": 834,
      "month": 835,
      "chief": 836,
      "ower": 837,
      "iniqu": 838,
      "new": 839,
      "stru": 840,
      "Abra": 841,
      "ather": 842,
      "ily": 843,
      "serve": 844,
      "inherit": 845,
      "coven": 846,
      "lies": 847,
      "six": 848,
      "host": 849,
      "aby": 850,
      "lomon": 851,
      "Solomon": 852,
      "die": 853,
      "covenant": 854,
      "dev": 855,
      "erness": 856,
      "count": 857,
      "gth": 858,
      "ls": 859,
      "sed": 860,
      "art": 861,
      "laid": 862,
      "cub": 863,
      "raise": 864,
      "wilderness": 865,
      "much": 866,
      "born": 867,
      "tab": 868,
      "ild": 869,
      "Baby": 870,
      "flo": 871,
      "Babylon": 872,
      "twenty": 873,
      "hel": 874,
      "angel": 875,
      "lord": 876,
      "look": 877,
      "Philist": 878,
      "told": 879,
      "spake": 880,
      "ways": 881,
      "Eli": 882,
      "stren": 883,
      "test": 884,
      "sk": 885,
      "ask": 886,
      "spoke": 887,
      "Pha": 888,
      "delive": 889,
      "Son": 890,
      "thered": 891,
      "cerning": 892,
      "strong": 893,
      "We": 894,
      "Mo": 895,
      "merc": 896,
      "multit": 897,
      "bur": 898,
      "oh": 899,
      "attle": 900,
      "ia": 901,
      "none": 902,
      "spok": 903,
      "waters": 904,
      "disci": 905,
      "back": 906,
      "spoken": 907,
      "por": 908,
      "thren": 909,
      "deliver": 910,
      "ches": 911,
      "san": 912,
      "sess": 913,
      "Jos": 914,
      "possess": 915,
      "hon": 916,
      "wa": 917,
      "whose": 918,
      "ude": 919,
      "inhabit": 920,
      "Father": 921,
      "being": 922,
      "near": 923,
      "raoh": 924,
      "brethren": 925,
      "Pharaoh": 926,
      "world": 927,
      "gate": 928,
      "does": 929,
      "delivered": 930,
      "written": 931,
      "ali": 932,
      "offerings": 933,
      "cho": 934,
      "inted": 935,
      "seen": 936,
      "Where": 937,
      "bod": 938,
      "seed": 939,
      "ched": 940,
      "concerning": 941,
      "qui": 942,
      "ned": 943,
      "cam": 944,
      "brothers": 945,
      "ples": 946,
      "understand": 947,
      "door": 948,
      "Ben": 949,
      "Levites": 950,
      "princes": 951,
      "ister": 952,
      "ner": 953,
      "iniquity": 954,
      "pi": 955,
      "bed": 956,
      "wine": 957,
      "feet": 958,
      "gathered": 959,
      "power": 960,
      "hua": 961,
      "ions": 962,
      "acle": 963,
      "build": 964,
      "coun": 965,
      "return": 966,
      "fruit": 967,
      "Don": 968,
      "just": 969,
      "sat": 970,
      "vis": 971,
      "certain": 972,
      "vers": 973,
      "Philistines": 974,
      "works": 975,
      "Jeho": 976,
      "enemies": 977,
      "Sp": 978,
      "lit": 979,
      "seek": 980,
      "happened": 981,
      "order": 982,
      "pur": 983,
      "pleas": 984,
      "daughters": 985,
      "ern": 986,
      "congre": 987,
      "congreg": 988,
      "Jose": 989,
      "These": 990,
      "Jews": 991,
      "gar": 992,
      "ship": 993,
      "Abraham": 994,
      "Joseph": 995,
      "oud": 996,
      "prophet": 997,
      "follow": 998,
      "congregation": 999,
      "fl": 1000,
      "cur": 1001,
      "thus": 1002,
      "sure": 1003,
      "sle": 1004,
      "disciples": 1005,
      "bow": 1006,
      "exce": 1007,
      "sal": 1008,
      "fell": 1009,
      "tribe": 1010,
      "multitude": 1011,
      "Spirit": 1012,
      "ilt": 1013,
      "filled": 1014,
      "ins": 1015,
      "oth": 1016,
      "wis": 1017,
      "whole": 1018,
      "ram": 1019,
      "unclean": 1020,
      "Pe": 1021,
      "nothing": 1022,
      "sl": 1023,
      "sc": 1024,
      "tabern": 1025,
      "camp": 1026,
      "How": 1027,
      "Why": 1028,
      "min": 1029,
      "prophets": 1030,
      "wra": 1031,
      "lead": 1032,
      "gods": 1033,
      "bs": 1034,
      "inheritance": 1035,
      "gu": 1036,
      "bear": 1037,
      "gen": 1038,
      "age": 1039,
      "Man": 1040,
      "judgment": 1041,
      "tween": 1042,
      "send": 1043,
      "atter": 1044,
      "iz": 1045,
      "between": 1046,
      "gener": 1047,
      "raid": 1048,
      "little": 1049,
      "ai": 1050,
      "tim": 1051,
      "orning": 1052,
      "became": 1053,
      "mar": 1054,
      "rej": 1055,
      "wer": 1056,
      "ash": 1057,
      "Ho": 1058,
      "capti": 1059,
      "ced": 1060,
      "wind": 1061,
      "morning": 1062,
      "tent": 1063,
      "aff": 1064,
      "ought": 1065,
      "dre": 1066,
      "dark": 1067,
      "male": 1068,
      "truth": 1069,
      "tabernacle": 1070,
      "stri": 1071,
      "!\"": 1072,
      "band": 1073,
      "afraid": 1074,
      "known": 1075,
      "raim": 1076,
      "wrath": 1077,
      "wisdom": 1078,
      "sm": 1079,
      "only": 1080,
      "ates": 1081,
      "Joshua": 1082,
      "strength": 1083,
      "mor": 1084,
      "ones": 1085,
      "places": 1086,
      "joy": 1087,
      "far": 1088,
      "ify": 1089,
      "To": 1090,
      "That": 1091,
      "appo": 1092,
      "body": 1093,
      "ove": 1094,
      "cubits": 1095,
      "gr": 1096,
      "such": 1097,
      "chari": 1098,
      "Eph": 1099,
      "here": 1100,
      "died": 1101,
      "cks": 1102,
      "stone": 1103,
      "sake": 1104,
      "gone": 1105,
      "comp": 1106,
      "Can": 1107,
      "oil": 1108,
      "aster": 1109,
      "yourselves": 1110,
      "soever": 1111,
      "mercy": 1112,
      "tr": 1113,
      "nu": 1114,
      "cour": 1115,
      "lest": 1116,
      "become": 1117,
      "oney": 1118,
      "twel": 1119,
      "assemb": 1120,
      "ground": 1121,
      "ons": 1122,
      "pit": 1123,
      "having": 1124,
      "desi": 1125,
      "vine": 1126,
      "forever": 1127,
      "sheep": 1128,
      "eb": 1129,
      "loved": 1130,
      "imon": 1131,
      "sacrifice": 1132,
      "cry": 1133,
      "above": 1134,
      "sing": 1135,
      "thr": 1136,
      "built": 1137,
      "sanct": 1138,
      "ged": 1139,
      "zz": 1140,
      "surely": 1141,
      "ures": 1142,
      "char": 1143,
      "temple": 1144,
      "cove": 1145,
      "als": 1146,
      "while": 1147,
      "inhabitants": 1148,
      "nes": 1149,
      "reme": 1150,
      "bey": 1151,
      "Beth": 1152,
      "lee": 1153,
      "Sha": 1154,
      "ria": 1155,
      "tree": 1156,
      "Because": 1157,
      "vi": 1158,
      "stat": 1159,
      "appe": 1160,
      "Ba": 1161,
      "Jord": 1162,
      "uel": 1163,
      "Moab": 1164,
      "Jordan": 1165,
      "cen": 1166,
      "shew": 1167,
      "athan": 1168,
      "His": 1169,
      "iled": 1170,
      "save": 1171,
      "find": 1172,
      "sit": 1173,
      "Ye": 1174,
      "bath": 1175,
      "east": 1176,
      "around": 1177,
      "stre": 1178,
      "fami": 1179,
      "jah": 1180,
      "clothe": 1181,
      "country": 1182,
      "Of": 1183,
      "sor": 1184,
      "trou": 1185,
      "ledge": 1186,
      "desol": 1187,
      "lived": 1188,
      "cond": 1189,
      "fool": 1190,
      "ekiah": 1191,
      "hate": 1192,
      "book": 1193,
      "most": 1194,
      "rep": 1195,
      "ated": 1196,
      "vessel": 1197,
      "contin": 1198,
      "jam": 1199,
      "int": 1200,
      "Abi": 1201,
      "judge": 1202,
      "enter": 1203,
      "passed": 1204,
      "poor": 1205,
      "belie": 1206,
      "sins": 1207,
      "ta": 1208,
      "receive": 1209,
      "knowledge": 1210,
      "parted": 1211,
      "Al": 1212,
      "rul": 1213,
      "wit": 1214,
      "aled": 1215,
      "though": 1216,
      "returned": 1217,
      "third": 1218,
      "twelve": 1219,
      "elders": 1220,
      "ima": 1221,
      "bered": 1222,
      "asts": 1223,
      "sun": 1224,
      "women": 1225,
      "stones": 1226,
      "blessed": 1227,
      "broken": 1228,
      "Ephraim": 1229,
      "Benjam": 1230,
      "praise": 1231,
      "pie": 1232,
      "dra": 1233,
      "nam": 1234,
      "swe": 1235,
      "show": 1236,
      "cried": 1237,
      "prep": 1238,
      "began": 1239,
      "No": 1240,
      "border": 1241,
      "port": 1242,
      "cover": 1243,
      "ds": 1244,
      "second": 1245,
      "remain": 1246,
      "throne": 1247,
      "therein": 1248,
      "mountains": 1249,
      "statut": 1250,
      "ano": 1251,
      "alley": 1252,
      "aan": 1253,
      "within": 1254,
      "smo": 1255,
      "hill": 1256,
      "departed": 1257,
      "thirty": 1258,
      "King": 1259,
      "used": 1260,
      "number": 1261,
      "Isa": 1262,
      "utter": 1263,
      "affli": 1264,
      "Se": 1265,
      "families": 1266,
      "iel": 1267,
      "ome": 1268,
      "omin": 1269,
      "battle": 1270,
      "valley": 1271,
      "lf": 1272,
      "mountain": 1273,
      "times": 1274,
      "rejoice": 1275,
      "living": 1276,
      "abomin": 1277,
      "spr": 1278,
      "ron": 1279,
      "get": 1280,
      "last": 1281,
      "oured": 1282,
      "houses": 1283,
      "believe": 1284,
      "Your": 1285,
      "em": 1286,
      "commandment": 1287,
      "reigned": 1288,
      "could": 1289,
      "lif": 1290,
      "comes": 1291,
      "bull": 1292,
      "nation": 1293,
      "struck": 1294,
      "ason": 1295,
      "ste": 1296,
      "prov": 1297,
      "killed": 1298,
      "appointed": 1299,
      "Jon": 1300,
      "tra": 1301,
      "meas": 1302,
      "lives": 1303,
      "El": 1304,
      "destroyed": 1305,
      "Benjamin": 1306,
      "lin": 1307,
      "kept": 1308,
      "ks": 1309,
      "open": 1310,
      "sign": 1311,
      "meat": 1312,
      "help": 1313,
      "ered": 1314,
      "arose": 1315,
      "asked": 1316,
      "vation": 1317,
      "ely": 1318,
      "fered": 1319,
      "Canaan": 1320,
      "fift": 1321,
      "answer": 1322,
      "rown": 1323,
      "understanding": 1324,
      "tor": 1325,
      "army": 1326,
      "neigh": 1327,
      "darkness": 1328,
      "Paul": 1329,
      "mour": 1330,
      "div": 1331,
      "counsel": 1332,
      "cted": 1333,
      "fast": 1334,
      "husband": 1335,
      "Peter": 1336,
      "Dan": 1337,
      "dow": 1338,
      "gather": 1339,
      "trust": 1340,
      "neighb": 1341,
      "pill": 1342,
      "suf": 1343,
      "half": 1344,
      "commandments": 1345,
      "commit": 1346,
      "deed": 1347,
      "Joh": 1348,
      "hid": 1349,
      "cloud": 1350,
      "salvation": 1351,
      "slain": 1352,
      "Zion": 1353,
      "fat": 1354,
      "ots": 1355,
      "tter": 1356,
      "irc": 1357,
      "north": 1358,
      "Take": 1359,
      "Hez": 1360,
      "witness": 1361,
      "fifty": 1362,
      "master": 1363,
      "boam": 1364,
      "Holy": 1365,
      "GO": 1366,
      "Sy": 1367,
      "trees": 1368,
      "continu": 1369,
      "GOD": 1370,
      "kes": 1371,
      "doesn": 1372,
      "repro": 1373,
      "ison": 1374,
      "lifted": 1375,
      "forty": 1376,
      "circ": 1377,
      "ss": 1378,
      "incen": 1379,
      "haz": 1380,
      "ians": 1381,
      "scri": 1382,
      "tou": 1383,
      "ified": 1384,
      "ined": 1385,
      "consu": 1386,
      "carried": 1387,
      "wait": 1388,
      "incense": 1389,
      "On": 1390,
      "lab": 1391,
      "break": 1392,
      "An": 1393,
      "abl": 1394,
      "goat": 1395,
      "prof": 1396,
      "kindness": 1397,
      "hosts": 1398,
      "One": 1399,
      "hes": 1400,
      "wood": 1401,
      "Jerem": 1402,
      "throughout": 1403,
      "sanctu": 1404,
      "teach": 1405,
      "received": 1406,
      "Jeremiah": 1407,
      "Ham": 1408,
      "river": 1409,
      "covered": 1410,
      "asseh": 1411,
      "Manasseh": 1412,
      "must": 1413,
      "teen": 1414,
      "cher": 1415,
      "fled": 1416,
      "je": 1417,
      "vessels": 1418,
      "rede": 1419,
      "esh": 1420,
      "cometh": 1421,
      "south": 1422,
      "Joab": 1423,
      "umc": 1424,
      "sen": 1425,
      "beli": 1426,
      "whether": 1427,
      "va": 1428,
      "trans": 1429,
      "ting": 1430,
      "teth": 1431,
      "each": 1432,
      "gates": 1433,
      "ob": 1434,
      "Assy": 1435,
      "heavens": 1436,
      "Armies": 1437,
      "sanctuary": 1438,
      "fer": 1439,
      "glad": 1440,
      "heads": 1441,
      "bir": 1442,
      "tong": 1443,
      "Samuel": 1444,
      "money": 1445,
      "incre": 1446,
      "ears": 1447,
      "eved": 1448,
      "circumc": 1449,
      "still": 1450,
      "decl": 1451,
      "pal": 1452,
      "Come": 1453,
      "ber": 1454,
      "present": 1455,
      "statutes": 1456,
      "service": 1457,
      "More": 1458,
      "looked": 1459,
      "maid": 1460,
      "establ": 1461,
      "worship": 1462,
      "pieces": 1463,
      "need": 1464,
      "grace": 1465,
      "feast": 1466,
      "moved": 1467,
      "eight": 1468,
      "anim": 1469,
      "instru": 1470,
      "reth": 1471,
      "sister": 1472,
      "sub": 1473,
      "ally": 1474,
      "Bless": 1475,
      "vent": 1476,
      "offi": 1477,
      "conf": 1478,
      "sheke": 1479,
      "rise": 1480,
      "hope": 1481,
      "Samar": 1482,
      "transgre": 1483,
      "fter": 1484,
      "ages": 1485,
      "knew": 1486,
      "ox": 1487,
      "wives": 1488,
      "rose": 1489,
      "Moreover": 1490,
      "ran": 1491,
      "spread": 1492,
      "coming": 1493,
      "John": 1494,
      "Isaac": 1495,
      "stay": 1496,
      "opened": 1497,
      "gri": 1498,
      "ris": 1499,
      "sound": 1500,
      "idol": 1501,
      "gs": 1502,
      "ards": 1503,
      "mble": 1504,
      "food": 1505,
      ".'\"": 1506,
      "Wherefore": 1507,
      "Yes": 1508,
      "bond": 1509,
      "mind": 1510,
      "meet": 1511,
      "Gilead": 1512,
      "Hezekiah": 1513,
      ",\"": 1514,
      "cor": 1515,
      "oppres": 1516,
      "plag": 1517,
      "brass": 1518,
      "firstborn": 1519,
      "prom": 1520,
      "offered": 1521,
      "arm": 1522,
      "begin": 1523,
      "sky": 1524,
      "assembly": 1525,
      "treas": 1526,
      "court": 1527,
      "desire": 1528,
      "desolate": 1529,
      "Asa": 1530,
      "num": 1531,
      "Ahi": 1532,
      "Do": 1533,
      "myself": 1534,
      "After": 1535,
      "Me": 1536,
      "dri": 1537,
      "presence": 1538,
      "chosen": 1539,
      "du": 1540,
      "tered": 1541,
      "aked": 1542,
      "pped": 1543,
      "Ammon": 1544,
      "numbered": 1545,
      "Whi": 1546,
      "asha": 1547,
      "family": 1548,
      "fine": 1549,
      "vity": 1550,
      "thi": 1551,
      "def": 1552,
      "wickedness": 1553,
      "jour": 1554,
      "sup": 1555,
      "isha": 1556,
      "esca": 1557,
      "lips": 1558,
      "sick": 1559,
      "generations": 1560,
      "raised": 1561,
      "served": 1562,
      "Samaria": 1563,
      "thought": 1564,
      "desp": 1565,
      "dream": 1566,
      "draw": 1567,
      "Shi": 1568,
      "corn": 1569,
      "eng": 1570,
      "rain": 1571,
      "sinned": 1572,
      "thanks": 1573,
      "Jonathan": 1574,
      "Assyria": 1575,
      "ready": 1576,
      "stret": 1577,
      "Blessed": 1578,
      "why": 1579,
      "seventh": 1580,
      "captain": 1581,
      "bas": 1582,
      "pher": 1583,
      "never": 1584,
      "listen": 1585,
      "captivity": 1586,
      "room": 1587,
      "yourself": 1588,
      "prison": 1589,
      "spoil": 1590,
      "ian": 1591,
      "lom": 1592,
      "everyone": 1593,
      "perish": 1594,
      "orns": 1595,
      "Yet": 1596,
      "ious": 1597,
      "sold": 1598,
      "sought": 1599,
      "cious": 1600,
      "Edom": 1601,
      "Si": 1602,
      "oke": 1603,
      "stra": 1604,
      "cept": 1605,
      "testimon": 1606,
      "reve": 1607,
      "abund": 1608,
      "yea": 1609,
      "trum": 1610,
      "ling": 1611,
      "riend": 1612,
      "\"'": 1613,
      "rock": 1614,
      "lion": 1615,
      "comfor": 1616,
      "prince": 1617,
      "viney": 1618,
      "trumpe": 1619,
      "By": 1620,
      "eye": 1621,
      "leave": 1622,
      "iles": 1623,
      "portion": 1624,
      "ref": 1625,
      "weth": 1626,
      "bound": 1627,
      "gain": 1628,
      "rod": 1629,
      "going": 1630,
      "ceived": 1631,
      "Baal": 1632,
      "tongue": 1633,
      "bare": 1634,
      "gard": 1635,
      "lech": 1636,
      "depart": 1637,
      "cons": 1638,
      "subur": 1639,
      "walked": 1640,
      "followed": 1641,
      "smote": 1642,
      "suburbs": 1643,
      "Bar": 1644,
      "obey": 1645,
      "Jero": 1646,
      "Az": 1647,
      "perfe": 1648,
      "faithful": 1649,
      "chariots": 1650,
      "zzar": 1651,
      "dwe": 1652,
      "dust": 1653,
      "ung": 1654,
      "entered": 1655,
      "hearts": 1656,
      "horses": 1657,
      "flock": 1658,
      "dwelt": 1659,
      "mess": 1660,
      "top": 1661,
      "tip": 1662,
      "begat": 1663,
      "tribes": 1664,
      "cattle": 1665,
      "dist": 1666,
      "eding": 1667,
      "alone": 1668,
      "vision": 1669,
      "Esa": 1670,
      "bus": 1671,
      "cus": 1672,
      "foot": 1673,
      "captains": 1674,
      "Bal": 1675,
      "messeng": 1676,
      "fal": 1677,
      "lly": 1678,
      "Their": 1679,
      "minister": 1680,
      "len": 1681,
      "lot": 1682,
      "fight": 1683,
      "Shall": 1684,
      "Ma": 1685,
      "phat": 1686,
      "sho": 1687,
      "rebe": 1688,
      "bar": 1689,
      "wond": 1690,
      "beast": 1691,
      "spass": 1692,
      "peoples": 1693,
      "trespass": 1694,
      "false": 1695,
      "zer": 1696,
      "salom": 1697,
      "Absalom": 1698,
      "azar": 1699,
      "shut": 1700,
      "Gent": 1701,
      "Her": 1702,
      "better": 1703,
      "shame": 1704,
      "ordin": 1705,
      "horse": 1706,
      "friend": 1707,
      "uri": 1708,
      "wilt": 1709,
      "loving": 1710,
      "burned": 1711,
      "remember": 1712,
      "Mi": 1713,
      "flee": 1714,
      "ides": 1715,
      "thyself": 1716,
      "carry": 1717,
      "Nebu": 1718,
      "beloved": 1719,
      "saved": 1720,
      "ney": 1721,
      "mur": 1722,
      "enemy": 1723,
      "garments": 1724,
      "Gentiles": 1725,
      "aiah": 1726,
      "curse": 1727,
      "Or": 1728,
      "een": 1729,
      "bran": 1730,
      "prepared": 1731,
      "hur": 1732,
      "ze": 1733,
      "ute": 1734,
      "buried": 1735,
      "watch": 1736,
      "prayer": 1737,
      "stead": 1738,
      "evening": 1739,
      "possession": 1740,
      "beginning": 1741,
      "Jeroboam": 1742,
      "hind": 1743,
      "ray": 1744,
      "uth": 1745,
      "reason": 1746,
      "got": 1747,
      "fav": 1748,
      "Jehoi": 1749,
      "ately": 1750,
      "Hear": 1751,
      "generation": 1752,
      "trouble": 1753,
      "linen": 1754,
      "Every": 1755,
      "ured": 1756,
      "thre": 1757,
      "melech": 1758,
      "fif": 1759,
      "idols": 1760,
      "Phar": 1761,
      "ints": 1762,
      "ows": 1763,
      "cup": 1764,
      "ped": 1765,
      "run": 1766,
      "van": 1767,
      "inter": 1768,
      "ari": 1769,
      "ruction": 1770,
      "At": 1771,
      "naked": 1772,
      "pure": 1773,
      "household": 1774,
      "eaten": 1775,
      "famine": 1776,
      "appear": 1777,
      "Esau": 1778,
      "ded": 1779,
      "ges": 1780,
      "west": 1781,
      "anan": 1782,
      "anointed": 1783,
      "believed": 1784,
      "Pharise": 1785,
      "vain": 1786,
      "lame": 1787,
      "rows": 1788,
      "bapt": 1789,
      "cou": 1790,
      "matter": 1791,
      "angu": 1792,
      "exceeding": 1793,
      "aking": 1794,
      "ters": 1795,
      "ased": 1796,
      "multip": 1797,
      "small": 1798,
      "image": 1799,
      "?'": 1800,
      "Gad": 1801,
      "aam": 1802,
      "weep": 1803,
      "iron": 1804,
      "ents": 1805,
      "keth": 1806,
      "manner": 1807,
      "standing": 1808,
      "slew": 1809,
      "clothes": 1810,
      "utterly": 1811,
      "plague": 1812,
      "aut": 1813,
      "bones": 1814,
      "cr": 1815,
      "urely": 1816,
      "hard": 1817,
      "burden": 1818,
      "pillars": 1819,
      "ances": 1820,
      "lease": 1821,
      "areth": 1822,
      "beside": 1823,
      "cal": 1824,
      "tow": 1825,
      "cannot": 1826,
      "held": 1827,
      "ati": 1828,
      "iful": 1829,
      "destruction": 1830,
      "Egyptians": 1831,
      "cret": 1832,
      "alive": 1833,
      "happen": 1834,
      "Give": 1835,
      "names": 1836,
      "Te": 1837,
      "sw": 1838,
      "ors": 1839,
      "caused": 1840,
      "hour": 1841,
      "ress": 1842,
      "bron": 1843,
      "perfect": 1844,
      "Ahab": 1845,
      "pun": 1846,
      "tal": 1847,
      "doth": 1848,
      "pursu": 1849,
      "suffer": 1850,
      "ring": 1851,
      "wash": 1852,
      "blind": 1853,
      "Gibe": 1854,
      "sleep": 1855,
      "cti": 1856,
      "lift": 1857,
      "ended": 1858,
      "breadth": 1859,
      "Ca": 1860,
      "fur": 1861,
      "vest": 1862,
      "sevent": 1863,
      "beaut": 1864,
      "saints": 1865,
      "stu": 1866,
      "stranger": 1867,
      "ech": 1868,
      "reward": 1869,
      "sab": 1870,
      "angels": 1871,
      "shekels": 1872,
      "ashamed": 1873,
      "rer": 1874,
      "hem": 1875,
      "encamp": 1876,
      "deth": 1877,
      "since": 1878,
      "consumed": 1879,
      "cherub": 1880,
      "aves": 1881,
      "chad": 1882,
      "ost": 1883,
      "rich": 1884,
      "advers": 1885,
      "acher": 1886,
      "shepher": 1887,
      "till": 1888,
      "uben": 1889,
      "Reuben": 1890,
      "Nebuchad": 1891,
      "Cha": 1892,
      "Tho": 1893,
      "indeed": 1894,
      "tone": 1895,
      "riches": 1896,
      "plain": 1897,
      "plant": 1898,
      "prophesy": 1899,
      "drew": 1900,
      "wro": 1901,
      "hair": 1902,
      "upright": 1903,
      "Chald": 1904,
      "Wo": 1905,
      "With": 1906,
      "free": 1907,
      "nant": 1908,
      "poured": 1909,
      "table": 1910,
      "beat": 1911,
      "ider": 1912,
      "delight": 1913,
      "fellow": 1914,
      "remnant": 1915,
      "Surely": 1916,
      "cation": 1917,
      "fin": 1918,
      "ided": 1919,
      "skin": 1920,
      "sweet": 1921,
      "Chalde": 1922,
      "bit": 1923,
      "gover": 1924,
      "increase": 1925,
      "separ": 1926,
      "leaven": 1927,
      "elah": 1928,
      "fallen": 1929,
      "testimony": 1930,
      "Pharisees": 1931,
      "Even": 1932,
      "aph": 1933,
      "Jehosha": 1934,
      "repent": 1935,
      "goats": 1936,
      "sabbath": 1937,
      "Sab": 1938,
      "ange": 1939,
      "edge": 1940,
      "key": 1941,
      "owed": 1942,
      "foreign": 1943,
      "fourth": 1944,
      "Amor": 1945,
      "Also": 1946,
      "journey": 1947,
      "cent": 1948,
      "remem": 1949,
      "committed": 1950,
      "vill": 1951,
      "bel": 1952,
      "lasting": 1953,
      "Tent": 1954,
      "atone": 1955,
      "won": 1956,
      "greatly": 1957,
      "troub": 1958,
      "Jehoshaphat": 1959,
      "Ad": 1960,
      "secret": 1961,
      "meal": 1962,
      "Elijah": 1963,
      "atonement": 1964,
      "Ele": 1965,
      "Ze": 1966,
      "Zi": 1967,
      "rup": 1968,
      "form": 1969,
      "everlasting": 1970,
      "medi": 1971,
      "cla": 1972,
      "mis": 1973,
      "past": 1974,
      "theless": 1975,
      "affliction": 1976,
      "corrup": 1977,
      "From": 1978,
      "ig": 1979,
      "xt": 1980,
      "aside": 1981,
      "accept": 1982,
      "foolish": 1983,
      "reproach": 1984,
      "ilk": 1985,
      "neth": 1986,
      "judgments": 1987,
      "hatever": 1988,
      "Daniel": 1989,
      "mediately": 1990,
      "Li": 1991,
      "Zer": 1992,
      "slay": 1993,
      "early": 1994,
      "apost": 1995,
      "lambs": 1996,
      "Neither": 1997,
      "quire": 1998,
      "transgress": 1999,
      "Sabbath": 2000,
      "iness": 2001,
      "Ish": 2002,
      "charge": 2003,
      "ruler": 2004,
      "vail": 2005,
      "Ram": 2006,
      "bore": 2007,
      "xed": 2008,
      "hah": 2009,
      "widow": 2010,
      "beyond": 2011,
      "ual": 2012,
      "deep": 2013,
      "parts": 2014,
      "drun": 2015,
      "flocks": 2016,
      "honor": 2017,
      "garment": 2018,
      "viol": 2019,
      "continually": 2020,
      "established": 2021,
      "athen": 2022,
      "ns": 2023,
      "nine": 2024,
      "sn": 2025,
      "fill": 2026,
      "tenth": 2027,
      "fulfilled": 2028,
      "write": 2029,
      "devour": 2030,
      "circumcised": 2031,
      "declare": 2032,
      "governor": 2033,
      "Ahaz": 2034,
      "Gali": 2035,
      "low": 2036,
      "dem": 2037,
      "perse": 2038,
      "please": 2039,
      "sacrifices": 2040,
      "bowed": 2041,
      "length": 2042,
      "gotten": 2043,
      "asso": 2044,
      "irg": 2045,
      "fier": 2046,
      "seeing": 2047,
      "fully": 2048,
      "justice": 2049,
      "pleased": 2050,
      "rams": 2051,
      "Elisha": 2052,
      "Woe": 2053,
      "donkey": 2054,
      "certainly": 2055,
      "ized": 2056,
      "rulers": 2057,
      "Those": 2058,
      "Thy": 2059,
      "Zeb": 2060,
      "healed": 2061,
      "beasts": 2062,
      "youth": 2063,
      "ceit": 2064,
      "ries": 2065,
      "Hebron": 2066,
      "prosp": 2067,
      "visit": 2068,
      "neighbour": 2069,
      "Which": 2070,
      "Mer": 2071,
      "gent": 2072,
      "rejo": 2073,
      "ada": 2074,
      "exal": 2075,
      "company": 2076,
      "messengers": 2077,
      "aw": 2078,
      "fts": 2079,
      "behind": 2080,
      "white": 2081,
      "eting": 2082,
      "souls": 2083,
      "Amen": 2084,
      "mi": 2085,
      "ms": 2086,
      "want": 2087,
      "think": 2088,
      "rebu": 2089,
      "ached": 2090,
      "wherein": 2091,
      "flow": 2092,
      "seventy": 2093,
      "Simon": 2094,
      "air": 2095,
      "dle": 2096,
      "hang": 2097,
      "forsa": 2098,
      "kets": 2099,
      "sorrow": 2100,
      "assover": 2101,
      "prosper": 2102,
      "De": 2103,
      "hish": 2104,
      "ils": 2105,
      "net": 2106,
      "greater": 2107,
      "anything": 2108,
      "bullo": 2109,
      "stretched": 2110,
      "Leb": 2111,
      "dry": 2112,
      "sur": 2113,
      "ough": 2114,
      "heal": 2115,
      "heathen": 2116,
      "hide": 2117,
      "always": 2118,
      "nezzar": 2119,
      "womb": 2120,
      "thence": 2121,
      "tempt": 2122,
      "scat": 2123,
      "abominations": 2124,
      "branches": 2125,
      "Nebuchadnezzar": 2126,
      "Selah": 2127,
      "shadow": 2128,
      "worthy": 2129,
      "mbers": 2130,
      "speaking": 2131,
      "precious": 2132,
      "chem": 2133,
      "lamb": 2134,
      "except": 2135,
      "leavened": 2136,
      "crown": 2137,
      "gthen": 2138,
      "vo": 2139,
      "wings": 2140,
      "att": 2141,
      "sear": 2142,
      "waste": 2143,
      "shout": 2144,
      "named": 2145,
      "prepare": 2146,
      "Syri": 2147,
      "Syria": 2148,
      "profit": 2149,
      "bitter": 2150,
      "Uzz": 2151,
      "cru": 2152,
      "pour": 2153,
      "wound": 2154,
      "arise": 2155,
      "noise": 2156,
      "compass": 2157,
      "Levi": 2158,
      "guard": 2159,
      "tents": 2160,
      "grass": 2161,
      "faces": 2162,
      "ices": 2163,
      "feed": 2164,
      "rule": 2165,
      "flour": 2166,
      "morrow": 2167,
      "taught": 2168,
      "animals": 2169,
      "oxen": 2170,
      "abundance": 2171,
      "Eleazar": 2172,
      "Have": 2173,
      "langu": 2174,
      "pes": 2175,
      "height": 2176,
      "ton": 2177,
      "road": 2178,
      "formed": 2179,
      "resto": 2180,
      "true": 2181,
      "clothed": 2182,
      "Meeting": 2183,
      "Leban": 2184,
      "Mes": 2185,
      "val": 2186,
      "virg": 2187,
      "thel": 2188,
      "ision": 2189,
      "next": 2190,
      "angry": 2191,
      "prey": 2192,
      "cloth": 2193,
      "abomination": 2194,
      "stit": 2195,
      "Arise": 2196,
      "measure": 2197,
      "supp": 2198,
      "encamped": 2199,
      ",'": 2200,
      "cy": 2201,
      "kno": 2202,
      "sla": 2203,
      "aniah": 2204,
      "ises": 2205,
      "deceit": 2206,
      "alous": 2207,
      "lying": 2208,
      "shield": 2209,
      "sancti": 2210,
      "interpre": 2211,
      "villages": 2212,
      "Galilee": 2213,
      "forsaken": 2214,
      "obed": 2215,
      "wept": 2216,
      "acts": 2217,
      "pleasant": 2218,
      "See": 2219,
      "vineyard": 2220,
      "Lebanon": 2221,
      "obedi": 2222,
      "talk": 2223,
      "yes": 2224,
      "adul": 2225,
      "prostit": 2226,
      "preach": 2227,
      "ceive": 2228,
      "doors": 2229,
      "appeared": 2230,
      "neighbor": 2231,
      "Chaldeans": 2232,
      "exalted": 2233,
      "scattered": 2234,
      "horns": 2235,
      "gives": 2236,
      "resh": 2237,
      "strengthen": 2238,
      "path": 2239,
      "weak": 2240,
      "Ash": 2241,
      "golden": 2242,
      "captive": 2243,
      "rejoic": 2244,
      "reed": 2245,
      "seat": 2246,
      "ush": 2247,
      "giving": 2248,
      "nago": 2249,
      "synago": 2250,
      "Kingdom": 2251,
      "ordinances": 2252,
      "Mid": 2253,
      "emed": 2254,
      "Bethel": 2255,
      "Job": 2256,
      "harvest": 2257,
      "fruits": 2258,
      "shewed": 2259,
      "Mount": 2260,
      "bri": 2261,
      "cc": 2262,
      "cease": 2263,
      "rivers": 2264,
      "angers": 2265,
      "quest": 2266,
      "ughter": 2267,
      "whatsoever": 2268,
      "scribes": 2269,
      "troubled": 2270,
      "ecut": 2271,
      "gro": 2272,
      "removed": 2273,
      "aries": 2274,
      "dec": 2275,
      "goeth": 2276,
      "condem": 2277,
      "handmaid": 2278,
      "move": 2279,
      "walls": 2280,
      "Most": 2281,
      "Abimelech": 2282,
      "revealed": 2283,
      "Amorites": 2284,
      "claim": 2285,
      "Midian": 2286,
      "Not": 2287,
      "Please": 2288,
      "blem": 2289,
      "akim": 2290,
      "play": 2291,
      "Shechem": 2292,
      "fuge": 2293,
      "honour": 2294,
      "divided": 2295,
      "Again": 2296,
      "Spe": 2297,
      "refuge": 2298,
      "whither": 2299,
      "neck": 2300,
      "firm": 2301,
      "kindled": 2302,
      "Never": 2303,
      "ele": 2304,
      "hung": 2305,
      "tock": 2306,
      "orde": 2307,
      "lear": 2308,
      "whosoever": 2309,
      "pect": 2310,
      "Reho": 2311,
      "blessing": 2312,
      "quick": 2313,
      "vanity": 2314,
      "Say": 2315,
      "Zed": 2316,
      "nal": 2317,
      "whatever": 2318,
      "ariah": 2319,
      "core": 2320,
      "person": 2321,
      "thousands": 2322,
      "wrote": 2323,
      "Sar": 2324,
      "Ty": 2325,
      "eter": 2326,
      "loud": 2327,
      "ners": 2328,
      "pra": 2329,
      "sell": 2330,
      "weight": 2331,
      "cai": 2332,
      "adab": 2333,
      "few": 2334,
      "feared": 2335,
      "others": 2336,
      "judged": 2337,
      "pleasure": 2338,
      "stayed": 2339,
      "defiled": 2340,
      "blemish": 2341,
      "Speak": 2342,
      "Nevertheless": 2343,
      "Har": 2344,
      "Un": 2345,
      "fought": 2346,
      "honey": 2347,
      "livestock": 2348,
      "signs": 2349,
      "punish": 2350,
      "ror": 2351,
      "fail": 2352,
      "lands": 2353,
      "Jeric": 2354,
      "dili": 2355,
      "giveth": 2356,
      "grain": 2357,
      "clothing": 2358,
      "profan": 2359,
      "escape": 2360,
      "garden": 2361,
      "cherubim": 2362,
      "apostles": 2363,
      "Jericho": 2364,
      "Es": 2365,
      "lod": 2366,
      "nah": 2367,
      "oath": 2368,
      "sion": 2369,
      "tar": 2370,
      "stree": 2371,
      "outside": 2372,
      "makes": 2373,
      "anyone": 2374,
      "execut": 2375,
      "spring": 2376,
      "streets": 2377,
      "Dam": 2378,
      "ban": 2379,
      "cord": 2380,
      "heth": 2381,
      "hearken": 2382,
      "maketh": 2383,
      "Abner": 2384,
      "Balaam": 2385,
      "),": 2386,
      "Sin": 2387,
      "bon": 2388,
      "gir": 2389,
      "prou": 2390,
      "belong": 2391,
      "upward": 2392,
      "mbled": 2393,
      "marve": 2394,
      "anoint": 2395,
      "Zedekiah": 2396,
      "Lo": 2397,
      "rection": 2398,
      "sack": 2399,
      "abroad": 2400,
      "sum": 2401,
      "likewise": 2402,
      "dwelling": 2403,
      "prayed": 2404,
      "Abram": 2405,
      "sprink": 2406,
      "Syrians": 2407,
      "cers": 2408,
      "pers": 2409,
      "heed": 2410,
      "shed": 2411,
      "rust": 2412,
      "eph": 2413,
      "Whoever": 2414,
      "satis": 2415,
      "trumpet": 2416,
      "Damas": 2417,
      "Will": 2418,
      "ied": 2419,
      "pest": 2420,
      "aston": 2421,
      "forget": 2422,
      "lied": 2423,
      "burning": 2424,
      "tained": 2425,
      "ashan": 2426,
      "teenth": 2427,
      "bra": 2428,
      "lad": 2429,
      "itt": 2430,
      "didst": 2431,
      "Jehu": 2432,
      "hills": 2433,
      "jealous": 2434,
      "consider": 2435,
      "uthor": 2436,
      "snare": 2437,
      "persecut": 2438,
      "Damascus": 2439,
      "Bashan": 2440,
      "Morde": 2441,
      "Na": 2442,
      "bad": 2443,
      "fain": 2444,
      "inno": 2445,
      "inion": 2446,
      "stir": 2447,
      "deal": 2448,
      "whoever": 2449,
      "strangers": 2450,
      "thirst": 2451,
      "strike": 2452,
      "animal": 2453,
      "officers": 2454,
      "eternal": 2455,
      "Mordecai": 2456,
      "Hanan": 2457,
      "der": 2458,
      "leth": 2459,
      "home": 2460,
      "forsake": 2461,
      "dealt": 2462,
      "lament": 2463,
      "trave": 2464,
      "treasures": 2465,
      "baptized": 2466,
      "Uri": 2467,
      "author": 2468,
      "asphe": 2469,
      "member": 2470,
      "unleavened": 2471,
      "chur": 2472,
      "rather": 2473,
      "soon": 2474,
      "doing": 2475,
      "immediately": 2476,
      "blasphe": 2477,
      "months": 2478,
      "chariot": 2479,
      "images": 2480,
      "hidden": 2481,
      "touch": 2482,
      "drive": 2483,
      "fifth": 2484,
      "<<": 2485,
      ">>": 2486,
      "Le": 2487,
      "yoke": 2488,
      "som": 2489,
      "proclaim": 2490,
      "plu": 2491,
      "brook": 2492,
      "poll": 2493,
      "redeemed": 2494,
      "Ge": 2495,
      "Haz": 2496,
      "Pil": 2497,
      "lar": 2498,
      "scar": 2499,
      "ends": 2500,
      "endure": 2501,
      "mbling": 2502,
      "merch": 2503,
      "altars": 2504,
      "judges": 2505,
      "smite": 2506,
      "thoughts": 2507,
      "comfort": 2508,
      "horsemen": 2509,
      "kne": 2510,
      "sore": 2511,
      "heav": 2512,
      "heap": 2513,
      "too": 2514,
      "once": 2515,
      "ult": 2516,
      "fields": 2517,
      "reje": 2518,
      "compan": 2519,
      "Almighty": 2520,
      "redeem": 2521,
      "birds": 2522,
      "bah": 2523,
      "mayest": 2524,
      "buy": 2525,
      "deser": 2526,
      "observe": 2527,
      "Shime": 2528,
      ".>>": 2529,
      "Lab": 2530,
      "dro": 2531,
      "ff": 2532,
      "rings": 2533,
      "atan": 2534,
      "lean": 2535,
      "aren": 2536,
      "afterward": 2537,
      "queen": 2538,
      "dominion": 2539,
      "choose": 2540,
      "sitting": 2541,
      "afflicted": 2542,
      "provin": 2543,
      "liness": 2544,
      "escaped": 2545,
      "remembered": 2546,
      "sanctified": 2547,
      "proud": 2548,
      "Are": 2549,
      "Bring": 2550,
      "Praise": 2551,
      "dou": 2552,
      "rage": 2553,
      "goes": 2554,
      "gift": 2555,
      "hated": 2556,
      "kingdoms": 2557,
      "nakedness": 2558,
      "Ishma": 2559,
      "Pilate": 2560,
      "Satan": 2561,
      "cro": 2562,
      "ckets": 2563,
      "pen": 2564,
      "meon": 2565,
      "Good": 2566,
      "devoured": 2567,
      "curtain": 2568,
      "Noah": 2569,
      "favor": 2570,
      "Zebul": 2571,
      "slaughter": 2572,
      "interpret": 2573,
      "Esther": 2574,
      "Laban": 2575,
      "Miz": 2576,
      "hen": 2577,
      "orah": 2578,
      "met": 2579,
      "song": 2580,
      "eps": 2581,
      "post": 2582,
      "excell": 2583,
      "desolation": 2584,
      "instruments": 2585,
      "corrupt": 2586,
      "violence": 2587,
      "non": 2588,
      "pay": 2589,
      "reap": 2590,
      "chang": 2591,
      "willing": 2592,
      "sockets": 2593,
      "ourselves": 2594,
      "Jez": 2595,
      "swear": 2596,
      "despised": 2597,
      "Gil": 2598,
      "Make": 2599,
      "Mary": 2600,
      "Naph": 2601,
      "season": 2602,
      "lehem": 2603,
      "rob": 2604,
      "forgive": 2605,
      "gifts": 2606,
      "Asher": 2607,
      "hort": 2608,
      "Josiah": 2609,
      "visions": 2610,
      "empt": 2611,
      "scribe": 2612,
      "wonders": 2613,
      "Herod": 2614,
      "exceedingly": 2615,
      "finished": 2616,
      "Napht": 2617,
      "--": 2618,
      "Bel": 2619,
      "Had": 2620,
      "ues": 2621,
      "inner": 2622,
      "odom": 2623,
      "peth": 2624,
      "abide": 2625,
      "spir": 2626,
      "spel": 2627,
      "speech": 2628,
      "founded": 2629,
      "grave": 2630,
      "quiet": 2631,
      "sanctify": 2632,
      "straight": 2633,
      "rebell": 2634,
      "bullock": 2635,
      "authority": 2636,
      "Ishmael": 2637,
      "Zad": 2638,
      "fish": 2639,
      "reel": 2640,
      "foundation": 2641,
      "Though": 2642,
      "aliah": 2643,
      "Bethlehem": 2644,
      "labor": 2645,
      "Haman": 2646,
      "Simeon": 2647,
      "friends": 2648,
      "Zadok": 2649,
      "Kir": 2650,
      "Oh": 2651,
      "tend": 2652,
      "wal": 2653,
      "hod": 2654,
      "care": 2655,
      "terri": 2656,
      "pride": 2657,
      "wherewith": 2658,
      "cleans": 2659,
      "habitation": 2660,
      "quired": 2661,
      "Yea": 2662,
      "remained": 2663,
      "circumcision": 2664,
      "Ko": 2665,
      "Neth": 2666,
      "ick": 2667,
      "oking": 2668,
      "mel": 2669,
      "forgiven": 2670,
      "gospel": 2671,
      "consume": 2672,
      "labour": 2673,
      "establish": 2674,
      "promise": 2675,
      "Jehoiada": 2676,
      "knoweth": 2677,
      "diligent": 2678,
      "Naphtali": 2679,
      "lust": 2680,
      "swall": 2681,
      "wels": 2682,
      "shake": 2683,
      "venge": 2684,
      "worshi": 2685,
      "moon": 2686,
      "preached": 2687,
      "creat": 2688,
      "Remember": 2689,
      "cedar": 2690,
      "mourning": 2691,
      "pillar": 2692,
      "transgres": 2693,
      "trumpets": 2694,
      "adversaries": 2695,
      "suppli": 2696,
      "Amale": 2697,
      "Jam": 2698,
      "Mac": 2699,
      "Rab": 2700,
      "mir": 2701,
      "pati": 2702,
      "wheat": 2703,
      "iniquities": 2704,
      "witnesses": 2705,
      "appearance": 2706,
      "talents": 2707,
      "decree": 2708,
      "Rehoboam": 2709,
      "scarlet": 2710,
      "Amalek": 2711,
      "Ara": 2712,
      "bind": 2713,
      "furn": 2714,
      "hin": 2715,
      "wrought": 2716,
      "thrown": 2717,
      "tower": 2718,
      "stars": 2719,
      "forward": 2720,
      "ket": 2721,
      "amar": 2722,
      "parable": 2723,
      "prophesi": 2724,
      "strange": 2725,
      "testify": 2726,
      "teaching": 2727,
      "Ged": 2728,
      "Hor": 2729,
      "Ke": 2730,
      "nest": 2731,
      "nigh": 2732,
      "rah": 2733,
      "throw": 2734,
      "idon": 2735,
      "ephod": 2736,
      "breast": 2737,
      "besides": 2738,
      "wrong": 2739,
      "blue": 2740,
      "countries": 2741,
      "touched": 2742,
      "needy": 2743,
      "Did": 2744,
      "Nathan": 2745,
      "bid": 2746,
      "fow": 2747,
      "ield": 2748,
      "ashes": 2749,
      "memor": 2750,
      "arer": 2751,
      "else": 2752,
      "achel": 2753,
      "serp": 2754,
      "ously": 2755,
      "lamp": 2756,
      "flood": 2757,
      "purple": 2758,
      "driven": 2759,
      "hurt": 2760,
      "milk": 2761,
      "wave": 2762,
      "thither": 2763,
      "inquire": 2764,
      "orders": 2765,
      "doings": 2766,
      "Hebre": 2767,
      "camels": 2768,
      "breath": 2769,
      "spear": 2770,
      "Joash": 2771,
      "News": 2772,
      "Azariah": 2773,
      "virgin": 2774,
      "Jezreel": 2775,
      "Sodom": 2776,
      "gal": 2777,
      "ked": 2778,
      "puri": 2779,
      "rus": 2780,
      "tes": 2781,
      "yield": 2782,
      "roar": 2783,
      "lions": 2784,
      "add": 2785,
      "fig": 2786,
      "conceived": 2787,
      "worn": 2788,
      "aketh": 2789,
      "sinners": 2790,
      "joined": 2791,
      "bodies": 2792,
      "slept": 2793,
      "birth": 2794,
      "transgressions": 2795,
      "adulter": 2796,
      "pestil": 2797,
      "Zebulun": 2798,
      "Hitt": 2799,
      "Im": 2800,
      "Our": 2801,
      "aim": 2802,
      "bor": 2803,
      "bright": 2804,
      "borders": 2805,
      "fro": 2806,
      "grow": 2807,
      "tomb": 2808,
      "forest": 2809,
      "doeth": 2810,
      "teeth": 2811,
      "boast": 2812,
      "apart": 2813,
      "perver": 2814,
      "liveth": 2815,
      "daily": 2816,
      "Shema": 2817,
      "glorified": 2818,
      "tables": 2819,
      "divide": 2820,
      "weeping": 2821,
      "swore": 2822,
      "shepherd": 2823,
      "compassion": 2824,
      "Tyre": 2825,
      "Rachel": 2826,
      "lah": 2827,
      "array": 2828,
      "steps": 2829,
      "former": 2830,
      "washed": 2831,
      "devil": 2832,
      "Canaanites": 2833,
      "despise": 2834,
      "towns": 2835,
      "quickly": 2836,
      "Ai": 2837,
      "kis": 2838,
      "pah": 2839,
      "els": 2840,
      "urrection": 2841,
      "female": 2842,
      "knowing": 2843,
      "Jesse": 2844,
      "bury": 2845,
      "promised": 2846,
      "rejoiced": 2847,
      "sackcloth": 2848,
      "Kohath": 2849,
      "prophesied": 2850,
      "pestilence": 2851,
      "Ez": 2852,
      "Th": 2853,
      "bought": 2854,
      "inth": 2855,
      "escore": 2856,
      "itself": 2857,
      "persons": 2858,
      "cursed": 2859,
      "confid": 2860,
      "multiply": 2861,
      "Caes": 2862,
      "foreigner": 2863,
      "Chi": 2864,
      "Hu": 2865,
      "Jeph": 2866,
      "fy": 2867,
      "gue": 2868,
      "sworn": 2869,
      "tur": 2870,
      "oked": 2871,
      "bot": 2872,
      "app": 2873,
      "sixth": 2874,
      "covering": 2875,
      "measured": 2876,
      "deeds": 2877,
      "confess": 2878,
      "thick": 2879,
      "threescore": 2880,
      "multiplied": 2881,
      "Per": 2882,
      "Tim": 2883,
      "arrows": 2884,
      "rent": 2885,
      "letter": 2886,
      "created": 2887,
      "following": 2888,
      "tray": 2889,
      "pitched": 2890,
      "tors": 2891,
      "clouds": 2892,
      "gladness": 2893,
      "risen": 2894,
      "vineyards": 2895,
      "Gibeah": 2896,
      "prostitute": 2897,
      "Bo": 2898,
      "Ghost": 2899,
      "Has": 2900,
      "cess": 2901,
      "thorns": 2902,
      "armies": 2903,
      "defi": 2904,
      "along": 2905,
      "udden": 2906,
      "respect": 2907,
      "broke": 2908,
      "Jebus": 2909,
      "mourn": 2910,
      "increased": 2911,
      "subje": 2912,
      "Gibeon": 2913,
      "vengeance": 2914,
      "Gide": 2915,
      "High": 2916,
      "kid": 2917,
      "kened": 2918,
      "olive": 2919,
      "sow": 2920,
      "hail": 2921,
      "forgotten": 2922,
      "lip": 2923,
      "ursed": 2924,
      "udes": 2925,
      "green": 2926,
      "bride": 2927,
      "appro": 2928,
      "sixty": 2929,
      "appoint": 2930,
      "beauty": 2931,
      "beautiful": 2932,
      "drunk": 2933,
      "synagogue": 2934,
      "interpretation": 2935,
      "Gideon": 2936,
      "Gers": 2937,
      "Nab": 2938,
      "dam": 2939,
      "ile": 2940,
      "sachar": 2941,
      "Issachar": 2942,
      "accom": 2943,
      "hearing": 2944,
      "grew": 2945,
      "antly": 2946,
      "smit": 2947,
      "piece": 2948,
      "smoke": 2949,
      "Only": 2950,
      "dedic": 2951,
      "eleven": 2952,
      "changed": 2953,
      "accompl": 2954,
      "En": 2955,
      "Hag": 2956,
      "Know": 2957,
      "Lot": 2958,
      "cra": 2959,
      "thrust": 2960,
      "anah": 2961,
      "ashi": 2962,
      "staff": 2963,
      "looking": 2964,
      "knows": 2965,
      "perform": 2966,
      "wherefore": 2967,
      "disobedi": 2968,
      "fruitful": 2969,
      "declared": 2970,
      "distress": 2971,
      "Balak": 2972,
      "Car": 2973,
      "Gre": 2974,
      "Jab": 2975,
      "fil": 2976,
      "ger": 2977,
      "iv": 2978,
      "latter": 2979,
      "rel": 2980,
      "recomp": 2981,
      "isn": 2982,
      "wever": 2983,
      "weary": 2984,
      "root": 2985,
      "ales": 2986,
      "confounded": 2987,
      "fatherless": 2988,
      "ishon": 2989,
      "shekel": 2990,
      "treasure": 2991,
      "Tell": 2992,
      "shepherds": 2993,
      "rebuke": 2994,
      "satisfied": 2995,
      "rejected": 2996,
      "Shimei": 2997,
      "Red": 2998,
      "ias": 2999
    },
    "merges": [
      [
        "t",
        "h"
      ],
      [
        "th",
        "e"
      ],
      [
        "a",
        "n"
      ],
      [
        "i",
        "n"
      ],
      [
        "an",
        "d"
      ],
      [
        "r",
        "e"
      ],
      [
        "o",
        "u"
      ],
      [
        "o",
        "f"
      ],
      [
        "h",
        "e"
      ],
      [
        "t",
        "o"
      ],
      [
        "l",
        "l"
      ],
      [
        "o",
        "n"
      ],
      [
        "h",
        "a"
      ],
      [
        "i",
        "s"
      ],
      [
        "e",
        "r"
      ],
      [
        "o",
        "r"
      ],
      [
        "e",
        "s"
      ],
      [
        "e",
        "n"
      ],
      [
        "a",
        "t"
      ],
      [
        "e",
        "d"
      ],
      [
        "in",
        "g"
      ],
      [
        "h",
        "i"
      ],
      [
        "s",
        "e"
      ],
      [
        "a",
        "r"
      ],
      [
        "i",
        "t"
      ],
      [
        "b",
        "e"
      ],
      [
        "a",
        "s"
      ],
      [
        "w",
        "i"
      ],
      [
        "y",
        "ou"
      ],
      [
        "m",
        "e"
      ],
      [
        "s",
        "a"
      ],
      [
        "l",
        "e"
      ],
      [
        "th",
        "at"
      ],
      [
        "w",
        "e"
      ],
      [
        "v",
        "e"
      ],
      [
        "s",
        "ha"
      ],
      [
        "h",
        "o"
      ],
      [
        "n",
        "d"
      ],
      [
        "i",
        "d"
      ],
      [
        "s",
        "t"
      ],
      [
        "r",
        "o"
      ],
      [
        "n",
        "o"
      ],
      [
        "f",
        "or"
      ],
      [
        "h",
        "is"
      ],
      [
        "l",
        "d"
      ],
      [
        "sha",
        "ll"
      ],
      [
        "g",
        "h"
      ],
      [
        "a",
        "h"
      ],
      [
        "a",
        "ll"
      ],
      [
        "a",
        "y"
      ],
      [
        "hi",
        "m"
      ],
      [
        "o",
        "d"
      ],
      [
        "i",
        "r"
      ],
      [
        "wi",
        "th"
      ],
      [
        "u",
        "n"
      ],
      [
        "A",
        "nd"
      ],
      [
        "c",
        "e"
      ],
      [
        "the",
        "m"
      ],
      [
        "u",
        "t"
      ],
      [
        "c",
        "h"
      ],
      [
        "T",
        "he"
      ],
      [
        "l",
        "i"
      ],
      [
        "r",
        "a"
      ],
      [
        "the",
        "y"
      ],
      [
        "r",
        "i"
      ],
      [
        "v",
        "er"
      ],
      [
        "the",
        "r"
      ],
      [
        "gh",
        "t"
      ],
      [
        "en",
        "t"
      ],
      [
        "c",
        "o"
      ],
      [
        "d",
        "e"
      ],
      [
        "a",
        "l"
      ],
      [
        "wi",
        "ll"
      ],
      [
        "k",
        "e"
      ],
      [
        "c",
        "a"
      ],
      [
        "no",
        "t"
      ],
      [
        "o",
        "re"
      ],
      [
        "w",
        "ho"
      ],
      [
        "m",
        "y"
      ],
      [
        "a",
        "m"
      ],
      [
        "you",
        "r"
      ],
      [
        "w",
        "as"
      ],
      [
        "or",
        "d"
      ],
      [
        "o",
        "w"
      ],
      [
        "un",
        "to"
      ],
      [
        "u",
        "p"
      ],
      [
        "a",
        "re"
      ],
      [
        "e",
        "l"
      ],
      [
        "ha",
        "ve"
      ],
      [
        "u",
        "s"
      ],
      [
        "p",
        "e"
      ],
      [
        "a",
        "in"
      ],
      [
        "w",
        "hi"
      ],
      [
        "ou",
        "t"
      ],
      [
        "G",
        "od"
      ],
      [
        "ro",
        "m"
      ],
      [
        "i",
        "on"
      ],
      [
        "sa",
        "id"
      ],
      [
        "v",
        "en"
      ],
      [
        "s",
        "o"
      ],
      [
        "the",
        "ir"
      ],
      [
        "on",
        "e"
      ],
      [
        "f",
        "rom"
      ],
      [
        "the",
        "re"
      ],
      [
        "m",
        "an"
      ],
      [
        "whi",
        "ch"
      ],
      [
        "i",
        "l"
      ],
      [
        "f",
        "ore"
      ],
      [
        "a",
        "b"
      ],
      [
        "a",
        "d"
      ],
      [
        "m",
        "a"
      ],
      [
        "u",
        "r"
      ],
      [
        "y",
        "e"
      ],
      [
        "h",
        "ou"
      ],
      [
        "k",
        "ing"
      ],
      [
        "es",
        "s"
      ],
      [
        "Y",
        "ah"
      ],
      [
        "s",
        "on"
      ],
      [
        "es",
        "t"
      ],
      [
        "we",
        "h"
      ],
      [
        "Yah",
        "weh"
      ],
      [
        "g",
        "o"
      ],
      [
        "l",
        "o"
      ],
      [
        "th",
        "ou"
      ],
      [
        "L",
        "O"
      ],
      [
        "R",
        "D"
      ],
      [
        "LO",
        "RD"
      ],
      [
        "we",
        "re"
      ],
      [
        "d",
        "o"
      ],
      [
        "t",
        "er"
      ],
      [
        "f",
        "i"
      ],
      [
        "w",
        "he"
      ],
      [
        "ou",
        "r"
      ],
      [
        "n",
        "e"
      ],
      [
        "l",
        "y"
      ],
      [
        "a",
        "g"
      ],
      [
        "I",
        "s"
      ],
      [
        "a",
        "c"
      ],
      [
        "he",
        "r"
      ],
      [
        "f",
        "e"
      ],
      [
        "o",
        "p"
      ],
      [
        "sa",
        "y"
      ],
      [
        "f",
        "a"
      ],
      [
        "d",
        "ay"
      ],
      [
        "b",
        "y"
      ],
      [
        "ra",
        "el"
      ],
      [
        "Is",
        "rael"
      ],
      [
        "re",
        "n"
      ],
      [
        "b",
        "ut"
      ],
      [
        "H",
        "e"
      ],
      [
        "re",
        "d"
      ],
      [
        "th",
        "y"
      ],
      [
        "th",
        "is"
      ],
      [
        "c",
        "hi"
      ],
      [
        "t",
        "s"
      ],
      [
        "s",
        "p"
      ],
      [
        "r",
        "ou"
      ],
      [
        "ha",
        "d"
      ],
      [
        "er",
        "s"
      ],
      [
        "at",
        "ion"
      ],
      [
        "u",
        "l"
      ],
      [
        "he",
        "ar"
      ],
      [
        "ca",
        "me"
      ],
      [
        "t",
        "e"
      ],
      [
        "ag",
        "ain"
      ],
      [
        "pe",
        "op"
      ],
      [
        "l",
        "a"
      ],
      [
        "no",
        "w"
      ],
      [
        "hou",
        "se"
      ],
      [
        "co",
        "me"
      ],
      [
        "whe",
        "n"
      ],
      [
        "se",
        "l"
      ],
      [
        "m",
        "en"
      ],
      [
        "th",
        "ing"
      ],
      [
        "w",
        "ay"
      ],
      [
        "co",
        "m"
      ],
      [
        "p",
        "t"
      ],
      [
        "peop",
        "le"
      ],
      [
        "c",
        "on"
      ],
      [
        "h",
        "and"
      ],
      [
        "chi",
        "ld"
      ],
      [
        "in",
        "to"
      ],
      [
        "c",
        "k"
      ],
      [
        "the",
        "e"
      ],
      [
        "in",
        "e"
      ],
      [
        "e",
        "ver"
      ],
      [
        "i",
        "ght"
      ],
      [
        "F",
        "or"
      ],
      [
        "g",
        "e"
      ],
      [
        "n",
        "ess"
      ],
      [
        "of",
        "f"
      ],
      [
        "l",
        "and"
      ],
      [
        "ur",
        "n"
      ],
      [
        "o",
        "k"
      ],
      [
        "u",
        "d"
      ],
      [
        "child",
        "ren"
      ],
      [
        "ow",
        "n"
      ],
      [
        "g",
        "i"
      ],
      [
        ".",
        "\""
      ],
      [
        "be",
        "fore"
      ],
      [
        "s",
        "er"
      ],
      [
        "ho",
        "ld"
      ],
      [
        "w",
        "ent"
      ],
      [
        "w",
        "o"
      ],
      [
        "u",
        "se"
      ],
      [
        "w",
        "ord"
      ],
      [
        "s",
        "he"
      ],
      [
        "r",
        "u"
      ],
      [
        "on",
        "g"
      ],
      [
        "it",
        "y"
      ],
      [
        "g",
        "re"
      ],
      [
        "v",
        "es"
      ],
      [
        "again",
        "st"
      ],
      [
        "a",
        "f"
      ],
      [
        "o",
        "s"
      ],
      [
        "ca",
        "use"
      ],
      [
        "i",
        "m"
      ],
      [
        "as",
        "t"
      ],
      [
        "a",
        "k"
      ],
      [
        "fa",
        "ther"
      ],
      [
        "al",
        "so"
      ],
      [
        "ha",
        "t"
      ],
      [
        "B",
        "ut"
      ],
      [
        "u",
        "nd"
      ],
      [
        "w",
        "or"
      ],
      [
        "B",
        "e"
      ],
      [
        "p",
        "ro"
      ],
      [
        "o",
        "ver"
      ],
      [
        "an",
        "t"
      ],
      [
        "e",
        "ar"
      ],
      [
        "o",
        "se"
      ],
      [
        "e",
        "t"
      ],
      [
        "ha",
        "s"
      ],
      [
        "i",
        "f"
      ],
      [
        "ma",
        "de"
      ],
      [
        "ar",
        "d"
      ],
      [
        "up",
        "on"
      ],
      [
        "say",
        "ing"
      ],
      [
        "a",
        "ke"
      ],
      [
        "k",
        "now"
      ],
      [
        "ser",
        "v"
      ],
      [
        "i",
        "es"
      ],
      [
        "is",
        "e"
      ],
      [
        "a",
        "th"
      ],
      [
        "e",
        "p"
      ],
      [
        "e",
        "ven"
      ],
      [
        "a",
        "v"
      ],
      [
        "as",
        "s"
      ],
      [
        "is",
        "t"
      ],
      [
        "t",
        "ed"
      ],
      [
        "s",
        "u"
      ],
      [
        "an",
        "s"
      ],
      [
        "o",
        "ther"
      ],
      [
        "off",
        "er"
      ],
      [
        "p",
        "l"
      ],
      [
        "ou",
        "n"
      ],
      [
        "in",
        "d"
      ],
      [
        "i",
        "ah"
      ],
      [
        "m",
        "ent"
      ],
      [
        "e",
        "v"
      ],
      [
        "m",
        "ay"
      ],
      [
        "re",
        "s"
      ],
      [
        "p",
        "r"
      ],
      [
        "d",
        "id"
      ],
      [
        "The",
        "n"
      ],
      [
        "ha",
        "th"
      ],
      [
        "b",
        "r"
      ],
      [
        "ou",
        "s"
      ],
      [
        "en",
        "d"
      ],
      [
        "t",
        "i"
      ],
      [
        "le",
        "t"
      ],
      [
        "b",
        "re"
      ],
      [
        "com",
        "m"
      ],
      [
        "m",
        "b"
      ],
      [
        "n",
        "a"
      ],
      [
        "l",
        "t"
      ],
      [
        "d",
        "own"
      ],
      [
        "i",
        "th"
      ],
      [
        "son",
        "s"
      ],
      [
        "ri",
        "ght"
      ],
      [
        "thing",
        "s"
      ],
      [
        "L",
        "ord"
      ],
      [
        "b",
        "o"
      ],
      [
        "gre",
        "at"
      ],
      [
        "The",
        "y"
      ],
      [
        "ou",
        "nd"
      ],
      [
        "ever",
        "y"
      ],
      [
        "D",
        "av"
      ],
      [
        "Dav",
        "id"
      ],
      [
        "J",
        "es"
      ],
      [
        "se",
        "e"
      ],
      [
        "be",
        "cause"
      ],
      [
        "an",
        "g"
      ],
      [
        "the",
        "n"
      ],
      [
        "it",
        "s"
      ],
      [
        "id",
        "e"
      ],
      [
        "an",
        "y"
      ],
      [
        "offer",
        "ing"
      ],
      [
        "ma",
        "ke"
      ],
      [
        "p",
        "ri"
      ],
      [
        "v",
        "ed"
      ],
      [
        "J",
        "er"
      ],
      [
        "t",
        "urn"
      ],
      [
        "af",
        "ter"
      ],
      [
        "b",
        "u"
      ],
      [
        "b",
        "ro"
      ],
      [
        "J",
        "e"
      ],
      [
        "a",
        "p"
      ],
      [
        "n",
        "or"
      ],
      [
        "sel",
        "f"
      ],
      [
        "g",
        "a"
      ],
      [
        "S",
        "o"
      ],
      [
        "ear",
        "th"
      ],
      [
        "the",
        "se"
      ],
      [
        "i",
        "ce"
      ],
      [
        "Jes",
        "us"
      ],
      [
        "d",
        "i"
      ],
      [
        "ar",
        "s"
      ],
      [
        "W",
        "he"
      ],
      [
        "li",
        "ke"
      ],
      [
        "c",
        "t"
      ],
      [
        "a",
        "way"
      ],
      [
        "re",
        "e"
      ],
      [
        "i",
        "ll"
      ],
      [
        "s",
        "in"
      ],
      [
        "na",
        "me"
      ],
      [
        "p",
        "er"
      ],
      [
        "p",
        "ut"
      ],
      [
        "pri",
        "est"
      ],
      [
        "le",
        "m"
      ],
      [
        "comm",
        "and"
      ],
      [
        "q",
        "u"
      ],
      [
        "s",
        "to"
      ],
      [
        "m",
        "on"
      ],
      [
        "rou",
        "ght"
      ],
      [
        "l",
        "es"
      ],
      [
        "gi",
        "ve"
      ],
      [
        "oun",
        "t"
      ],
      [
        "r",
        "y"
      ],
      [
        "ac",
        "c"
      ],
      [
        "th",
        "ose"
      ],
      [
        "J",
        "ud"
      ],
      [
        "i",
        "ther"
      ],
      [
        "w",
        "ard"
      ],
      [
        "am",
        "ong"
      ],
      [
        "or",
        "n"
      ],
      [
        "Y",
        "ou"
      ],
      [
        "p",
        "ar"
      ],
      [
        "m",
        "o"
      ],
      [
        "l",
        "ed"
      ],
      [
        "day",
        "s"
      ],
      [
        "b",
        "rought"
      ],
      [
        "os",
        "es"
      ],
      [
        "c",
        "ity"
      ],
      [
        "The",
        "re"
      ],
      [
        "M",
        "oses"
      ],
      [
        "c",
        "all"
      ],
      [
        "w",
        "at"
      ],
      [
        "p",
        "ass"
      ],
      [
        "it",
        "es"
      ],
      [
        "hear",
        "t"
      ],
      [
        "Jer",
        "u"
      ],
      [
        "do",
        "m"
      ],
      [
        "m",
        "ight"
      ],
      [
        "t",
        "wo"
      ],
      [
        "Jud",
        "ah"
      ],
      [
        "f",
        "o"
      ],
      [
        "he",
        "d"
      ],
      [
        "go",
        "od"
      ],
      [
        "l",
        "ess"
      ],
      [
        "sa",
        "lem"
      ],
      [
        "Jeru",
        "salem"
      ],
      [
        "wor",
        "k"
      ],
      [
        "A",
        "b"
      ],
      [
        "ord",
        "ing"
      ],
      [
        "sha",
        "lt"
      ],
      [
        "hou",
        "ld"
      ],
      [
        "la",
        "ce"
      ],
      [
        "s",
        "pe"
      ],
      [
        "an",
        "ts"
      ],
      [
        "a",
        "ven"
      ],
      [
        "t",
        "en"
      ],
      [
        "p",
        "he"
      ],
      [
        "e",
        "at"
      ],
      [
        "s",
        "ou"
      ],
      [
        "s",
        "i"
      ],
      [
        "N",
        "ow"
      ],
      [
        "p",
        "lace"
      ],
      [
        "u",
        "ght"
      ],
      [
        "li",
        "ve"
      ],
      [
        "o",
        "l"
      ],
      [
        "acc",
        "ording"
      ],
      [
        "s",
        "hould"
      ],
      [
        "e",
        "th"
      ],
      [
        "is",
        "h"
      ],
      [
        "t",
        "ake"
      ],
      [
        "for",
        "th"
      ],
      [
        "br",
        "ing"
      ],
      [
        "to",
        "ok"
      ],
      [
        "g",
        "y"
      ],
      [
        "p",
        "o"
      ],
      [
        "c",
        "ri"
      ],
      [
        "we",
        "ll"
      ],
      [
        "at",
        "e"
      ],
      [
        "m",
        "ore"
      ],
      [
        "there",
        "fore"
      ],
      [
        "p",
        "re"
      ],
      [
        "E",
        "gy"
      ],
      [
        "Egy",
        "pt"
      ],
      [
        "who",
        "m"
      ],
      [
        "an",
        "ce"
      ],
      [
        "c",
        "es"
      ],
      [
        "w",
        "hat"
      ],
      [
        "ation",
        "s"
      ],
      [
        "se",
        "t"
      ],
      [
        "s",
        "ent"
      ],
      [
        "g",
        "n"
      ],
      [
        "p",
        "le"
      ],
      [
        "f",
        "t"
      ],
      [
        "c",
        "ha"
      ],
      [
        "ne",
        "ither"
      ],
      [
        "st",
        "and"
      ],
      [
        "whe",
        "re"
      ],
      [
        "und",
        "er"
      ],
      [
        "e",
        "y"
      ],
      [
        "ou",
        "ld"
      ],
      [
        "g",
        "l"
      ],
      [
        "rou",
        "gh"
      ],
      [
        "e",
        "ld"
      ],
      [
        "Be",
        "hold"
      ],
      [
        "o",
        "ice"
      ],
      [
        "A",
        "s"
      ],
      [
        "u",
        "b"
      ],
      [
        "Whe",
        "n"
      ],
      [
        "f",
        "ir"
      ],
      [
        "e",
        "x"
      ],
      [
        "c",
        "i"
      ],
      [
        "d",
        "a"
      ],
      [
        "b",
        "urn"
      ],
      [
        "sel",
        "ves"
      ],
      [
        "bro",
        "ther"
      ],
      [
        "th",
        "rough"
      ],
      [
        "d",
        "is"
      ],
      [
        "d",
        "es"
      ],
      [
        "I",
        "t"
      ],
      [
        "th",
        "an"
      ],
      [
        "pro",
        "phe"
      ],
      [
        "be",
        "hold"
      ],
      [
        "j",
        "ud"
      ],
      [
        "u",
        "re"
      ],
      [
        "e",
        "ous"
      ],
      [
        "hear",
        "d"
      ],
      [
        "sa",
        "ith"
      ],
      [
        "u",
        "st"
      ],
      [
        "p",
        "h"
      ],
      [
        "h",
        "und"
      ],
      [
        "ti",
        "me"
      ],
      [
        "hund",
        "red"
      ],
      [
        "it",
        "e"
      ],
      [
        "v",
        "ing"
      ],
      [
        "c",
        "er"
      ],
      [
        "ev",
        "il"
      ],
      [
        "ro",
        "w"
      ],
      [
        "right",
        "eous"
      ],
      [
        "I",
        "f"
      ],
      [
        "t",
        "re"
      ],
      [
        "s",
        "and"
      ],
      [
        "he",
        "aven"
      ],
      [
        "sa",
        "w"
      ],
      [
        "t",
        "ru"
      ],
      [
        "call",
        "ed"
      ],
      [
        "h",
        "us"
      ],
      [
        "la",
        "w"
      ],
      [
        "h",
        "r"
      ],
      [
        "ha",
        "st"
      ],
      [
        "a",
        "ul"
      ],
      [
        "m",
        "ed"
      ],
      [
        "a",
        "ch"
      ],
      [
        "en",
        "ed"
      ],
      [
        "ir",
        "it"
      ],
      [
        "t",
        "le"
      ],
      [
        "fir",
        "st"
      ],
      [
        "word",
        "s"
      ],
      [
        "se",
        "ven"
      ],
      [
        "ce",
        "i"
      ],
      [
        "da",
        "ught"
      ],
      [
        "thou",
        "sand"
      ],
      [
        "d",
        "est"
      ],
      [
        "C",
        "hr"
      ],
      [
        "f",
        "ul"
      ],
      [
        "he",
        "ad"
      ],
      [
        "Chr",
        "ist"
      ],
      [
        "p",
        "p"
      ],
      [
        "S",
        "he"
      ],
      [
        "n",
        "ing"
      ],
      [
        "father",
        "s"
      ],
      [
        "d",
        "one"
      ],
      [
        "ho",
        "w"
      ],
      [
        "t",
        "y"
      ],
      [
        "ck",
        "ed"
      ],
      [
        "serv",
        "ant"
      ],
      [
        "f",
        "ound"
      ],
      [
        "fi",
        "re"
      ],
      [
        "m",
        "er"
      ],
      [
        "in",
        "k"
      ],
      [
        "it",
        "ies"
      ],
      [
        "c",
        "le"
      ],
      [
        "gi",
        "ven"
      ],
      [
        "ye",
        "ars"
      ],
      [
        "say",
        "s"
      ],
      [
        "him",
        "self"
      ],
      [
        "man",
        "y"
      ],
      [
        "J",
        "o"
      ],
      [
        "st",
        "r"
      ],
      [
        "a",
        "ce"
      ],
      [
        "al",
        "t"
      ],
      [
        "ab",
        "out"
      ],
      [
        "There",
        "fore"
      ],
      [
        "d",
        "on"
      ],
      [
        "w",
        "ould"
      ],
      [
        "ar",
        "k"
      ],
      [
        "s",
        "ide"
      ],
      [
        "ey",
        "es"
      ],
      [
        "h",
        "u"
      ],
      [
        "n",
        "g"
      ],
      [
        "sou",
        "l"
      ],
      [
        "b",
        "lo"
      ],
      [
        "gl",
        "or"
      ],
      [
        "L",
        "et"
      ],
      [
        "serv",
        "ants"
      ],
      [
        "ga",
        "ve"
      ],
      [
        "d",
        "r"
      ],
      [
        "en",
        "ce"
      ],
      [
        "ge",
        "ther"
      ],
      [
        "to",
        "gether"
      ],
      [
        "be",
        "g"
      ],
      [
        "ro",
        "y"
      ],
      [
        "v",
        "oice"
      ],
      [
        "ans",
        "were"
      ],
      [
        "h",
        "y"
      ],
      [
        "ha",
        "b"
      ],
      [
        "f",
        "our"
      ],
      [
        "ho",
        "ly"
      ],
      [
        "go",
        "ld"
      ],
      [
        "sp",
        "o"
      ],
      [
        "m",
        "ount"
      ],
      [
        "ha",
        "r"
      ],
      [
        "answere",
        "d"
      ],
      [
        "i",
        "gn"
      ],
      [
        "th",
        "ree"
      ],
      [
        "c",
        "ut"
      ],
      [
        "ye",
        "t"
      ],
      [
        "t",
        "ri"
      ],
      [
        "spe",
        "ak"
      ],
      [
        "li",
        "fe"
      ],
      [
        "wi",
        "cked"
      ],
      [
        "c",
        "he"
      ],
      [
        "re",
        "m"
      ],
      [
        "bre",
        "ad"
      ],
      [
        "d",
        "well"
      ],
      [
        "un",
        "t"
      ],
      [
        "c",
        "an"
      ],
      [
        "o",
        "m"
      ],
      [
        "turn",
        "ed"
      ],
      [
        "p",
        "res"
      ],
      [
        "ab",
        "le"
      ],
      [
        "t",
        "ain"
      ],
      [
        "ca",
        "pt"
      ],
      [
        "b",
        "es"
      ],
      [
        "command",
        "ed"
      ],
      [
        "blo",
        "od"
      ],
      [
        "J",
        "a"
      ],
      [
        "w",
        "r"
      ],
      [
        "th",
        "ine"
      ],
      [
        "li",
        "ght"
      ],
      [
        "ou",
        "th"
      ],
      [
        "th",
        "ir"
      ],
      [
        "there",
        "of"
      ],
      [
        "dest",
        "roy"
      ],
      [
        "f",
        "u"
      ],
      [
        "l",
        "ist"
      ],
      [
        "a",
        "se"
      ],
      [
        "jud",
        "g"
      ],
      [
        "ing",
        "s"
      ],
      [
        "c",
        "ities"
      ],
      [
        "hand",
        "s"
      ],
      [
        "u",
        "e"
      ],
      [
        "k",
        "en"
      ],
      [
        "m",
        "ies"
      ],
      [
        "I",
        "n"
      ],
      [
        "e",
        "f"
      ],
      [
        "ment",
        "s"
      ],
      [
        "t",
        "we"
      ],
      [
        "c",
        "ar"
      ],
      [
        "c",
        "re"
      ],
      [
        "g",
        "ra"
      ],
      [
        "unt",
        "il"
      ],
      [
        "s",
        "hi"
      ],
      [
        "an",
        "other"
      ],
      [
        "f",
        "am"
      ],
      [
        "m",
        "outh"
      ],
      [
        "?",
        "\""
      ],
      [
        "m",
        "id"
      ],
      [
        "c",
        "l"
      ],
      [
        "en",
        "e"
      ],
      [
        "al",
        "k"
      ],
      [
        "u",
        "m"
      ],
      [
        "W",
        "ho"
      ],
      [
        "fa",
        "ce"
      ],
      [
        "o",
        "ld"
      ],
      [
        "be",
        "en"
      ],
      [
        "s",
        "word"
      ],
      [
        "n",
        "ations"
      ],
      [
        "S",
        "aul"
      ],
      [
        "c",
        "ast"
      ],
      [
        "ke",
        "ep"
      ],
      [
        "T",
        "hus"
      ],
      [
        "wat",
        "er"
      ],
      [
        "T",
        "his"
      ],
      [
        "pr",
        "ay"
      ],
      [
        "wi",
        "fe"
      ],
      [
        "c",
        "lo"
      ],
      [
        "pe",
        "ace"
      ],
      [
        "cle",
        "an"
      ],
      [
        "f",
        "les"
      ],
      [
        "k",
        "ill"
      ],
      [
        "rou",
        "nd"
      ],
      [
        "pr",
        "in"
      ],
      [
        "fles",
        "h"
      ],
      [
        "te",
        "ll"
      ],
      [
        "them",
        "selves"
      ],
      [
        "priest",
        "s"
      ],
      [
        "m",
        "ul"
      ],
      [
        "h",
        "or"
      ],
      [
        "t",
        "ak"
      ],
      [
        "mb",
        "er"
      ],
      [
        "glor",
        "y"
      ],
      [
        "re",
        "st"
      ],
      [
        "hi",
        "gh"
      ],
      [
        "R",
        "e"
      ],
      [
        "W",
        "hat"
      ],
      [
        "o",
        "t"
      ],
      [
        "ll",
        "ow"
      ],
      [
        "w",
        "s"
      ],
      [
        "A",
        "m"
      ],
      [
        "s",
        "il"
      ],
      [
        "j",
        "o"
      ],
      [
        "b",
        "a"
      ],
      [
        "ac",
        "k"
      ],
      [
        "co",
        "b"
      ],
      [
        "de",
        "ath"
      ],
      [
        "se",
        "a"
      ],
      [
        "ye",
        "ar"
      ],
      [
        "did",
        "n"
      ],
      [
        "Ja",
        "cob"
      ],
      [
        "s",
        "y"
      ],
      [
        "f",
        "all"
      ],
      [
        "b",
        "less"
      ],
      [
        "alt",
        "ar"
      ],
      [
        "k",
        "ind"
      ],
      [
        "u",
        "ch"
      ],
      [
        "as",
        "se"
      ],
      [
        "g",
        "od"
      ],
      [
        "you",
        "ng"
      ],
      [
        "ain",
        "s"
      ],
      [
        "l",
        "ong"
      ],
      [
        "fa",
        "ith"
      ],
      [
        "d",
        "en"
      ],
      [
        "p",
        "os"
      ],
      [
        "l",
        "ay"
      ],
      [
        "ver",
        "y"
      ],
      [
        "i",
        "c"
      ],
      [
        "L",
        "ev"
      ],
      [
        "mid",
        "st"
      ],
      [
        "A",
        "r"
      ],
      [
        "s",
        "es"
      ],
      [
        "ri",
        "ed"
      ],
      [
        "de",
        "ad"
      ],
      [
        "lo",
        "ve"
      ],
      [
        "dr",
        "ink"
      ],
      [
        "wo",
        "man"
      ],
      [
        "re",
        "cei"
      ],
      [
        "re",
        "ad"
      ],
      [
        "ha",
        "pp"
      ],
      [
        "l",
        "am"
      ],
      [
        "with",
        "out"
      ],
      [
        "l",
        "on"
      ],
      [
        "fi",
        "eld"
      ],
      [
        "li",
        "e"
      ],
      [
        "burn",
        "t"
      ],
      [
        "to",
        "ward"
      ],
      [
        "le",
        "ft"
      ],
      [
        "ct",
        "ion"
      ],
      [
        "fu",
        "ll"
      ],
      [
        "ar",
        "on"
      ],
      [
        "A",
        "aron"
      ],
      [
        "is",
        "ed"
      ],
      [
        "wi",
        "ld"
      ],
      [
        "w",
        "alk"
      ],
      [
        "G",
        "o"
      ],
      [
        "a",
        "z"
      ],
      [
        "hab",
        "it"
      ],
      [
        "fi",
        "ed"
      ],
      [
        "ang",
        "er"
      ],
      [
        "m",
        "ine"
      ],
      [
        "T",
        "hou"
      ],
      [
        "b",
        "le"
      ],
      [
        "P",
        "hi"
      ],
      [
        "on",
        "d"
      ],
      [
        "i",
        "gh"
      ],
      [
        "fi",
        "ve"
      ],
      [
        "par",
        "t"
      ],
      [
        "n",
        "ight"
      ],
      [
        "re",
        "ign"
      ],
      [
        "might",
        "y"
      ],
      [
        "ll",
        "ed"
      ],
      [
        "her",
        "it"
      ],
      [
        "bo",
        "th"
      ],
      [
        "are",
        "d"
      ],
      [
        "fe",
        "ar"
      ],
      [
        "sp",
        "irit"
      ],
      [
        "b",
        "l"
      ],
      [
        "s",
        "h"
      ],
      [
        "N",
        "e"
      ],
      [
        "G",
        "i"
      ],
      [
        "A",
        "ll"
      ],
      [
        "m",
        "other"
      ],
      [
        "w",
        "ar"
      ],
      [
        "s",
        "ight"
      ],
      [
        "M",
        "y"
      ],
      [
        "righteous",
        "ness"
      ],
      [
        ".",
        "'"
      ],
      [
        "w",
        "ise"
      ],
      [
        "ha",
        "m"
      ],
      [
        "is",
        "hed"
      ],
      [
        "king",
        "s"
      ],
      [
        "a",
        "ve"
      ],
      [
        "f",
        "ru"
      ],
      [
        "te",
        "m"
      ],
      [
        "king",
        "dom"
      ],
      [
        "sa",
        "cri"
      ],
      [
        "sto",
        "od"
      ],
      [
        "sacri",
        "fi"
      ],
      [
        "ar",
        "y"
      ],
      [
        "tak",
        "en"
      ],
      [
        "t",
        "went"
      ],
      [
        "p",
        "s"
      ],
      [
        "e",
        "k"
      ],
      [
        "ac",
        "es"
      ],
      [
        "S",
        "am"
      ],
      [
        "t",
        "it"
      ],
      [
        "in",
        "es"
      ],
      [
        "sa",
        "me"
      ],
      [
        "daught",
        "er"
      ],
      [
        "li",
        "ver"
      ],
      [
        "sil",
        "ver"
      ],
      [
        "w",
        "all"
      ],
      [
        "wr",
        "it"
      ],
      [
        "in",
        "i"
      ],
      [
        "so",
        "me"
      ],
      [
        "con",
        "t"
      ],
      [
        "mon",
        "th"
      ],
      [
        "chi",
        "ef"
      ],
      [
        "ow",
        "er"
      ],
      [
        "ini",
        "qu"
      ],
      [
        "ne",
        "w"
      ],
      [
        "st",
        "ru"
      ],
      [
        "Ab",
        "ra"
      ],
      [
        "a",
        "ther"
      ],
      [
        "il",
        "y"
      ],
      [
        "ser",
        "ve"
      ],
      [
        "in",
        "herit"
      ],
      [
        "co",
        "ven"
      ],
      [
        "li",
        "es"
      ],
      [
        "si",
        "x"
      ],
      [
        "ho",
        "st"
      ],
      [
        "ab",
        "y"
      ],
      [
        "lo",
        "mon"
      ],
      [
        "So",
        "lomon"
      ],
      [
        "di",
        "e"
      ],
      [
        "coven",
        "ant"
      ],
      [
        "de",
        "v"
      ],
      [
        "er",
        "ness"
      ],
      [
        "c",
        "ount"
      ],
      [
        "g",
        "th"
      ],
      [
        "l",
        "s"
      ],
      [
        "s",
        "ed"
      ],
      [
        "ar",
        "t"
      ],
      [
        "la",
        "id"
      ],
      [
        "c",
        "ub"
      ],
      [
        "ra",
        "ise"
      ],
      [
        "wild",
        "erness"
      ],
      [
        "m",
        "uch"
      ],
      [
        "b",
        "orn"
      ],
      [
        "t",
        "ab"
      ],
      [
        "i",
        "ld"
      ],
      [
        "B",
        "aby"
      ],
      [
        "f",
        "lo"
      ],
      [
        "Baby",
        "lon"
      ],
      [
        "twent",
        "y"
      ],
      [
        "he",
        "l"
      ],
      [
        "ang",
        "el"
      ],
      [
        "l",
        "ord"
      ],
      [
        "lo",
        "ok"
      ],
      [
        "Phi",
        "list"
      ],
      [
        "to",
        "ld"
      ],
      [
        "sp",
        "ake"
      ],
      [
        "way",
        "s"
      ],
      [
        "E",
        "li"
      ],
      [
        "st",
        "ren"
      ],
      [
        "t",
        "est"
      ],
      [
        "s",
        "k"
      ],
      [
        "as",
        "k"
      ],
      [
        "spo",
        "ke"
      ],
      [
        "P",
        "ha"
      ],
      [
        "de",
        "live"
      ],
      [
        "S",
        "on"
      ],
      [
        "there",
        "d"
      ],
      [
        "cer",
        "ning"
      ],
      [
        "str",
        "ong"
      ],
      [
        "W",
        "e"
      ],
      [
        "M",
        "o"
      ],
      [
        "mer",
        "c"
      ],
      [
        "mul",
        "tit"
      ],
      [
        "b",
        "ur"
      ],
      [
        "o",
        "h"
      ],
      [
        "at",
        "tle"
      ],
      [
        "i",
        "a"
      ],
      [
        "n",
        "one"
      ],
      [
        "sp",
        "ok"
      ],
      [
        "wat",
        "ers"
      ],
      [
        "dis",
        "ci"
      ],
      [
        "b",
        "ack"
      ],
      [
        "spok",
        "en"
      ],
      [
        "p",
        "or"
      ],
      [
        "th",
        "ren"
      ],
      [
        "de",
        "liver"
      ],
      [
        "che",
        "s"
      ],
      [
        "s",
        "an"
      ],
      [
        "s",
        "ess"
      ],
      [
        "J",
        "os"
      ],
      [
        "pos",
        "sess"
      ],
      [
        "h",
        "on"
      ],
      [
        "w",
        "a"
      ],
      [
        "who",
        "se"
      ],
      [
        "u",
        "de"
      ],
      [
        "in",
        "habit"
      ],
      [
        "F",
        "ather"
      ],
      [
        "be",
        "ing"
      ],
      [
        "ne",
        "ar"
      ],
      [
        "ra",
        "oh"
      ],
      [
        "bre",
        "thren"
      ],
      [
        "Pha",
        "raoh"
      ],
      [
        "wor",
        "ld"
      ],
      [
        "g",
        "ate"
      ],
      [
        "do",
        "es"
      ],
      [
        "delive",
        "red"
      ],
      [
        "writ",
        "ten"
      ],
      [
        "a",
        "li"
      ],
      [
        "offering",
        "s"
      ],
      [
        "c",
        "ho"
      ],
      [
        "in",
        "ted"
      ],
      [
        "se",
        "en"
      ],
      [
        "Whe",
        "re"
      ],
      [
        "b",
        "od"
      ],
      [
        "se",
        "ed"
      ],
      [
        "c",
        "hed"
      ],
      [
        "con",
        "cerning"
      ],
      [
        "qu",
        "i"
      ],
      [
        "n",
        "ed"
      ],
      [
        "ca",
        "m"
      ],
      [
        "brother",
        "s"
      ],
      [
        "pl",
        "es"
      ],
      [
        "under",
        "stand"
      ],
      [
        "do",
        "or"
      ],
      [
        "B",
        "en"
      ],
      [
        "Lev",
        "ites"
      ],
      [
        "prin",
        "ces"
      ],
      [
        "is",
        "ter"
      ],
      [
        "n",
        "er"
      ],
      [
        "iniqu",
        "ity"
      ],
      [
        "p",
        "i"
      ],
      [
        "b",
        "ed"
      ],
      [
        "w",
        "ine"
      ],
      [
        "fe",
        "et"
      ],
      [
        "ga",
        "thered"
      ],
      [
        "p",
        "ower"
      ],
      [
        "hu",
        "a"
      ],
      [
        "ion",
        "s"
      ],
      [
        "ac",
        "le"
      ],
      [
        "bu",
        "ild"
      ],
      [
        "c",
        "oun"
      ],
      [
        "re",
        "turn"
      ],
      [
        "fru",
        "it"
      ],
      [
        "D",
        "on"
      ],
      [
        "j",
        "ust"
      ],
      [
        "s",
        "at"
      ],
      [
        "v",
        "is"
      ],
      [
        "cer",
        "tain"
      ],
      [
        "ver",
        "s"
      ],
      [
        "Philist",
        "ines"
      ],
      [
        "work",
        "s"
      ],
      [
        "Je",
        "ho"
      ],
      [
        "ene",
        "mies"
      ],
      [
        "S",
        "p"
      ],
      [
        "l",
        "it"
      ],
      [
        "see",
        "k"
      ],
      [
        "happ",
        "ened"
      ],
      [
        "ord",
        "er"
      ],
      [
        "p",
        "ur"
      ],
      [
        "ple",
        "as"
      ],
      [
        "daught",
        "ers"
      ],
      [
        "er",
        "n"
      ],
      [
        "con",
        "gre"
      ],
      [
        "congre",
        "g"
      ],
      [
        "J",
        "ose"
      ],
      [
        "The",
        "se"
      ],
      [
        "Je",
        "ws"
      ],
      [
        "g",
        "ar"
      ],
      [
        "shi",
        "p"
      ],
      [
        "Abra",
        "ham"
      ],
      [
        "Jose",
        "ph"
      ],
      [
        "ou",
        "d"
      ],
      [
        "prophe",
        "t"
      ],
      [
        "fo",
        "llow"
      ],
      [
        "congreg",
        "ation"
      ],
      [
        "f",
        "l"
      ],
      [
        "c",
        "ur"
      ],
      [
        "th",
        "us"
      ],
      [
        "su",
        "re"
      ],
      [
        "s",
        "le"
      ],
      [
        "disci",
        "ples"
      ],
      [
        "b",
        "ow"
      ],
      [
        "ex",
        "ce"
      ],
      [
        "sa",
        "l"
      ],
      [
        "fe",
        "ll"
      ],
      [
        "tri",
        "be"
      ],
      [
        "multit",
        "ude"
      ],
      [
        "Sp",
        "irit"
      ],
      [
        "il",
        "t"
      ],
      [
        "fi",
        "lled"
      ],
      [
        "in",
        "s"
      ],
      [
        "o",
        "th"
      ],
      [
        "w",
        "is"
      ],
      [
        "who",
        "le"
      ],
      [
        "ra",
        "m"
      ],
      [
        "un",
        "clean"
      ],
      [
        "P",
        "e"
      ],
      [
        "no",
        "thing"
      ],
      [
        "s",
        "l"
      ],
      [
        "s",
        "c"
      ],
      [
        "tab",
        "ern"
      ],
      [
        "cam",
        "p"
      ],
      [
        "H",
        "ow"
      ],
      [
        "W",
        "hy"
      ],
      [
        "m",
        "in"
      ],
      [
        "prophe",
        "ts"
      ],
      [
        "w",
        "ra"
      ],
      [
        "le",
        "ad"
      ],
      [
        "god",
        "s"
      ],
      [
        "b",
        "s"
      ],
      [
        "inherit",
        "ance"
      ],
      [
        "g",
        "u"
      ],
      [
        "be",
        "ar"
      ],
      [
        "g",
        "en"
      ],
      [
        "ag",
        "e"
      ],
      [
        "M",
        "an"
      ],
      [
        "judg",
        "ment"
      ],
      [
        "twe",
        "en"
      ],
      [
        "s",
        "end"
      ],
      [
        "at",
        "ter"
      ],
      [
        "i",
        "z"
      ],
      [
        "be",
        "tween"
      ],
      [
        "gen",
        "er"
      ],
      [
        "ra",
        "id"
      ],
      [
        "lit",
        "tle"
      ],
      [
        "a",
        "i"
      ],
      [
        "t",
        "im"
      ],
      [
        "orn",
        "ing"
      ],
      [
        "be",
        "came"
      ],
      [
        "m",
        "ar"
      ],
      [
        "re",
        "j"
      ],
      [
        "w",
        "er"
      ],
      [
        "as",
        "h"
      ],
      [
        "H",
        "o"
      ],
      [
        "capt",
        "i"
      ],
      [
        "c",
        "ed"
      ],
      [
        "w",
        "ind"
      ],
      [
        "m",
        "orning"
      ],
      [
        "t",
        "ent"
      ],
      [
        "af",
        "f"
      ],
      [
        "ou",
        "ght"
      ],
      [
        "d",
        "re"
      ],
      [
        "d",
        "ark"
      ],
      [
        "ma",
        "le"
      ],
      [
        "tru",
        "th"
      ],
      [
        "tabern",
        "acle"
      ],
      [
        "st",
        "ri"
      ],
      [
        "!",
        "\""
      ],
      [
        "b",
        "and"
      ],
      [
        "af",
        "raid"
      ],
      [
        "know",
        "n"
      ],
      [
        "ra",
        "im"
      ],
      [
        "wra",
        "th"
      ],
      [
        "wis",
        "dom"
      ],
      [
        "s",
        "m"
      ],
      [
        "on",
        "ly"
      ],
      [
        "at",
        "es"
      ],
      [
        "Jos",
        "hua"
      ],
      [
        "stren",
        "gth"
      ],
      [
        "m",
        "or"
      ],
      [
        "on",
        "es"
      ],
      [
        "pl",
        "aces"
      ],
      [
        "jo",
        "y"
      ],
      [
        "f",
        "ar"
      ],
      [
        "if",
        "y"
      ],
      [
        "T",
        "o"
      ],
      [
        "T",
        "hat"
      ],
      [
        "ap",
        "po"
      ],
      [
        "bod",
        "y"
      ],
      [
        "o",
        "ve"
      ],
      [
        "cub",
        "its"
      ],
      [
        "g",
        "r"
      ],
      [
        "su",
        "ch"
      ],
      [
        "cha",
        "ri"
      ],
      [
        "E",
        "ph"
      ],
      [
        "he",
        "re"
      ],
      [
        "di",
        "ed"
      ],
      [
        "ck",
        "s"
      ],
      [
        "sto",
        "ne"
      ],
      [
        "sa",
        "ke"
      ],
      [
        "g",
        "one"
      ],
      [
        "com",
        "p"
      ],
      [
        "C",
        "an"
      ],
      [
        "o",
        "il"
      ],
      [
        "as",
        "ter"
      ],
      [
        "your",
        "selves"
      ],
      [
        "so",
        "ever"
      ],
      [
        "merc",
        "y"
      ],
      [
        "t",
        "r"
      ],
      [
        "n",
        "u"
      ],
      [
        "c",
        "our"
      ],
      [
        "l",
        "est"
      ],
      [
        "be",
        "come"
      ],
      [
        "one",
        "y"
      ],
      [
        "twe",
        "l"
      ],
      [
        "asse",
        "mb"
      ],
      [
        "g",
        "round"
      ],
      [
        "on",
        "s"
      ],
      [
        "p",
        "it"
      ],
      [
        "ha",
        "ving"
      ],
      [
        "des",
        "i"
      ],
      [
        "v",
        "ine"
      ],
      [
        "fore",
        "ver"
      ],
      [
        "she",
        "ep"
      ],
      [
        "e",
        "b"
      ],
      [
        "lo",
        "ved"
      ],
      [
        "im",
        "on"
      ],
      [
        "sacrifi",
        "ce"
      ],
      [
        "c",
        "ry"
      ],
      [
        "ab",
        "ove"
      ],
      [
        "s",
        "ing"
      ],
      [
        "th",
        "r"
      ],
      [
        "bu",
        "ilt"
      ],
      [
        "san",
        "ct"
      ],
      [
        "g",
        "ed"
      ],
      [
        "z",
        "z"
      ],
      [
        "sure",
        "ly"
      ],
      [
        "u",
        "res"
      ],
      [
        "cha",
        "r"
      ],
      [
        "tem",
        "ple"
      ],
      [
        "co",
        "ve"
      ],
      [
        "al",
        "s"
      ],
      [
        "whi",
        "le"
      ],
      [
        "inhabit",
        "ants"
      ],
      [
        "n",
        "es"
      ],
      [
        "re",
        "me"
      ],
      [
        "be",
        "y"
      ],
      [
        "Be",
        "th"
      ],
      [
        "le",
        "e"
      ],
      [
        "S",
        "ha"
      ],
      [
        "ri",
        "a"
      ],
      [
        "t",
        "ree"
      ],
      [
        "Be",
        "cause"
      ],
      [
        "v",
        "i"
      ],
      [
        "st",
        "at"
      ],
      [
        "ap",
        "pe"
      ],
      [
        "B",
        "a"
      ],
      [
        "J",
        "ord"
      ],
      [
        "u",
        "el"
      ],
      [
        "Mo",
        "ab"
      ],
      [
        "Jord",
        "an"
      ],
      [
        "c",
        "en"
      ],
      [
        "she",
        "w"
      ],
      [
        "ath",
        "an"
      ],
      [
        "H",
        "is"
      ],
      [
        "il",
        "ed"
      ],
      [
        "sa",
        "ve"
      ],
      [
        "f",
        "ind"
      ],
      [
        "s",
        "it"
      ],
      [
        "Y",
        "e"
      ],
      [
        "b",
        "ath"
      ],
      [
        "e",
        "ast"
      ],
      [
        "ar",
        "ound"
      ],
      [
        "st",
        "re"
      ],
      [
        "fam",
        "i"
      ],
      [
        "j",
        "ah"
      ],
      [
        "clo",
        "the"
      ],
      [
        "count",
        "ry"
      ],
      [
        "O",
        "f"
      ],
      [
        "s",
        "or"
      ],
      [
        "t",
        "rou"
      ],
      [
        "led",
        "ge"
      ],
      [
        "des",
        "ol"
      ],
      [
        "li",
        "ved"
      ],
      [
        "con",
        "d"
      ],
      [
        "fo",
        "ol"
      ],
      [
        "ek",
        "iah"
      ],
      [
        "ha",
        "te"
      ],
      [
        "bo",
        "ok"
      ],
      [
        "mo",
        "st"
      ],
      [
        "re",
        "p"
      ],
      [
        "at",
        "ed"
      ],
      [
        "ves",
        "sel"
      ],
      [
        "cont",
        "in"
      ],
      [
        "j",
        "am"
      ],
      [
        "in",
        "t"
      ],
      [
        "Ab",
        "i"
      ],
      [
        "jud",
        "ge"
      ],
      [
        "ent",
        "er"
      ],
      [
        "pass",
        "ed"
      ],
      [
        "po",
        "or"
      ],
      [
        "be",
        "lie"
      ],
      [
        "sin",
        "s"
      ],
      [
        "t",
        "a"
      ],
      [
        "recei",
        "ve"
      ],
      [
        "know",
        "ledge"
      ],
      [
        "par",
        "ted"
      ],
      [
        "A",
        "l"
      ],
      [
        "r",
        "ul"
      ],
      [
        "w",
        "it"
      ],
      [
        "al",
        "ed"
      ],
      [
        "thou",
        "gh"
      ],
      [
        "re",
        "turned"
      ],
      [
        "thir",
        "d"
      ],
      [
        "twel",
        "ve"
      ],
      [
        "eld",
        "ers"
      ],
      [
        "i",
        "ma"
      ],
      [
        "be",
        "red"
      ],
      [
        "as",
        "ts"
      ],
      [
        "s",
        "un"
      ],
      [
        "wo",
        "men"
      ],
      [
        "sto",
        "nes"
      ],
      [
        "bless",
        "ed"
      ],
      [
        "bro",
        "ken"
      ],
      [
        "Eph",
        "raim"
      ],
      [
        "Ben",
        "jam"
      ],
      [
        "p",
        "raise"
      ],
      [
        "pi",
        "e"
      ],
      [
        "d",
        "ra"
      ],
      [
        "n",
        "am"
      ],
      [
        "s",
        "we"
      ],
      [
        "s",
        "how"
      ],
      [
        "cri",
        "ed"
      ],
      [
        "pre",
        "p"
      ],
      [
        "beg",
        "an"
      ],
      [
        "N",
        "o"
      ],
      [
        "b",
        "order"
      ],
      [
        "por",
        "t"
      ],
      [
        "co",
        "ver"
      ],
      [
        "d",
        "s"
      ],
      [
        "se",
        "cond"
      ],
      [
        "rem",
        "ain"
      ],
      [
        "thr",
        "one"
      ],
      [
        "there",
        "in"
      ],
      [
        "mount",
        "ains"
      ],
      [
        "stat",
        "ut"
      ],
      [
        "an",
        "o"
      ],
      [
        "all",
        "ey"
      ],
      [
        "a",
        "an"
      ],
      [
        "with",
        "in"
      ],
      [
        "s",
        "mo"
      ],
      [
        "hi",
        "ll"
      ],
      [
        "de",
        "parted"
      ],
      [
        "thir",
        "ty"
      ],
      [
        "K",
        "ing"
      ],
      [
        "us",
        "ed"
      ],
      [
        "nu",
        "mber"
      ],
      [
        "I",
        "sa"
      ],
      [
        "ut",
        "ter"
      ],
      [
        "aff",
        "li"
      ],
      [
        "S",
        "e"
      ],
      [
        "fami",
        "lies"
      ],
      [
        "i",
        "el"
      ],
      [
        "o",
        "me"
      ],
      [
        "om",
        "in"
      ],
      [
        "b",
        "attle"
      ],
      [
        "v",
        "alley"
      ],
      [
        "l",
        "f"
      ],
      [
        "mount",
        "ain"
      ],
      [
        "tim",
        "es"
      ],
      [
        "rej",
        "oice"
      ],
      [
        "li",
        "ving"
      ],
      [
        "ab",
        "omin"
      ],
      [
        "sp",
        "r"
      ],
      [
        "r",
        "on"
      ],
      [
        "ge",
        "t"
      ],
      [
        "l",
        "ast"
      ],
      [
        "ou",
        "red"
      ],
      [
        "hou",
        "ses"
      ],
      [
        "belie",
        "ve"
      ],
      [
        "Y",
        "our"
      ],
      [
        "e",
        "m"
      ],
      [
        "command",
        "ment"
      ],
      [
        "reign",
        "ed"
      ],
      [
        "c",
        "ould"
      ],
      [
        "li",
        "f"
      ],
      [
        "com",
        "es"
      ],
      [
        "bu",
        "ll"
      ],
      [
        "n",
        "ation"
      ],
      [
        "stru",
        "ck"
      ],
      [
        "as",
        "on"
      ],
      [
        "st",
        "e"
      ],
      [
        "pro",
        "v"
      ],
      [
        "kill",
        "ed"
      ],
      [
        "appo",
        "inted"
      ],
      [
        "J",
        "on"
      ],
      [
        "t",
        "ra"
      ],
      [
        "me",
        "as"
      ],
      [
        "li",
        "ves"
      ],
      [
        "E",
        "l"
      ],
      [
        "destroy",
        "ed"
      ],
      [
        "Benjam",
        "in"
      ],
      [
        "l",
        "in"
      ],
      [
        "ke",
        "pt"
      ],
      [
        "k",
        "s"
      ],
      [
        "op",
        "en"
      ],
      [
        "si",
        "gn"
      ],
      [
        "me",
        "at"
      ],
      [
        "hel",
        "p"
      ],
      [
        "e",
        "red"
      ],
      [
        "ar",
        "ose"
      ],
      [
        "ask",
        "ed"
      ],
      [
        "v",
        "ation"
      ],
      [
        "el",
        "y"
      ],
      [
        "fe",
        "red"
      ],
      [
        "Can",
        "aan"
      ],
      [
        "fi",
        "ft"
      ],
      [
        "ans",
        "wer"
      ],
      [
        "row",
        "n"
      ],
      [
        "understand",
        "ing"
      ],
      [
        "to",
        "r"
      ],
      [
        "ar",
        "my"
      ],
      [
        "ne",
        "igh"
      ],
      [
        "dark",
        "ness"
      ],
      [
        "P",
        "aul"
      ],
      [
        "m",
        "our"
      ],
      [
        "di",
        "v"
      ],
      [
        "coun",
        "sel"
      ],
      [
        "c",
        "ted"
      ],
      [
        "f",
        "ast"
      ],
      [
        "hus",
        "band"
      ],
      [
        "Pe",
        "ter"
      ],
      [
        "D",
        "an"
      ],
      [
        "d",
        "ow"
      ],
      [
        "ga",
        "ther"
      ],
      [
        "tru",
        "st"
      ],
      [
        "neigh",
        "b"
      ],
      [
        "p",
        "ill"
      ],
      [
        "su",
        "f"
      ],
      [
        "ha",
        "lf"
      ],
      [
        "command",
        "ments"
      ],
      [
        "comm",
        "it"
      ],
      [
        "de",
        "ed"
      ],
      [
        "Jo",
        "h"
      ],
      [
        "hi",
        "d"
      ],
      [
        "cl",
        "oud"
      ],
      [
        "sal",
        "vation"
      ],
      [
        "sl",
        "ain"
      ],
      [
        "Z",
        "ion"
      ],
      [
        "f",
        "at"
      ],
      [
        "o",
        "ts"
      ],
      [
        "t",
        "ter"
      ],
      [
        "ir",
        "c"
      ],
      [
        "nor",
        "th"
      ],
      [
        "T",
        "ake"
      ],
      [
        "He",
        "z"
      ],
      [
        "wit",
        "ness"
      ],
      [
        "fift",
        "y"
      ],
      [
        "m",
        "aster"
      ],
      [
        "bo",
        "am"
      ],
      [
        "Ho",
        "ly"
      ],
      [
        "G",
        "O"
      ],
      [
        "S",
        "y"
      ],
      [
        "tre",
        "es"
      ],
      [
        "contin",
        "u"
      ],
      [
        "GO",
        "D"
      ],
      [
        "k",
        "es"
      ],
      [
        "does",
        "n"
      ],
      [
        "re",
        "pro"
      ],
      [
        "is",
        "on"
      ],
      [
        "lif",
        "ted"
      ],
      [
        "for",
        "ty"
      ],
      [
        "c",
        "irc"
      ],
      [
        "s",
        "s"
      ],
      [
        "in",
        "cen"
      ],
      [
        "ha",
        "z"
      ],
      [
        "i",
        "ans"
      ],
      [
        "s",
        "cri"
      ],
      [
        "t",
        "ou"
      ],
      [
        "i",
        "fied"
      ],
      [
        "in",
        "ed"
      ],
      [
        "con",
        "su"
      ],
      [
        "car",
        "ried"
      ],
      [
        "wa",
        "it"
      ],
      [
        "incen",
        "se"
      ],
      [
        "O",
        "n"
      ],
      [
        "l",
        "ab"
      ],
      [
        "bre",
        "ak"
      ],
      [
        "A",
        "n"
      ],
      [
        "ab",
        "l"
      ],
      [
        "go",
        "at"
      ],
      [
        "pr",
        "of"
      ],
      [
        "kind",
        "ness"
      ],
      [
        "host",
        "s"
      ],
      [
        "O",
        "ne"
      ],
      [
        "he",
        "s"
      ],
      [
        "wo",
        "od"
      ],
      [
        "Je",
        "rem"
      ],
      [
        "through",
        "out"
      ],
      [
        "sanct",
        "u"
      ],
      [
        "te",
        "ach"
      ],
      [
        "recei",
        "ved"
      ],
      [
        "Jerem",
        "iah"
      ],
      [
        "H",
        "am"
      ],
      [
        "ri",
        "ver"
      ],
      [
        "cove",
        "red"
      ],
      [
        "asse",
        "h"
      ],
      [
        "Man",
        "asseh"
      ],
      [
        "m",
        "ust"
      ],
      [
        "te",
        "en"
      ],
      [
        "c",
        "her"
      ],
      [
        "f",
        "led"
      ],
      [
        "j",
        "e"
      ],
      [
        "vessel",
        "s"
      ],
      [
        "re",
        "de"
      ],
      [
        "es",
        "h"
      ],
      [
        "come",
        "th"
      ],
      [
        "sou",
        "th"
      ],
      [
        "Jo",
        "ab"
      ],
      [
        "um",
        "c"
      ],
      [
        "s",
        "en"
      ],
      [
        "be",
        "li"
      ],
      [
        "whe",
        "ther"
      ],
      [
        "v",
        "a"
      ],
      [
        "tr",
        "ans"
      ],
      [
        "t",
        "ing"
      ],
      [
        "te",
        "th"
      ],
      [
        "e",
        "ach"
      ],
      [
        "g",
        "ates"
      ],
      [
        "o",
        "b"
      ],
      [
        "As",
        "sy"
      ],
      [
        "heaven",
        "s"
      ],
      [
        "Ar",
        "mies"
      ],
      [
        "sanctu",
        "ary"
      ],
      [
        "f",
        "er"
      ],
      [
        "gl",
        "ad"
      ],
      [
        "head",
        "s"
      ],
      [
        "b",
        "ir"
      ],
      [
        "to",
        "ng"
      ],
      [
        "Sam",
        "uel"
      ],
      [
        "m",
        "oney"
      ],
      [
        "in",
        "cre"
      ],
      [
        "ear",
        "s"
      ],
      [
        "ev",
        "ed"
      ],
      [
        "circ",
        "umc"
      ],
      [
        "st",
        "ill"
      ],
      [
        "de",
        "cl"
      ],
      [
        "p",
        "al"
      ],
      [
        "C",
        "ome"
      ],
      [
        "b",
        "er"
      ],
      [
        "pres",
        "ent"
      ],
      [
        "statut",
        "es"
      ],
      [
        "serv",
        "ice"
      ],
      [
        "M",
        "ore"
      ],
      [
        "look",
        "ed"
      ],
      [
        "ma",
        "id"
      ],
      [
        "est",
        "abl"
      ],
      [
        "wor",
        "ship"
      ],
      [
        "pie",
        "ces"
      ],
      [
        "ne",
        "ed"
      ],
      [
        "gra",
        "ce"
      ],
      [
        "fe",
        "ast"
      ],
      [
        "mo",
        "ved"
      ],
      [
        "e",
        "ight"
      ],
      [
        "an",
        "im"
      ],
      [
        "in",
        "stru"
      ],
      [
        "re",
        "th"
      ],
      [
        "s",
        "ister"
      ],
      [
        "su",
        "b"
      ],
      [
        "all",
        "y"
      ],
      [
        "B",
        "less"
      ],
      [
        "v",
        "ent"
      ],
      [
        "of",
        "fi"
      ],
      [
        "con",
        "f"
      ],
      [
        "she",
        "ke"
      ],
      [
        "r",
        "ise"
      ],
      [
        "ho",
        "pe"
      ],
      [
        "Sam",
        "ar"
      ],
      [
        "trans",
        "gre"
      ],
      [
        "f",
        "ter"
      ],
      [
        "ag",
        "es"
      ],
      [
        "k",
        "new"
      ],
      [
        "o",
        "x"
      ],
      [
        "wi",
        "ves"
      ],
      [
        "ro",
        "se"
      ],
      [
        "More",
        "over"
      ],
      [
        "r",
        "an"
      ],
      [
        "sp",
        "read"
      ],
      [
        "com",
        "ing"
      ],
      [
        "Joh",
        "n"
      ],
      [
        "Isa",
        "ac"
      ],
      [
        "st",
        "ay"
      ],
      [
        "op",
        "ened"
      ],
      [
        "g",
        "ri"
      ],
      [
        "r",
        "is"
      ],
      [
        "s",
        "ound"
      ],
      [
        "id",
        "ol"
      ],
      [
        "g",
        "s"
      ],
      [
        "ard",
        "s"
      ],
      [
        "mb",
        "le"
      ],
      [
        "fo",
        "od"
      ],
      [
        ".'",
        "\""
      ],
      [
        "Where",
        "fore"
      ],
      [
        "Y",
        "es"
      ],
      [
        "b",
        "ond"
      ],
      [
        "m",
        "ind"
      ],
      [
        "me",
        "et"
      ],
      [
        "Gi",
        "lead"
      ],
      [
        "Hez",
        "ekiah"
      ],
      [
        ",",
        "\""
      ],
      [
        "c",
        "or"
      ],
      [
        "op",
        "pres"
      ],
      [
        "pl",
        "ag"
      ],
      [
        "br",
        "ass"
      ],
      [
        "first",
        "born"
      ],
      [
        "p",
        "rom"
      ],
      [
        "of",
        "fered"
      ],
      [
        "ar",
        "m"
      ],
      [
        "beg",
        "in"
      ],
      [
        "sk",
        "y"
      ],
      [
        "assemb",
        "ly"
      ],
      [
        "tre",
        "as"
      ],
      [
        "cour",
        "t"
      ],
      [
        "desi",
        "re"
      ],
      [
        "desol",
        "ate"
      ],
      [
        "A",
        "sa"
      ],
      [
        "n",
        "um"
      ],
      [
        "A",
        "hi"
      ],
      [
        "D",
        "o"
      ],
      [
        "my",
        "self"
      ],
      [
        "A",
        "fter"
      ],
      [
        "M",
        "e"
      ],
      [
        "d",
        "ri"
      ],
      [
        "pres",
        "ence"
      ],
      [
        "cho",
        "sen"
      ],
      [
        "d",
        "u"
      ],
      [
        "te",
        "red"
      ],
      [
        "ak",
        "ed"
      ],
      [
        "pp",
        "ed"
      ],
      [
        "Am",
        "mon"
      ],
      [
        "num",
        "bered"
      ],
      [
        "W",
        "hi"
      ],
      [
        "as",
        "ha"
      ],
      [
        "fam",
        "ily"
      ],
      [
        "f",
        "ine"
      ],
      [
        "v",
        "ity"
      ],
      [
        "th",
        "i"
      ],
      [
        "de",
        "f"
      ],
      [
        "wicked",
        "ness"
      ],
      [
        "j",
        "our"
      ],
      [
        "s",
        "up"
      ],
      [
        "is",
        "ha"
      ],
      [
        "es",
        "ca"
      ],
      [
        "li",
        "ps"
      ],
      [
        "si",
        "ck"
      ],
      [
        "gener",
        "ations"
      ],
      [
        "ra",
        "ised"
      ],
      [
        "serv",
        "ed"
      ],
      [
        "Samar",
        "ia"
      ],
      [
        "thou",
        "ght"
      ],
      [
        "des",
        "p"
      ],
      [
        "dre",
        "am"
      ],
      [
        "dra",
        "w"
      ],
      [
        "S",
        "hi"
      ],
      [
        "c",
        "orn"
      ],
      [
        "en",
        "g"
      ],
      [
        "ra",
        "in"
      ],
      [
        "sin",
        "ned"
      ],
      [
        "than",
        "ks"
      ],
      [
        "Jon",
        "athan"
      ],
      [
        "Assy",
        "ria"
      ],
      [
        "read",
        "y"
      ],
      [
        "stre",
        "t"
      ],
      [
        "Bless",
        "ed"
      ],
      [
        "w",
        "hy"
      ],
      [
        "seven",
        "th"
      ],
      [
        "capt",
        "ain"
      ],
      [
        "b",
        "as"
      ],
      [
        "p",
        "her"
      ],
      [
        "ne",
        "ver"
      ],
      [
        "list",
        "en"
      ],
      [
        "capti",
        "vity"
      ],
      [
        "ro",
        "om"
      ],
      [
        "your",
        "self"
      ],
      [
        "pr",
        "ison"
      ],
      [
        "spo",
        "il"
      ],
      [
        "i",
        "an"
      ],
      [
        "lo",
        "m"
      ],
      [
        "every",
        "one"
      ],
      [
        "per",
        "ish"
      ],
      [
        "orn",
        "s"
      ],
      [
        "Y",
        "et"
      ],
      [
        "i",
        "ous"
      ],
      [
        "so",
        "ld"
      ],
      [
        "sou",
        "ght"
      ],
      [
        "ci",
        "ous"
      ],
      [
        "E",
        "dom"
      ],
      [
        "S",
        "i"
      ],
      [
        "o",
        "ke"
      ],
      [
        "st",
        "ra"
      ],
      [
        "ce",
        "pt"
      ],
      [
        "test",
        "imon"
      ],
      [
        "re",
        "ve"
      ],
      [
        "ab",
        "und"
      ],
      [
        "ye",
        "a"
      ],
      [
        "tru",
        "m"
      ],
      [
        "l",
        "ing"
      ],
      [
        "ri",
        "end"
      ],
      [
        "\"",
        "'"
      ],
      [
        "ro",
        "ck"
      ],
      [
        "li",
        "on"
      ],
      [
        "com",
        "for"
      ],
      [
        "prin",
        "ce"
      ],
      [
        "vine",
        "y"
      ],
      [
        "trum",
        "pe"
      ],
      [
        "B",
        "y"
      ],
      [
        "e",
        "ye"
      ],
      [
        "le",
        "ave"
      ],
      [
        "il",
        "es"
      ],
      [
        "port",
        "ion"
      ],
      [
        "re",
        "f"
      ],
      [
        "we",
        "th"
      ],
      [
        "b",
        "ound"
      ],
      [
        "g",
        "ain"
      ],
      [
        "ro",
        "d"
      ],
      [
        "go",
        "ing"
      ],
      [
        "cei",
        "ved"
      ],
      [
        "Ba",
        "al"
      ],
      [
        "tong",
        "ue"
      ],
      [
        "b",
        "are"
      ],
      [
        "g",
        "ard"
      ],
      [
        "le",
        "ch"
      ],
      [
        "de",
        "part"
      ],
      [
        "con",
        "s"
      ],
      [
        "su",
        "bur"
      ],
      [
        "walk",
        "ed"
      ],
      [
        "follow",
        "ed"
      ],
      [
        "smo",
        "te"
      ],
      [
        "subur",
        "bs"
      ],
      [
        "B",
        "ar"
      ],
      [
        "o",
        "bey"
      ],
      [
        "Jer",
        "o"
      ],
      [
        "A",
        "z"
      ],
      [
        "per",
        "fe"
      ],
      [
        "faith",
        "ful"
      ],
      [
        "chari",
        "ots"
      ],
      [
        "zz",
        "ar"
      ],
      [
        "d",
        "we"
      ],
      [
        "d",
        "ust"
      ],
      [
        "un",
        "g"
      ],
      [
        "ent",
        "ered"
      ],
      [
        "hear",
        "ts"
      ],
      [
        "hor",
        "ses"
      ],
      [
        "flo",
        "ck"
      ],
      [
        "dwe",
        "lt"
      ],
      [
        "m",
        "ess"
      ],
      [
        "to",
        "p"
      ],
      [
        "ti",
        "p"
      ],
      [
        "beg",
        "at"
      ],
      [
        "tri",
        "bes"
      ],
      [
        "c",
        "attle"
      ],
      [
        "d",
        "ist"
      ],
      [
        "ed",
        "ing"
      ],
      [
        "al",
        "one"
      ],
      [
        "vis",
        "ion"
      ],
      [
        "E",
        "sa"
      ],
      [
        "b",
        "us"
      ],
      [
        "c",
        "us"
      ],
      [
        "fo",
        "ot"
      ],
      [
        "capt",
        "ains"
      ],
      [
        "B",
        "al"
      ],
      [
        "mess",
        "eng"
      ],
      [
        "f",
        "al"
      ],
      [
        "ll",
        "y"
      ],
      [
        "The",
        "ir"
      ],
      [
        "min",
        "ister"
      ],
      [
        "l",
        "en"
      ],
      [
        "lo",
        "t"
      ],
      [
        "fi",
        "ght"
      ],
      [
        "Sha",
        "ll"
      ],
      [
        "M",
        "a"
      ],
      [
        "p",
        "hat"
      ],
      [
        "s",
        "ho"
      ],
      [
        "re",
        "be"
      ],
      [
        "b",
        "ar"
      ],
      [
        "w",
        "ond"
      ],
      [
        "be",
        "ast"
      ],
      [
        "sp",
        "ass"
      ],
      [
        "peop",
        "les"
      ],
      [
        "tre",
        "spass"
      ],
      [
        "fal",
        "se"
      ],
      [
        "z",
        "er"
      ],
      [
        "sa",
        "lom"
      ],
      [
        "Ab",
        "salom"
      ],
      [
        "az",
        "ar"
      ],
      [
        "sh",
        "ut"
      ],
      [
        "G",
        "ent"
      ],
      [
        "H",
        "er"
      ],
      [
        "be",
        "tter"
      ],
      [
        "sha",
        "me"
      ],
      [
        "ord",
        "in"
      ],
      [
        "hor",
        "se"
      ],
      [
        "f",
        "riend"
      ],
      [
        "u",
        "ri"
      ],
      [
        "wi",
        "lt"
      ],
      [
        "lo",
        "ving"
      ],
      [
        "burn",
        "ed"
      ],
      [
        "reme",
        "mber"
      ],
      [
        "M",
        "i"
      ],
      [
        "f",
        "lee"
      ],
      [
        "id",
        "es"
      ],
      [
        "thy",
        "self"
      ],
      [
        "car",
        "ry"
      ],
      [
        "Ne",
        "bu"
      ],
      [
        "be",
        "loved"
      ],
      [
        "sa",
        "ved"
      ],
      [
        "ne",
        "y"
      ],
      [
        "m",
        "ur"
      ],
      [
        "ene",
        "my"
      ],
      [
        "gar",
        "ments"
      ],
      [
        "Gent",
        "iles"
      ],
      [
        "a",
        "iah"
      ],
      [
        "cur",
        "se"
      ],
      [
        "O",
        "r"
      ],
      [
        "e",
        "en"
      ],
      [
        "br",
        "an"
      ],
      [
        "prep",
        "ared"
      ],
      [
        "h",
        "ur"
      ],
      [
        "z",
        "e"
      ],
      [
        "ut",
        "e"
      ],
      [
        "bu",
        "ried"
      ],
      [
        "wat",
        "ch"
      ],
      [
        "pray",
        "er"
      ],
      [
        "ste",
        "ad"
      ],
      [
        "even",
        "ing"
      ],
      [
        "possess",
        "ion"
      ],
      [
        "begin",
        "ning"
      ],
      [
        "Jero",
        "boam"
      ],
      [
        "h",
        "ind"
      ],
      [
        "r",
        "ay"
      ],
      [
        "u",
        "th"
      ],
      [
        "re",
        "ason"
      ],
      [
        "go",
        "t"
      ],
      [
        "fa",
        "v"
      ],
      [
        "Jeho",
        "i"
      ],
      [
        "at",
        "ely"
      ],
      [
        "He",
        "ar"
      ],
      [
        "gener",
        "ation"
      ],
      [
        "trou",
        "ble"
      ],
      [
        "lin",
        "en"
      ],
      [
        "E",
        "very"
      ],
      [
        "u",
        "red"
      ],
      [
        "th",
        "re"
      ],
      [
        "me",
        "lech"
      ],
      [
        "fi",
        "f"
      ],
      [
        "idol",
        "s"
      ],
      [
        "P",
        "har"
      ],
      [
        "in",
        "ts"
      ],
      [
        "ow",
        "s"
      ],
      [
        "c",
        "up"
      ],
      [
        "p",
        "ed"
      ],
      [
        "r",
        "un"
      ],
      [
        "v",
        "an"
      ],
      [
        "in",
        "ter"
      ],
      [
        "ar",
        "i"
      ],
      [
        "ru",
        "ction"
      ],
      [
        "A",
        "t"
      ],
      [
        "n",
        "aked"
      ],
      [
        "p",
        "ure"
      ],
      [
        "house",
        "hold"
      ],
      [
        "eat",
        "en"
      ],
      [
        "fam",
        "ine"
      ],
      [
        "appe",
        "ar"
      ],
      [
        "Esa",
        "u"
      ],
      [
        "d",
        "ed"
      ],
      [
        "g",
        "es"
      ],
      [
        "w",
        "est"
      ],
      [
        "an",
        "an"
      ],
      [
        "ano",
        "inted"
      ],
      [
        "beli",
        "eved"
      ],
      [
        "Phar",
        "ise"
      ],
      [
        "v",
        "ain"
      ],
      [
        "la",
        "me"
      ],
      [
        "row",
        "s"
      ],
      [
        "ba",
        "pt"
      ],
      [
        "c",
        "ou"
      ],
      [
        "m",
        "atter"
      ],
      [
        "ang",
        "u"
      ],
      [
        "exce",
        "eding"
      ],
      [
        "a",
        "king"
      ],
      [
        "ter",
        "s"
      ],
      [
        "as",
        "ed"
      ],
      [
        "mul",
        "tip"
      ],
      [
        "sm",
        "all"
      ],
      [
        "ima",
        "ge"
      ],
      [
        "?",
        "'"
      ],
      [
        "G",
        "ad"
      ],
      [
        "a",
        "am"
      ],
      [
        "we",
        "ep"
      ],
      [
        "ir",
        "on"
      ],
      [
        "ent",
        "s"
      ],
      [
        "ke",
        "th"
      ],
      [
        "man",
        "ner"
      ],
      [
        "stand",
        "ing"
      ],
      [
        "sle",
        "w"
      ],
      [
        "clothe",
        "s"
      ],
      [
        "utter",
        "ly"
      ],
      [
        "plag",
        "ue"
      ],
      [
        "a",
        "ut"
      ],
      [
        "b",
        "ones"
      ],
      [
        "c",
        "r"
      ],
      [
        "ure",
        "ly"
      ],
      [
        "har",
        "d"
      ],
      [
        "bur",
        "den"
      ],
      [
        "pill",
        "ars"
      ],
      [
        "an",
        "ces"
      ],
      [
        "le",
        "ase"
      ],
      [
        "are",
        "th"
      ],
      [
        "bes",
        "ide"
      ],
      [
        "c",
        "al"
      ],
      [
        "to",
        "w"
      ],
      [
        "can",
        "not"
      ],
      [
        "he",
        "ld"
      ],
      [
        "at",
        "i"
      ],
      [
        "if",
        "ul"
      ],
      [
        "dest",
        "ruction"
      ],
      [
        "Egypt",
        "ians"
      ],
      [
        "cre",
        "t"
      ],
      [
        "a",
        "live"
      ],
      [
        "happ",
        "en"
      ],
      [
        "Gi",
        "ve"
      ],
      [
        "nam",
        "es"
      ],
      [
        "T",
        "e"
      ],
      [
        "s",
        "w"
      ],
      [
        "or",
        "s"
      ],
      [
        "ca",
        "used"
      ],
      [
        "hou",
        "r"
      ],
      [
        "res",
        "s"
      ],
      [
        "br",
        "on"
      ],
      [
        "perfe",
        "ct"
      ],
      [
        "A",
        "hab"
      ],
      [
        "p",
        "un"
      ],
      [
        "t",
        "al"
      ],
      [
        "do",
        "th"
      ],
      [
        "pur",
        "su"
      ],
      [
        "suf",
        "fer"
      ],
      [
        "r",
        "ing"
      ],
      [
        "was",
        "h"
      ],
      [
        "bl",
        "ind"
      ],
      [
        "Gi",
        "be"
      ],
      [
        "sle",
        "ep"
      ],
      [
        "c",
        "ti"
      ],
      [
        "li",
        "ft"
      ],
      [
        "end",
        "ed"
      ],
      [
        "bread",
        "th"
      ],
      [
        "C",
        "a"
      ],
      [
        "f",
        "ur"
      ],
      [
        "v",
        "est"
      ],
      [
        "se",
        "vent"
      ],
      [
        "be",
        "aut"
      ],
      [
        "sa",
        "ints"
      ],
      [
        "st",
        "u"
      ],
      [
        "str",
        "anger"
      ],
      [
        "e",
        "ch"
      ],
      [
        "re",
        "ward"
      ],
      [
        "sa",
        "b"
      ],
      [
        "angel",
        "s"
      ],
      [
        "sheke",
        "ls"
      ],
      [
        "asha",
        "med"
      ],
      [
        "re",
        "r"
      ],
      [
        "he",
        "m"
      ],
      [
        "en",
        "camp"
      ],
      [
        "de",
        "th"
      ],
      [
        "sin",
        "ce"
      ],
      [
        "consu",
        "med"
      ],
      [
        "cher",
        "ub"
      ],
      [
        "a",
        "ves"
      ],
      [
        "c",
        "had"
      ],
      [
        "o",
        "st"
      ],
      [
        "ri",
        "ch"
      ],
      [
        "ad",
        "vers"
      ],
      [
        "ac",
        "her"
      ],
      [
        "she",
        "pher"
      ],
      [
        "ti",
        "ll"
      ],
      [
        "ub",
        "en"
      ],
      [
        "Re",
        "uben"
      ],
      [
        "Nebu",
        "chad"
      ],
      [
        "C",
        "ha"
      ],
      [
        "T",
        "ho"
      ],
      [
        "in",
        "deed"
      ],
      [
        "to",
        "ne"
      ],
      [
        "ri",
        "ches"
      ],
      [
        "pl",
        "ain"
      ],
      [
        "pl",
        "ant"
      ],
      [
        "prophe",
        "sy"
      ],
      [
        "dre",
        "w"
      ],
      [
        "w",
        "ro"
      ],
      [
        "ha",
        "ir"
      ],
      [
        "up",
        "right"
      ],
      [
        "Cha",
        "ld"
      ],
      [
        "W",
        "o"
      ],
      [
        "W",
        "ith"
      ],
      [
        "f",
        "ree"
      ],
      [
        "n",
        "ant"
      ],
      [
        "p",
        "oured"
      ],
      [
        "t",
        "able"
      ],
      [
        "be",
        "at"
      ],
      [
        "id",
        "er"
      ],
      [
        "de",
        "light"
      ],
      [
        "fe",
        "llow"
      ],
      [
        "rem",
        "nant"
      ],
      [
        "S",
        "urely"
      ],
      [
        "c",
        "ation"
      ],
      [
        "f",
        "in"
      ],
      [
        "id",
        "ed"
      ],
      [
        "sk",
        "in"
      ],
      [
        "swe",
        "et"
      ],
      [
        "Chald",
        "e"
      ],
      [
        "b",
        "it"
      ],
      [
        "go",
        "ver"
      ],
      [
        "incre",
        "ase"
      ],
      [
        "se",
        "par"
      ],
      [
        "le",
        "aven"
      ],
      [
        "el",
        "ah"
      ],
      [
        "fall",
        "en"
      ],
      [
        "testimon",
        "y"
      ],
      [
        "Pharise",
        "es"
      ],
      [
        "E",
        "ven"
      ],
      [
        "ap",
        "h"
      ],
      [
        "Jeho",
        "sha"
      ],
      [
        "rep",
        "ent"
      ],
      [
        "goat",
        "s"
      ],
      [
        "sab",
        "bath"
      ],
      [
        "S",
        "ab"
      ],
      [
        "an",
        "ge"
      ],
      [
        "ed",
        "ge"
      ],
      [
        "ke",
        "y"
      ],
      [
        "ow",
        "ed"
      ],
      [
        "fore",
        "ign"
      ],
      [
        "four",
        "th"
      ],
      [
        "Am",
        "or"
      ],
      [
        "Al",
        "so"
      ],
      [
        "jour",
        "ney"
      ],
      [
        "c",
        "ent"
      ],
      [
        "reme",
        "m"
      ],
      [
        "commit",
        "ted"
      ],
      [
        "v",
        "ill"
      ],
      [
        "be",
        "l"
      ],
      [
        "last",
        "ing"
      ],
      [
        "T",
        "ent"
      ],
      [
        "a",
        "tone"
      ],
      [
        "w",
        "on"
      ],
      [
        "great",
        "ly"
      ],
      [
        "trou",
        "b"
      ],
      [
        "Jehosha",
        "phat"
      ],
      [
        "A",
        "d"
      ],
      [
        "se",
        "cret"
      ],
      [
        "me",
        "al"
      ],
      [
        "Eli",
        "jah"
      ],
      [
        "atone",
        "ment"
      ],
      [
        "E",
        "le"
      ],
      [
        "Z",
        "e"
      ],
      [
        "Z",
        "i"
      ],
      [
        "r",
        "up"
      ],
      [
        "for",
        "m"
      ],
      [
        "ever",
        "lasting"
      ],
      [
        "med",
        "i"
      ],
      [
        "c",
        "la"
      ],
      [
        "m",
        "is"
      ],
      [
        "p",
        "ast"
      ],
      [
        "the",
        "less"
      ],
      [
        "affli",
        "ction"
      ],
      [
        "cor",
        "rup"
      ],
      [
        "F",
        "rom"
      ],
      [
        "i",
        "g"
      ],
      [
        "x",
        "t"
      ],
      [
        "as",
        "ide"
      ],
      [
        "ac",
        "cept"
      ],
      [
        "fool",
        "ish"
      ],
      [
        "repro",
        "ach"
      ],
      [
        "il",
        "k"
      ],
      [
        "ne",
        "th"
      ],
      [
        "judg",
        "ments"
      ],
      [
        "hate",
        "ver"
      ],
      [
        "Dan",
        "iel"
      ],
      [
        "medi",
        "ately"
      ],
      [
        "L",
        "i"
      ],
      [
        "Z",
        "er"
      ],
      [
        "s",
        "lay"
      ],
      [
        "ear",
        "ly"
      ],
      [
        "ap",
        "ost"
      ],
      [
        "lam",
        "bs"
      ],
      [
        "Ne",
        "ither"
      ],
      [
        "qui",
        "re"
      ],
      [
        "transgre",
        "ss"
      ],
      [
        "Sab",
        "bath"
      ],
      [
        "in",
        "ess"
      ],
      [
        "Is",
        "h"
      ],
      [
        "char",
        "ge"
      ],
      [
        "rul",
        "er"
      ],
      [
        "va",
        "il"
      ],
      [
        "R",
        "am"
      ],
      [
        "b",
        "ore"
      ],
      [
        "x",
        "ed"
      ],
      [
        "ha",
        "h"
      ],
      [
        "wi",
        "dow"
      ],
      [
        "bey",
        "ond"
      ],
      [
        "u",
        "al"
      ],
      [
        "de",
        "ep"
      ],
      [
        "par",
        "ts"
      ],
      [
        "dr",
        "un"
      ],
      [
        "flo",
        "cks"
      ],
      [
        "hon",
        "or"
      ],
      [
        "gar",
        "ment"
      ],
      [
        "vi",
        "ol"
      ],
      [
        "continu",
        "ally"
      ],
      [
        "establ",
        "ished"
      ],
      [
        "a",
        "then"
      ],
      [
        "n",
        "s"
      ],
      [
        "n",
        "ine"
      ],
      [
        "s",
        "n"
      ],
      [
        "fi",
        "ll"
      ],
      [
        "ten",
        "th"
      ],
      [
        "ful",
        "filled"
      ],
      [
        "wr",
        "ite"
      ],
      [
        "dev",
        "our"
      ],
      [
        "circumc",
        "ised"
      ],
      [
        "decl",
        "are"
      ],
      [
        "gover",
        "nor"
      ],
      [
        "A",
        "haz"
      ],
      [
        "G",
        "ali"
      ],
      [
        "l",
        "ow"
      ],
      [
        "de",
        "m"
      ],
      [
        "per",
        "se"
      ],
      [
        "ple",
        "ase"
      ],
      [
        "sacrifi",
        "ces"
      ],
      [
        "bow",
        "ed"
      ],
      [
        "len",
        "gth"
      ],
      [
        "got",
        "ten"
      ],
      [
        "as",
        "so"
      ],
      [
        "ir",
        "g"
      ],
      [
        "fi",
        "er"
      ],
      [
        "see",
        "ing"
      ],
      [
        "full",
        "y"
      ],
      [
        "just",
        "ice"
      ],
      [
        "pleas",
        "ed"
      ],
      [
        "ram",
        "s"
      ],
      [
        "El",
        "isha"
      ],
      [
        "Wo",
        "e"
      ],
      [
        "don",
        "key"
      ],
      [
        "certain",
        "ly"
      ],
      [
        "iz",
        "ed"
      ],
      [
        "rul",
        "ers"
      ],
      [
        "Tho",
        "se"
      ],
      [
        "T",
        "hy"
      ],
      [
        "Z",
        "eb"
      ],
      [
        "he",
        "aled"
      ],
      [
        "be",
        "asts"
      ],
      [
        "you",
        "th"
      ],
      [
        "ce",
        "it"
      ],
      [
        "ri",
        "es"
      ],
      [
        "He",
        "bron"
      ],
      [
        "pro",
        "sp"
      ],
      [
        "vis",
        "it"
      ],
      [
        "neighb",
        "our"
      ],
      [
        "Whi",
        "ch"
      ],
      [
        "M",
        "er"
      ],
      [
        "g",
        "ent"
      ],
      [
        "re",
        "jo"
      ],
      [
        "ad",
        "a"
      ],
      [
        "ex",
        "al"
      ],
      [
        "comp",
        "any"
      ],
      [
        "messeng",
        "ers"
      ],
      [
        "a",
        "w"
      ],
      [
        "f",
        "ts"
      ],
      [
        "be",
        "hind"
      ],
      [
        "whi",
        "te"
      ],
      [
        "et",
        "ing"
      ],
      [
        "soul",
        "s"
      ],
      [
        "A",
        "men"
      ],
      [
        "m",
        "i"
      ],
      [
        "m",
        "s"
      ],
      [
        "w",
        "ant"
      ],
      [
        "th",
        "ink"
      ],
      [
        "re",
        "bu"
      ],
      [
        "ac",
        "hed"
      ],
      [
        "where",
        "in"
      ],
      [
        "fl",
        "ow"
      ],
      [
        "sevent",
        "y"
      ],
      [
        "S",
        "imon"
      ],
      [
        "a",
        "ir"
      ],
      [
        "d",
        "le"
      ],
      [
        "h",
        "ang"
      ],
      [
        "for",
        "sa"
      ],
      [
        "ke",
        "ts"
      ],
      [
        "sor",
        "row"
      ],
      [
        "asso",
        "ver"
      ],
      [
        "prosp",
        "er"
      ],
      [
        "D",
        "e"
      ],
      [
        "his",
        "h"
      ],
      [
        "il",
        "s"
      ],
      [
        "ne",
        "t"
      ],
      [
        "great",
        "er"
      ],
      [
        "any",
        "thing"
      ],
      [
        "bull",
        "o"
      ],
      [
        "stret",
        "ched"
      ],
      [
        "L",
        "eb"
      ],
      [
        "d",
        "ry"
      ],
      [
        "s",
        "ur"
      ],
      [
        "ou",
        "gh"
      ],
      [
        "he",
        "al"
      ],
      [
        "he",
        "athen"
      ],
      [
        "hi",
        "de"
      ],
      [
        "al",
        "ways"
      ],
      [
        "ne",
        "zzar"
      ],
      [
        "wo",
        "mb"
      ],
      [
        "then",
        "ce"
      ],
      [
        "tem",
        "pt"
      ],
      [
        "sc",
        "at"
      ],
      [
        "abomin",
        "ations"
      ],
      [
        "bran",
        "ches"
      ],
      [
        "Nebuchad",
        "nezzar"
      ],
      [
        "S",
        "elah"
      ],
      [
        "sha",
        "dow"
      ],
      [
        "wor",
        "thy"
      ],
      [
        "mb",
        "ers"
      ],
      [
        "spe",
        "aking"
      ],
      [
        "pre",
        "cious"
      ],
      [
        "che",
        "m"
      ],
      [
        "lam",
        "b"
      ],
      [
        "exce",
        "pt"
      ],
      [
        "leaven",
        "ed"
      ],
      [
        "c",
        "rown"
      ],
      [
        "g",
        "then"
      ],
      [
        "v",
        "o"
      ],
      [
        "w",
        "ings"
      ],
      [
        "at",
        "t"
      ],
      [
        "se",
        "ar"
      ],
      [
        "was",
        "te"
      ],
      [
        "sh",
        "out"
      ],
      [
        "nam",
        "ed"
      ],
      [
        "prep",
        "are"
      ],
      [
        "Sy",
        "ri"
      ],
      [
        "Sy",
        "ria"
      ],
      [
        "prof",
        "it"
      ],
      [
        "bit",
        "ter"
      ],
      [
        "U",
        "zz"
      ],
      [
        "c",
        "ru"
      ],
      [
        "p",
        "our"
      ],
      [
        "w",
        "ound"
      ],
      [
        "ar",
        "ise"
      ],
      [
        "no",
        "ise"
      ],
      [
        "com",
        "pass"
      ],
      [
        "Lev",
        "i"
      ],
      [
        "gu",
        "ard"
      ],
      [
        "tent",
        "s"
      ],
      [
        "gr",
        "ass"
      ],
      [
        "f",
        "aces"
      ],
      [
        "i",
        "ces"
      ],
      [
        "fe",
        "ed"
      ],
      [
        "ru",
        "le"
      ],
      [
        "fl",
        "our"
      ],
      [
        "mor",
        "row"
      ],
      [
        "ta",
        "ught"
      ],
      [
        "anim",
        "als"
      ],
      [
        "ox",
        "en"
      ],
      [
        "abund",
        "ance"
      ],
      [
        "Ele",
        "azar"
      ],
      [
        "H",
        "ave"
      ],
      [
        "l",
        "angu"
      ],
      [
        "p",
        "es"
      ],
      [
        "he",
        "ight"
      ],
      [
        "to",
        "n"
      ],
      [
        "ro",
        "ad"
      ],
      [
        "for",
        "med"
      ],
      [
        "res",
        "to"
      ],
      [
        "tru",
        "e"
      ],
      [
        "clothe",
        "d"
      ],
      [
        "Me",
        "eting"
      ],
      [
        "Leb",
        "an"
      ],
      [
        "M",
        "es"
      ],
      [
        "v",
        "al"
      ],
      [
        "v",
        "irg"
      ],
      [
        "the",
        "l"
      ],
      [
        "is",
        "ion"
      ],
      [
        "ne",
        "xt"
      ],
      [
        "ang",
        "ry"
      ],
      [
        "pre",
        "y"
      ],
      [
        "clo",
        "th"
      ],
      [
        "abomin",
        "ation"
      ],
      [
        "st",
        "it"
      ],
      [
        "Ar",
        "ise"
      ],
      [
        "meas",
        "ure"
      ],
      [
        "sup",
        "p"
      ],
      [
        "encamp",
        "ed"
      ],
      [
        ",",
        "'"
      ],
      [
        "c",
        "y"
      ],
      [
        "k",
        "no"
      ],
      [
        "s",
        "la"
      ],
      [
        "an",
        "iah"
      ],
      [
        "is",
        "es"
      ],
      [
        "de",
        "ceit"
      ],
      [
        "al",
        "ous"
      ],
      [
        "ly",
        "ing"
      ],
      [
        "shi",
        "eld"
      ],
      [
        "san",
        "cti"
      ],
      [
        "inter",
        "pre"
      ],
      [
        "vill",
        "ages"
      ],
      [
        "Gali",
        "lee"
      ],
      [
        "forsa",
        "ken"
      ],
      [
        "o",
        "bed"
      ],
      [
        "we",
        "pt"
      ],
      [
        "ac",
        "ts"
      ],
      [
        "pleas",
        "ant"
      ],
      [
        "Se",
        "e"
      ],
      [
        "viney",
        "ard"
      ],
      [
        "Leban",
        "on"
      ],
      [
        "obed",
        "i"
      ],
      [
        "t",
        "alk"
      ],
      [
        "y",
        "es"
      ],
      [
        "ad",
        "ul"
      ],
      [
        "pro",
        "stit"
      ],
      [
        "pre",
        "ach"
      ],
      [
        "cei",
        "ve"
      ],
      [
        "door",
        "s"
      ],
      [
        "appe",
        "ared"
      ],
      [
        "neighb",
        "or"
      ],
      [
        "Chalde",
        "ans"
      ],
      [
        "exal",
        "ted"
      ],
      [
        "scat",
        "tered"
      ],
      [
        "h",
        "orns"
      ],
      [
        "gi",
        "ves"
      ],
      [
        "res",
        "h"
      ],
      [
        "stren",
        "gthen"
      ],
      [
        "p",
        "ath"
      ],
      [
        "we",
        "ak"
      ],
      [
        "As",
        "h"
      ],
      [
        "gold",
        "en"
      ],
      [
        "capti",
        "ve"
      ],
      [
        "rejo",
        "ic"
      ],
      [
        "re",
        "ed"
      ],
      [
        "se",
        "at"
      ],
      [
        "us",
        "h"
      ],
      [
        "gi",
        "ving"
      ],
      [
        "na",
        "go"
      ],
      [
        "sy",
        "nago"
      ],
      [
        "King",
        "dom"
      ],
      [
        "ordin",
        "ances"
      ],
      [
        "M",
        "id"
      ],
      [
        "e",
        "med"
      ],
      [
        "Be",
        "thel"
      ],
      [
        "Jo",
        "b"
      ],
      [
        "har",
        "vest"
      ],
      [
        "fru",
        "its"
      ],
      [
        "shew",
        "ed"
      ],
      [
        "M",
        "ount"
      ],
      [
        "b",
        "ri"
      ],
      [
        "c",
        "c"
      ],
      [
        "ce",
        "ase"
      ],
      [
        "ri",
        "vers"
      ],
      [
        "ang",
        "ers"
      ],
      [
        "qu",
        "est"
      ],
      [
        "ught",
        "er"
      ],
      [
        "what",
        "soever"
      ],
      [
        "scri",
        "bes"
      ],
      [
        "troub",
        "led"
      ],
      [
        "e",
        "cut"
      ],
      [
        "g",
        "ro"
      ],
      [
        "re",
        "moved"
      ],
      [
        "ar",
        "ies"
      ],
      [
        "de",
        "c"
      ],
      [
        "go",
        "eth"
      ],
      [
        "con",
        "dem"
      ],
      [
        "hand",
        "maid"
      ],
      [
        "mo",
        "ve"
      ],
      [
        "wall",
        "s"
      ],
      [
        "Mo",
        "st"
      ],
      [
        "Abi",
        "melech"
      ],
      [
        "reve",
        "aled"
      ],
      [
        "Amor",
        "ites"
      ],
      [
        "cla",
        "im"
      ],
      [
        "Mid",
        "ian"
      ],
      [
        "N",
        "ot"
      ],
      [
        "P",
        "lease"
      ],
      [
        "b",
        "lem"
      ],
      [
        "ak",
        "im"
      ],
      [
        "pl",
        "ay"
      ],
      [
        "She",
        "chem"
      ],
      [
        "fu",
        "ge"
      ],
      [
        "hon",
        "our"
      ],
      [
        "div",
        "ided"
      ],
      [
        "A",
        "gain"
      ],
      [
        "S",
        "pe"
      ],
      [
        "re",
        "fuge"
      ],
      [
        "whi",
        "ther"
      ],
      [
        "ne",
        "ck"
      ],
      [
        "fir",
        "m"
      ],
      [
        "kind",
        "led"
      ],
      [
        "N",
        "ever"
      ],
      [
        "e",
        "le"
      ],
      [
        "h",
        "ung"
      ],
      [
        "to",
        "ck"
      ],
      [
        "or",
        "de"
      ],
      [
        "le",
        "ar"
      ],
      [
        "who",
        "soever"
      ],
      [
        "pe",
        "ct"
      ],
      [
        "Re",
        "ho"
      ],
      [
        "bless",
        "ing"
      ],
      [
        "qui",
        "ck"
      ],
      [
        "van",
        "ity"
      ],
      [
        "S",
        "ay"
      ],
      [
        "Z",
        "ed"
      ],
      [
        "n",
        "al"
      ],
      [
        "w",
        "hatever"
      ],
      [
        "ar",
        "iah"
      ],
      [
        "co",
        "re"
      ],
      [
        "per",
        "son"
      ],
      [
        "thousand",
        "s"
      ],
      [
        "wro",
        "te"
      ],
      [
        "S",
        "ar"
      ],
      [
        "T",
        "y"
      ],
      [
        "e",
        "ter"
      ],
      [
        "l",
        "oud"
      ],
      [
        "n",
        "ers"
      ],
      [
        "p",
        "ra"
      ],
      [
        "se",
        "ll"
      ],
      [
        "we",
        "ight"
      ],
      [
        "ca",
        "i"
      ],
      [
        "ad",
        "ab"
      ],
      [
        "fe",
        "w"
      ],
      [
        "fe",
        "ared"
      ],
      [
        "other",
        "s"
      ],
      [
        "judg",
        "ed"
      ],
      [
        "pleas",
        "ure"
      ],
      [
        "stay",
        "ed"
      ],
      [
        "def",
        "iled"
      ],
      [
        "blem",
        "ish"
      ],
      [
        "Spe",
        "ak"
      ],
      [
        "Never",
        "theless"
      ],
      [
        "H",
        "ar"
      ],
      [
        "U",
        "n"
      ],
      [
        "f",
        "ought"
      ],
      [
        "h",
        "oney"
      ],
      [
        "lives",
        "tock"
      ],
      [
        "sign",
        "s"
      ],
      [
        "pun",
        "ish"
      ],
      [
        "r",
        "or"
      ],
      [
        "fa",
        "il"
      ],
      [
        "land",
        "s"
      ],
      [
        "Jer",
        "ic"
      ],
      [
        "di",
        "li"
      ],
      [
        "give",
        "th"
      ],
      [
        "gra",
        "in"
      ],
      [
        "clo",
        "thing"
      ],
      [
        "prof",
        "an"
      ],
      [
        "esca",
        "pe"
      ],
      [
        "gard",
        "en"
      ],
      [
        "cherub",
        "im"
      ],
      [
        "apost",
        "les"
      ],
      [
        "Jeric",
        "ho"
      ],
      [
        "E",
        "s"
      ],
      [
        "l",
        "od"
      ],
      [
        "n",
        "ah"
      ],
      [
        "o",
        "ath"
      ],
      [
        "s",
        "ion"
      ],
      [
        "t",
        "ar"
      ],
      [
        "st",
        "ree"
      ],
      [
        "out",
        "side"
      ],
      [
        "ma",
        "kes"
      ],
      [
        "any",
        "one"
      ],
      [
        "ex",
        "ecut"
      ],
      [
        "spr",
        "ing"
      ],
      [
        "stree",
        "ts"
      ],
      [
        "D",
        "am"
      ],
      [
        "b",
        "an"
      ],
      [
        "c",
        "ord"
      ],
      [
        "he",
        "th"
      ],
      [
        "hear",
        "ken"
      ],
      [
        "make",
        "th"
      ],
      [
        "Ab",
        "ner"
      ],
      [
        "Bal",
        "aam"
      ],
      [
        ")",
        ","
      ],
      [
        "S",
        "in"
      ],
      [
        "b",
        "on"
      ],
      [
        "g",
        "ir"
      ],
      [
        "p",
        "rou"
      ],
      [
        "be",
        "long"
      ],
      [
        "up",
        "ward"
      ],
      [
        "mb",
        "led"
      ],
      [
        "mar",
        "ve"
      ],
      [
        "ano",
        "int"
      ],
      [
        "Zed",
        "ekiah"
      ],
      [
        "L",
        "o"
      ],
      [
        "re",
        "ction"
      ],
      [
        "sa",
        "ck"
      ],
      [
        "ab",
        "road"
      ],
      [
        "su",
        "m"
      ],
      [
        "like",
        "wise"
      ],
      [
        "dwell",
        "ing"
      ],
      [
        "pray",
        "ed"
      ],
      [
        "Abra",
        "m"
      ],
      [
        "spr",
        "ink"
      ],
      [
        "Syri",
        "ans"
      ],
      [
        "c",
        "ers"
      ],
      [
        "p",
        "ers"
      ],
      [
        "he",
        "ed"
      ],
      [
        "she",
        "d"
      ],
      [
        "ru",
        "st"
      ],
      [
        "ep",
        "h"
      ],
      [
        "Who",
        "ever"
      ],
      [
        "sat",
        "is"
      ],
      [
        "trumpe",
        "t"
      ],
      [
        "Dam",
        "as"
      ],
      [
        "W",
        "ill"
      ],
      [
        "i",
        "ed"
      ],
      [
        "p",
        "est"
      ],
      [
        "as",
        "ton"
      ],
      [
        "for",
        "get"
      ],
      [
        "li",
        "ed"
      ],
      [
        "burn",
        "ing"
      ],
      [
        "tain",
        "ed"
      ],
      [
        "ash",
        "an"
      ],
      [
        "teen",
        "th"
      ],
      [
        "b",
        "ra"
      ],
      [
        "l",
        "ad"
      ],
      [
        "it",
        "t"
      ],
      [
        "did",
        "st"
      ],
      [
        "Je",
        "hu"
      ],
      [
        "hill",
        "s"
      ],
      [
        "je",
        "alous"
      ],
      [
        "cons",
        "ider"
      ],
      [
        "uth",
        "or"
      ],
      [
        "sn",
        "are"
      ],
      [
        "perse",
        "cut"
      ],
      [
        "Damas",
        "cus"
      ],
      [
        "B",
        "ashan"
      ],
      [
        "M",
        "orde"
      ],
      [
        "N",
        "a"
      ],
      [
        "b",
        "ad"
      ],
      [
        "f",
        "ain"
      ],
      [
        "in",
        "no"
      ],
      [
        "in",
        "ion"
      ],
      [
        "st",
        "ir"
      ],
      [
        "de",
        "al"
      ],
      [
        "who",
        "ever"
      ],
      [
        "str",
        "angers"
      ],
      [
        "thir",
        "st"
      ],
      [
        "stri",
        "ke"
      ],
      [
        "anim",
        "al"
      ],
      [
        "offi",
        "cers"
      ],
      [
        "eter",
        "nal"
      ],
      [
        "Morde",
        "cai"
      ],
      [
        "H",
        "anan"
      ],
      [
        "d",
        "er"
      ],
      [
        "le",
        "th"
      ],
      [
        "ho",
        "me"
      ],
      [
        "for",
        "sake"
      ],
      [
        "de",
        "alt"
      ],
      [
        "lam",
        "ent"
      ],
      [
        "tra",
        "ve"
      ],
      [
        "treas",
        "ures"
      ],
      [
        "bapt",
        "ized"
      ],
      [
        "U",
        "ri"
      ],
      [
        "a",
        "uthor"
      ],
      [
        "as",
        "phe"
      ],
      [
        "me",
        "mber"
      ],
      [
        "un",
        "leavened"
      ],
      [
        "ch",
        "ur"
      ],
      [
        "ra",
        "ther"
      ],
      [
        "so",
        "on"
      ],
      [
        "do",
        "ing"
      ],
      [
        "im",
        "mediately"
      ],
      [
        "bl",
        "asphe"
      ],
      [
        "month",
        "s"
      ],
      [
        "chari",
        "ot"
      ],
      [
        "ima",
        "ges"
      ],
      [
        "hid",
        "den"
      ],
      [
        "tou",
        "ch"
      ],
      [
        "dri",
        "ve"
      ],
      [
        "fif",
        "th"
      ],
      [
        "<",
        "<"
      ],
      [
        ">",
        ">"
      ],
      [
        "L",
        "e"
      ],
      [
        "y",
        "oke"
      ],
      [
        "so",
        "m"
      ],
      [
        "pro",
        "claim"
      ],
      [
        "pl",
        "u"
      ],
      [
        "bro",
        "ok"
      ],
      [
        "po",
        "ll"
      ],
      [
        "rede",
        "emed"
      ],
      [
        "G",
        "e"
      ],
      [
        "H",
        "az"
      ],
      [
        "P",
        "il"
      ],
      [
        "l",
        "ar"
      ],
      [
        "s",
        "car"
      ],
      [
        "end",
        "s"
      ],
      [
        "end",
        "ure"
      ],
      [
        "mb",
        "ling"
      ],
      [
        "mer",
        "ch"
      ],
      [
        "alt",
        "ars"
      ],
      [
        "judg",
        "es"
      ],
      [
        "sm",
        "ite"
      ],
      [
        "thought",
        "s"
      ],
      [
        "comfor",
        "t"
      ],
      [
        "horse",
        "men"
      ],
      [
        "k",
        "ne"
      ],
      [
        "s",
        "ore"
      ],
      [
        "he",
        "av"
      ],
      [
        "he",
        "ap"
      ],
      [
        "to",
        "o"
      ],
      [
        "on",
        "ce"
      ],
      [
        "ul",
        "t"
      ],
      [
        "field",
        "s"
      ],
      [
        "rej",
        "e"
      ],
      [
        "comp",
        "an"
      ],
      [
        "Al",
        "mighty"
      ],
      [
        "rede",
        "em"
      ],
      [
        "bir",
        "ds"
      ],
      [
        "b",
        "ah"
      ],
      [
        "may",
        "est"
      ],
      [
        "bu",
        "y"
      ],
      [
        "des",
        "er"
      ],
      [
        "ob",
        "serve"
      ],
      [
        "Shi",
        "me"
      ],
      [
        ".",
        ">>"
      ],
      [
        "L",
        "ab"
      ],
      [
        "d",
        "ro"
      ],
      [
        "f",
        "f"
      ],
      [
        "r",
        "ings"
      ],
      [
        "at",
        "an"
      ],
      [
        "le",
        "an"
      ],
      [
        "are",
        "n"
      ],
      [
        "after",
        "ward"
      ],
      [
        "qu",
        "een"
      ],
      [
        "dom",
        "inion"
      ],
      [
        "cho",
        "ose"
      ],
      [
        "sit",
        "ting"
      ],
      [
        "affli",
        "cted"
      ],
      [
        "prov",
        "in"
      ],
      [
        "lin",
        "ess"
      ],
      [
        "esca",
        "ped"
      ],
      [
        "remem",
        "bered"
      ],
      [
        "sancti",
        "fied"
      ],
      [
        "prou",
        "d"
      ],
      [
        "A",
        "re"
      ],
      [
        "B",
        "ring"
      ],
      [
        "P",
        "raise"
      ],
      [
        "d",
        "ou"
      ],
      [
        "ra",
        "ge"
      ],
      [
        "go",
        "es"
      ],
      [
        "gi",
        "ft"
      ],
      [
        "hat",
        "ed"
      ],
      [
        "kingdom",
        "s"
      ],
      [
        "naked",
        "ness"
      ],
      [
        "Ish",
        "ma"
      ],
      [
        "Pil",
        "ate"
      ],
      [
        "S",
        "atan"
      ],
      [
        "c",
        "ro"
      ],
      [
        "c",
        "kets"
      ],
      [
        "p",
        "en"
      ],
      [
        "me",
        "on"
      ],
      [
        "Go",
        "od"
      ],
      [
        "dev",
        "oured"
      ],
      [
        "cur",
        "tain"
      ],
      [
        "No",
        "ah"
      ],
      [
        "fav",
        "or"
      ],
      [
        "Zeb",
        "ul"
      ],
      [
        "sla",
        "ughter"
      ],
      [
        "interpre",
        "t"
      ],
      [
        "Es",
        "ther"
      ],
      [
        "Lab",
        "an"
      ],
      [
        "M",
        "iz"
      ],
      [
        "he",
        "n"
      ],
      [
        "or",
        "ah"
      ],
      [
        "me",
        "t"
      ],
      [
        "son",
        "g"
      ],
      [
        "ep",
        "s"
      ],
      [
        "po",
        "st"
      ],
      [
        "exce",
        "ll"
      ],
      [
        "desol",
        "ation"
      ],
      [
        "instru",
        "ments"
      ],
      [
        "corrup",
        "t"
      ],
      [
        "viol",
        "ence"
      ],
      [
        "n",
        "on"
      ],
      [
        "p",
        "ay"
      ],
      [
        "re",
        "ap"
      ],
      [
        "ch",
        "ang"
      ],
      [
        "will",
        "ing"
      ],
      [
        "so",
        "ckets"
      ],
      [
        "our",
        "selves"
      ],
      [
        "Je",
        "z"
      ],
      [
        "swe",
        "ar"
      ],
      [
        "desp",
        "ised"
      ],
      [
        "G",
        "il"
      ],
      [
        "M",
        "ake"
      ],
      [
        "M",
        "ary"
      ],
      [
        "N",
        "aph"
      ],
      [
        "se",
        "ason"
      ],
      [
        "le",
        "hem"
      ],
      [
        "ro",
        "b"
      ],
      [
        "for",
        "give"
      ],
      [
        "gi",
        "fts"
      ],
      [
        "As",
        "her"
      ],
      [
        "hor",
        "t"
      ],
      [
        "Jos",
        "iah"
      ],
      [
        "vis",
        "ions"
      ],
      [
        "em",
        "pt"
      ],
      [
        "scri",
        "be"
      ],
      [
        "wond",
        "ers"
      ],
      [
        "Her",
        "od"
      ],
      [
        "exceeding",
        "ly"
      ],
      [
        "fin",
        "ished"
      ],
      [
        "Naph",
        "t"
      ],
      [
        "-",
        "-"
      ],
      [
        "B",
        "el"
      ],
      [
        "H",
        "ad"
      ],
      [
        "u",
        "es"
      ],
      [
        "in",
        "ner"
      ],
      [
        "od",
        "om"
      ],
      [
        "pe",
        "th"
      ],
      [
        "ab",
        "ide"
      ],
      [
        "sp",
        "ir"
      ],
      [
        "sp",
        "el"
      ],
      [
        "spe",
        "ech"
      ],
      [
        "found",
        "ed"
      ],
      [
        "gra",
        "ve"
      ],
      [
        "qui",
        "et"
      ],
      [
        "sanct",
        "ify"
      ],
      [
        "stra",
        "ight"
      ],
      [
        "rebe",
        "ll"
      ],
      [
        "bullo",
        "ck"
      ],
      [
        "author",
        "ity"
      ],
      [
        "Ishma",
        "el"
      ],
      [
        "Z",
        "ad"
      ],
      [
        "f",
        "ish"
      ],
      [
        "re",
        "el"
      ],
      [
        "found",
        "ation"
      ],
      [
        "Thou",
        "gh"
      ],
      [
        "ali",
        "ah"
      ],
      [
        "Beth",
        "lehem"
      ],
      [
        "lab",
        "or"
      ],
      [
        "Ham",
        "an"
      ],
      [
        "Si",
        "meon"
      ],
      [
        "friend",
        "s"
      ],
      [
        "Zad",
        "ok"
      ],
      [
        "K",
        "ir"
      ],
      [
        "O",
        "h"
      ],
      [
        "t",
        "end"
      ],
      [
        "w",
        "al"
      ],
      [
        "ho",
        "d"
      ],
      [
        "ca",
        "re"
      ],
      [
        "ter",
        "ri"
      ],
      [
        "pr",
        "ide"
      ],
      [
        "where",
        "with"
      ],
      [
        "cle",
        "ans"
      ],
      [
        "habit",
        "ation"
      ],
      [
        "qui",
        "red"
      ],
      [
        "Ye",
        "a"
      ],
      [
        "remain",
        "ed"
      ],
      [
        "circumc",
        "ision"
      ],
      [
        "K",
        "o"
      ],
      [
        "N",
        "eth"
      ],
      [
        "i",
        "ck"
      ],
      [
        "o",
        "king"
      ],
      [
        "me",
        "l"
      ],
      [
        "for",
        "given"
      ],
      [
        "go",
        "spel"
      ],
      [
        "consu",
        "me"
      ],
      [
        "lab",
        "our"
      ],
      [
        "establ",
        "ish"
      ],
      [
        "prom",
        "ise"
      ],
      [
        "Jehoi",
        "ada"
      ],
      [
        "kno",
        "weth"
      ],
      [
        "dili",
        "gent"
      ],
      [
        "Napht",
        "ali"
      ],
      [
        "l",
        "ust"
      ],
      [
        "s",
        "wall"
      ],
      [
        "we",
        "ls"
      ],
      [
        "sha",
        "ke"
      ],
      [
        "ven",
        "ge"
      ],
      [
        "wor",
        "shi"
      ],
      [
        "mo",
        "on"
      ],
      [
        "pre",
        "ached"
      ],
      [
        "cre",
        "at"
      ],
      [
        "Re",
        "member"
      ],
      [
        "ced",
        "ar"
      ],
      [
        "mour",
        "ning"
      ],
      [
        "pill",
        "ar"
      ],
      [
        "transgre",
        "s"
      ],
      [
        "trumpe",
        "ts"
      ],
      [
        "advers",
        "aries"
      ],
      [
        "supp",
        "li"
      ],
      [
        "A",
        "male"
      ],
      [
        "J",
        "am"
      ],
      [
        "M",
        "ac"
      ],
      [
        "R",
        "ab"
      ],
      [
        "m",
        "ir"
      ],
      [
        "p",
        "ati"
      ],
      [
        "whe",
        "at"
      ],
      [
        "iniqu",
        "ities"
      ],
      [
        "witness",
        "es"
      ],
      [
        "appear",
        "ance"
      ],
      [
        "tal",
        "ents"
      ],
      [
        "dec",
        "ree"
      ],
      [
        "Reho",
        "boam"
      ],
      [
        "scar",
        "let"
      ],
      [
        "Amale",
        "k"
      ],
      [
        "A",
        "ra"
      ],
      [
        "b",
        "ind"
      ],
      [
        "f",
        "urn"
      ],
      [
        "h",
        "in"
      ],
      [
        "w",
        "rought"
      ],
      [
        "th",
        "rown"
      ],
      [
        "to",
        "wer"
      ],
      [
        "st",
        "ars"
      ],
      [
        "for",
        "ward"
      ],
      [
        "ke",
        "t"
      ],
      [
        "am",
        "ar"
      ],
      [
        "par",
        "able"
      ],
      [
        "prophe",
        "si"
      ],
      [
        "str",
        "ange"
      ],
      [
        "test",
        "ify"
      ],
      [
        "teach",
        "ing"
      ],
      [
        "G",
        "ed"
      ],
      [
        "H",
        "or"
      ],
      [
        "K",
        "e"
      ],
      [
        "n",
        "est"
      ],
      [
        "n",
        "igh"
      ],
      [
        "r",
        "ah"
      ],
      [
        "th",
        "row"
      ],
      [
        "id",
        "on"
      ],
      [
        "ep",
        "hod"
      ],
      [
        "bre",
        "ast"
      ],
      [
        "bes",
        "ides"
      ],
      [
        "wr",
        "ong"
      ],
      [
        "bl",
        "ue"
      ],
      [
        "count",
        "ries"
      ],
      [
        "tou",
        "ched"
      ],
      [
        "need",
        "y"
      ],
      [
        "D",
        "id"
      ],
      [
        "N",
        "athan"
      ],
      [
        "b",
        "id"
      ],
      [
        "f",
        "ow"
      ],
      [
        "i",
        "eld"
      ],
      [
        "as",
        "hes"
      ],
      [
        "me",
        "mor"
      ],
      [
        "are",
        "r"
      ],
      [
        "el",
        "se"
      ],
      [
        "ac",
        "hel"
      ],
      [
        "ser",
        "p"
      ],
      [
        "ous",
        "ly"
      ],
      [
        "lam",
        "p"
      ],
      [
        "flo",
        "od"
      ],
      [
        "pur",
        "ple"
      ],
      [
        "dri",
        "ven"
      ],
      [
        "hur",
        "t"
      ],
      [
        "m",
        "ilk"
      ],
      [
        "w",
        "ave"
      ],
      [
        "th",
        "ither"
      ],
      [
        "in",
        "quire"
      ],
      [
        "ord",
        "ers"
      ],
      [
        "do",
        "ings"
      ],
      [
        "He",
        "bre"
      ],
      [
        "came",
        "ls"
      ],
      [
        "bre",
        "ath"
      ],
      [
        "spe",
        "ar"
      ],
      [
        "Jo",
        "ash"
      ],
      [
        "Ne",
        "ws"
      ],
      [
        "Az",
        "ariah"
      ],
      [
        "virg",
        "in"
      ],
      [
        "Jez",
        "reel"
      ],
      [
        "S",
        "odom"
      ],
      [
        "g",
        "al"
      ],
      [
        "k",
        "ed"
      ],
      [
        "p",
        "uri"
      ],
      [
        "r",
        "us"
      ],
      [
        "t",
        "es"
      ],
      [
        "y",
        "ield"
      ],
      [
        "ro",
        "ar"
      ],
      [
        "li",
        "ons"
      ],
      [
        "ad",
        "d"
      ],
      [
        "fi",
        "g"
      ],
      [
        "con",
        "ceived"
      ],
      [
        "wor",
        "n"
      ],
      [
        "ake",
        "th"
      ],
      [
        "sin",
        "ners"
      ],
      [
        "jo",
        "ined"
      ],
      [
        "bod",
        "ies"
      ],
      [
        "sle",
        "pt"
      ],
      [
        "bir",
        "th"
      ],
      [
        "transgress",
        "ions"
      ],
      [
        "adul",
        "ter"
      ],
      [
        "pest",
        "il"
      ],
      [
        "Zebul",
        "un"
      ],
      [
        "H",
        "itt"
      ],
      [
        "I",
        "m"
      ],
      [
        "O",
        "ur"
      ],
      [
        "a",
        "im"
      ],
      [
        "b",
        "or"
      ],
      [
        "b",
        "right"
      ],
      [
        "b",
        "orders"
      ],
      [
        "f",
        "ro"
      ],
      [
        "g",
        "row"
      ],
      [
        "to",
        "mb"
      ],
      [
        "fore",
        "st"
      ],
      [
        "do",
        "eth"
      ],
      [
        "te",
        "eth"
      ],
      [
        "bo",
        "ast"
      ],
      [
        "ap",
        "art"
      ],
      [
        "per",
        "ver"
      ],
      [
        "live",
        "th"
      ],
      [
        "da",
        "ily"
      ],
      [
        "She",
        "ma"
      ],
      [
        "glor",
        "ified"
      ],
      [
        "tab",
        "les"
      ],
      [
        "div",
        "ide"
      ],
      [
        "weep",
        "ing"
      ],
      [
        "sw",
        "ore"
      ],
      [
        "shepher",
        "d"
      ],
      [
        "compass",
        "ion"
      ],
      [
        "Ty",
        "re"
      ],
      [
        "R",
        "achel"
      ],
      [
        "l",
        "ah"
      ],
      [
        "ar",
        "ray"
      ],
      [
        "st",
        "eps"
      ],
      [
        "for",
        "mer"
      ],
      [
        "was",
        "hed"
      ],
      [
        "dev",
        "il"
      ],
      [
        "Canaan",
        "ites"
      ],
      [
        "desp",
        "ise"
      ],
      [
        "tow",
        "ns"
      ],
      [
        "quick",
        "ly"
      ],
      [
        "A",
        "i"
      ],
      [
        "k",
        "is"
      ],
      [
        "p",
        "ah"
      ],
      [
        "el",
        "s"
      ],
      [
        "ur",
        "rection"
      ],
      [
        "fe",
        "male"
      ],
      [
        "know",
        "ing"
      ],
      [
        "Jes",
        "se"
      ],
      [
        "bur",
        "y"
      ],
      [
        "prom",
        "ised"
      ],
      [
        "rejoic",
        "ed"
      ],
      [
        "sack",
        "cloth"
      ],
      [
        "Ko",
        "hath"
      ],
      [
        "prophesi",
        "ed"
      ],
      [
        "pestil",
        "ence"
      ],
      [
        "E",
        "z"
      ],
      [
        "T",
        "h"
      ],
      [
        "b",
        "ought"
      ],
      [
        "in",
        "th"
      ],
      [
        "es",
        "core"
      ],
      [
        "it",
        "self"
      ],
      [
        "per",
        "sons"
      ],
      [
        "cur",
        "sed"
      ],
      [
        "conf",
        "id"
      ],
      [
        "multip",
        "ly"
      ],
      [
        "Ca",
        "es"
      ],
      [
        "foreign",
        "er"
      ],
      [
        "C",
        "hi"
      ],
      [
        "H",
        "u"
      ],
      [
        "J",
        "eph"
      ],
      [
        "f",
        "y"
      ],
      [
        "g",
        "ue"
      ],
      [
        "s",
        "worn"
      ],
      [
        "t",
        "ur"
      ],
      [
        "ok",
        "ed"
      ],
      [
        "bo",
        "t"
      ],
      [
        "ap",
        "p"
      ],
      [
        "six",
        "th"
      ],
      [
        "cover",
        "ing"
      ],
      [
        "meas",
        "ured"
      ],
      [
        "deed",
        "s"
      ],
      [
        "conf",
        "ess"
      ],
      [
        "thi",
        "ck"
      ],
      [
        "thre",
        "escore"
      ],
      [
        "multip",
        "lied"
      ],
      [
        "P",
        "er"
      ],
      [
        "T",
        "im"
      ],
      [
        "ar",
        "rows"
      ],
      [
        "ren",
        "t"
      ],
      [
        "let",
        "ter"
      ],
      [
        "cre",
        "ated"
      ],
      [
        "follow",
        "ing"
      ],
      [
        "tr",
        "ay"
      ],
      [
        "pit",
        "ched"
      ],
      [
        "tor",
        "s"
      ],
      [
        "cloud",
        "s"
      ],
      [
        "glad",
        "ness"
      ],
      [
        "ris",
        "en"
      ],
      [
        "viney",
        "ards"
      ],
      [
        "Gibe",
        "ah"
      ],
      [
        "prostit",
        "ute"
      ],
      [
        "B",
        "o"
      ],
      [
        "G",
        "host"
      ],
      [
        "H",
        "as"
      ],
      [
        "c",
        "ess"
      ],
      [
        "th",
        "orns"
      ],
      [
        "ar",
        "mies"
      ],
      [
        "de",
        "fi"
      ],
      [
        "al",
        "ong"
      ],
      [
        "ud",
        "den"
      ],
      [
        "res",
        "pect"
      ],
      [
        "bro",
        "ke"
      ],
      [
        "Je",
        "bus"
      ],
      [
        "mour",
        "n"
      ],
      [
        "incre",
        "ased"
      ],
      [
        "sub",
        "je"
      ],
      [
        "Gibe",
        "on"
      ],
      [
        "venge",
        "ance"
      ],
      [
        "G",
        "ide"
      ],
      [
        "H",
        "igh"
      ],
      [
        "k",
        "id"
      ],
      [
        "k",
        "ened"
      ],
      [
        "o",
        "live"
      ],
      [
        "s",
        "ow"
      ],
      [
        "ha",
        "il"
      ],
      [
        "for",
        "gotten"
      ],
      [
        "li",
        "p"
      ],
      [
        "ur",
        "sed"
      ],
      [
        "ud",
        "es"
      ],
      [
        "gre",
        "en"
      ],
      [
        "br",
        "ide"
      ],
      [
        "ap",
        "pro"
      ],
      [
        "six",
        "ty"
      ],
      [
        "appo",
        "int"
      ],
      [
        "beaut",
        "y"
      ],
      [
        "beaut",
        "iful"
      ],
      [
        "drun",
        "k"
      ],
      [
        "synago",
        "gue"
      ],
      [
        "interpret",
        "ation"
      ],
      [
        "Gide",
        "on"
      ],
      [
        "G",
        "ers"
      ],
      [
        "N",
        "ab"
      ],
      [
        "d",
        "am"
      ],
      [
        "i",
        "le"
      ],
      [
        "sa",
        "char"
      ],
      [
        "Is",
        "sachar"
      ],
      [
        "ac",
        "com"
      ],
      [
        "hear",
        "ing"
      ],
      [
        "gre",
        "w"
      ],
      [
        "ant",
        "ly"
      ],
      [
        "sm",
        "it"
      ],
      [
        "pie",
        "ce"
      ],
      [
        "smo",
        "ke"
      ],
      [
        "On",
        "ly"
      ],
      [
        "ded",
        "ic"
      ],
      [
        "ele",
        "ven"
      ],
      [
        "chang",
        "ed"
      ],
      [
        "accom",
        "pl"
      ],
      [
        "E",
        "n"
      ],
      [
        "H",
        "ag"
      ],
      [
        "K",
        "now"
      ],
      [
        "L",
        "ot"
      ],
      [
        "c",
        "ra"
      ],
      [
        "th",
        "rust"
      ],
      [
        "an",
        "ah"
      ],
      [
        "as",
        "hi"
      ],
      [
        "st",
        "aff"
      ],
      [
        "lo",
        "oking"
      ],
      [
        "know",
        "s"
      ],
      [
        "per",
        "form"
      ],
      [
        "where",
        "fore"
      ],
      [
        "dis",
        "obedi"
      ],
      [
        "fruit",
        "ful"
      ],
      [
        "decl",
        "ared"
      ],
      [
        "dist",
        "ress"
      ],
      [
        "Bal",
        "ak"
      ],
      [
        "C",
        "ar"
      ],
      [
        "G",
        "re"
      ],
      [
        "J",
        "ab"
      ],
      [
        "f",
        "il"
      ],
      [
        "g",
        "er"
      ],
      [
        "i",
        "v"
      ],
      [
        "l",
        "atter"
      ],
      [
        "re",
        "l"
      ],
      [
        "re",
        "comp"
      ],
      [
        "is",
        "n"
      ],
      [
        "we",
        "ver"
      ],
      [
        "we",
        "ary"
      ],
      [
        "ro",
        "ot"
      ],
      [
        "al",
        "es"
      ],
      [
        "con",
        "founded"
      ],
      [
        "father",
        "less"
      ],
      [
        "ish",
        "on"
      ],
      [
        "sheke",
        "l"
      ],
      [
        "treas",
        "ure"
      ],
      [
        "Te",
        "ll"
      ],
      [
        "shepher",
        "ds"
      ],
      [
        "rebu",
        "ke"
      ],
      [
        "satis",
        "fied"
      ],
      [
        "reje",
        "cted"
      ],
      [
        "Shime",
        "i"
      ],
      [
        "R",
        "ed"
      ],
      [
        "i",
        "as"
      ]
    ]
  }
}