{
  "version": "1.0",
  "truncation": null,
  "padding": null,
  "added_tokens": [
    {
      "id": 0,
      "content": "[UNK]",
      "single_word": false,
      "lstrip": false,
      "rstrip": false,
      "normalized": false,
      "special": true
    }
  ],
  "normalizer": null,
  "pre_tokenizer": {
    "type": "Whitespace"
  },
  "post_processor": null,
  "decoder": null,
  "model": {
    "type": "BPE",
    "dropout": null,
    "unk_token": "[UNK]",
    "continuing_subword_prefix": null,
    "end_of_word_suffix": null,
    "fuse_unk": false,
    "byte_fallback": false,
    "ignore_merges": false,
    "vocab": {
      "[UNK]": 0,
      "!": 1,
      "\"": 2,
      "'": 3,
      "(": 4,
      ")": 5,
      ",": 6,
      "-": 7,
      ".": 8,
      "1": 9,
      "2": 10,
      "3": 11,
      "4": 12,
      "5": 13,
      "6": 14,
      "8": 15,
      ":": 16,
      ";": 17,
      "<": 18,
      ">": 19,
      "?": 20,
      "A": 21,
      "B": 22,
      "C": 23,
      "D": 24,
      "E": 25,
      "F": 26,
      "G": 27,
      "H": 28,
      "I": 29,
      "J": 30,
      "K": 31,
      "L": 32,
      "M": 33,
      "N": 34,
      "O": 35,
      "P": 36,
      "Q": 37,
      "R": 38,
      "S": 39,
      "T": 40,
      "U": 41,
      "V": 42,
      "W": 43,
      "Y": 44,
      "Z": 45,
      "[": 46,
      "]": 47,
      "a": 48,
      "b": 49,
      "c": 50,
      "d": 51,
      "e": 52,
      "f": 53,
      "g": 54,
      "h": 55,
      "i": 56,
      "j": 57,
      "k": 58,
      "l": 59,
      "m": 60,
      "n": 61,
      "o": 62,
      "p": 63,
      "q": 64,
      "r": 65,
      "s": 66,
      "t": 67,
      "u": 68,
      "v": 69,
      "w": 70,
      "x": 71,
      "y": 72,
      "z": 73,
      "th": 74,
      "the": 75,
      "an": 76,
      "in": 77,
      "and": 78,
      "re": 79,
      "ou": 80,
      "of": 81,
      "he": 82,
      "to": 83,
      "ll": 84,
      "on": 85,
      "ha": 86,
      "is": 87,
      "er": 88,
      "or": 89,
      "es": 90,
      "en": 91,
      "at": 92,
      "ed": 93,
      "ing": 94,
      "hi": 95,
      "se": 96,
      "ar": 97,
      "it": 98,
      "be": 99,
      "as": 100,
      "wi": 101,
      "you": 102,
      "me": 103,
      "sa": 104,
      "le": 105,
      "that": 106,
      "we": 107,
      "ve": 108,
      "sha": 109,
      "ho": 110,
      "nd": 111,
      "id": 112,
      "st": 113,
      "ro": 114,
      "no": 115,
      "for": 116,
      "his": 117,
      "ld": 118,
      "shall": 119,
      "gh": 120,
      "ah": 121,
      "all": 122,
      "ay": 123,
      "him": 124,
      "od": 125,
      "ir": 126,
      "with": 127,
      "un": 128,
      "And": 129,
      "ce": 130,
      "them": 131,
      "ut": 132,
      "ch": 133,
      "The": 134,
      "li": 135,
      "ra": 136,
      "they": 137,
      "ri": 138,
      "ver": 139,
      "ther": 140,
      "ght": 141,
      "ent": 142,
      "co": 143,
      "de": 144,
      "al": 145,
      "will": 146,
      "ke": 147,
      "ca": 148,
      "not": 149,
      "ore": 150,
      "who": 151,
      "my": 152,
      "am": 153,
      "your": 154,
      "was": 155,
      "ord": 156,
      "ow": 157,
      "unto": 158,
      "up": 159,
      "are": 160,
      "el": 161,
      "have": 162,
      "us": 163,
      "pe": 164,
      "ain": 165,
      "whi": 166,
      "out": 167,
      "God": 168,
      "rom": 169,
      "ion": 170,
      "said": 171,
      "ven": 172,
      "so": 173,
      "their": 174,
      "one": 175,
      "from": 176,
      "there": 177,
      "man": 178,
      "which": 179,
      "il": 180,
      "fore": 181,
      "ab": 182,
      "ad": 183,
      "ma": 184,
      "ur": 185,
      "ye": 186,
      "hou": 187,
      "king": 188,
      "ess": 189,
      "Yah": 190,
      "son": 191,
      "est": 192,
      "weh": 193,
      "Yahweh": 194,
      "go": 195,
      "lo": 196,
      "thou": 197,
      "LO": 198,
      "RD": 199,
      "LORD": 200,
      "were": 201,
      "do": 202,
      "ter": 203,
      "fi": 204,
      "whe": 205,
      "our": 206,
      "ne": 207,
      "ly": 208,
      "ag": 209,
      "Is": 210,
      "ac": 211,
      "her": 212,
      "fe": 213,
      "op": 214,
      "say": 215,
      "fa": 216,
      "day": 217,
      "by": 218,
      "rael": 219,
      "Israel": 220,
      "ren": 221,
      "but": 222,
      "He": 223,
      "red": 224,
      "thy": 225,
      "this": 226,
      "chi": 227,
      "ts": 228,
      "sp": 229,
      "rou": 230,
      "had": 231,
      "ers": 232,
      "ation": 233,
      "ul": 234,
      "hear": 235,
      "came": 236,
      "te": 237,
      "again": 238,
      "peop": 239,
      "la": 240,
      "now": 241,
      "house": 242,
      "come": 243,
      "when": 244,
      "sel": 245,
      "men": 246,
      "thing": 247,
      "way": 248,
      "com": 249,
      "pt": 250,
      "people": 251,
      "con": 252,
      "hand": 253,
      "child": 254,
      "into": 255,
      "ck": 256,
      "thee": 257,
      "ine": 258,
      "ever": 259,
      "ight": 260,
      "For": 261,
      "ge": 262,
      "ness": 263,
      "off": 264,
      "land": 265,
      "urn": 266,
      "ok": 267,
      "ud": 268,
      "children": 269,
      "own": 270,
      "gi": 271,
      ".\"": 272,
      "before": 273,
      "ser": 274,
      "hold": 275,
      "went": 276,
      "wo": 277,
      "use": 278,
      "word": 279,
      "she": 280,
      "ru": 281,
      "ong": 282,
      "ity": 283,
      "gre": 284,
      "ves": 285,
      "against": 286,
      "af": 287,
      "os": 288,
      "cause": 289,
      "im": 290,
      "ast": 291,
      "ak": 292,
      "father": 293,
      "also": 294,
      "hat": 295,
      "But": 296,
      "und": 297,
      "wor": 298,
      "Be": 299,
      "pro": 300,
      "over": 301,
      "ant": 302,
      "ear": 303,
      "ose": 304,
      "et": 305,
      "has": 306,
      "if": 307,
      "made": 308,
      "ard": 309,
      "upon": 310,
      "saying": 311,
      "ake": 312,
      "know": 313,
      "serv": 314,
      "ies": 315,
      "ise": 316,
      "ath": 317,
      "ep": 318,
      "even": 319,
      "av": 320,
      "ass": 321,
      "ist": 322,
      "ted": 323,
      "su": 324,
      "ans": 325,
      "other": 326,
      "offer": 327,
      "pl": 328,
      "oun": 329,
      "ind": 330,
      "iah": 331,
      "ment": 332,
      "ev": 333,
      "may": 334,
      "res": 335,
      "pr": 336,
      "did": 337,
      "Then": 338,
      "hath": 339,
      "br": 340,
      "ous": 341,
      "end": 342,
      "ti": 343,
      "let": 344,
      "bre": 345,
      "comm": 346,
      "mb": 347,
      "na": 348,
      "lt": 349,
      "down": 350,
      "ith": 351,
      "sons": 352,
      "right": 353,
      "things": 354,
      "Lord": 355,
      "bo": 356,
      "great": 357,
      "They": 358,
      "ound": 359,
      "every": 360,
      "Dav": 361,
      "David": 362,
      "Jes": 363,
      "see": 364,
      "because": 365,
      "ang": 366,
      "then": 367,
      "its": 368,
      "ide": 369,
      "any": 370,
      "offering": 371,
      "make": 372,
      "pri": 373,
      "ved": 374,
      "Jer": 375,
      "turn": 376,
      "after": 377,
      "bu": 378,
      "bro": 379,
      "Je": 380,
      "ap": 381,
      "nor": 382,
      "self": 383,
      "ga": 384,
      "So": 385,
      "earth": 386,
      "these": 387,
      "ice": 388,
      "Jesus": 389,
      "di": 390,
      "ars": 391,
      "Whe": 392,
      "like": 393,
      "ct": 394,
      "away": 395,
      "ree": 396,
      "ill": 397,
      "sin": 398,
      "name": 399,
      "per": 400,
      "put": 401,
      "priest": 402,
      "lem": 403,
      "command": 404,
      "qu": 405,
      "sto": 406,
      "mon": 407,
      "rought": 408,
      "les": 409,
      "give": 410,
      "ount": 411,
      "ry": 412,
      "acc": 413,
      "those": 414,
      "Jud": 415,
      "ither": 416,
      "ward": 417,
      "among": 418,
      "orn": 419,
      "You": 420,
      "par": 421,
      "mo": 422,
      "led": 423,
      "days": 424,
      "brought": 425,
      "oses": 426,
      "city": 427,
      "There": 428,
      "Moses": 429,
      "call": 430,
      "wat": 431,
      "pass": 432,
      "ites": 433,
      "heart": 434,
      "Jeru": 435,
      "dom": 436,
      "might": 437,
      "two": 438,
      "Judah": 439,
      "fo": 440,
      "hed": 441,
      "good": 442,
      "less": 443,
      "salem": 444,
      "Jerusalem": 445,
      "work": 446,
      "Ab": 447,
      "ording": 448,
      "shalt": 449,
      "hould": 450,
      "lace": 451,
      "spe": 452,
      "ants": 453,
      "aven": 454,
      "ten": 455,
      "phe": 456,
      "eat": 457,
      "sou": 458,
      "si": 459,
      "Now": 460,
      "place": 461,
      "ught": 462,
      "live": 463,
      "ol": 464,
      "according": 465,
      "should": 466,
      "eth": 467,
      "ish": 468,
      "take": 469,
      "forth": 470,
      "bring": 471,
      "took": 472,
      "gy": 473,
      "po": 474,
      "cri": 475,
      "well": 476,
      "ate": 477,
      "more": 478,
      "therefore": 479,
      "pre": 480,
      "Egy": 481,
      "Egypt": 482,
      "whom": 483,
      "ance": 484,
      "ces": 485,
      "what": 486,
      "ations": 487,
      "set": 488,
      "sent": 489,
      "gn": 490,
      "ple": 491,
      "ft": 492,
      "cha": 493,
      "neither": 494,
      "stand": 495,
      "where": 496,
      "under": 497,
      "ey": 498,
      "ould": 499,
      "gl": 500,
      "rough": 501,
      "eld": 502,
      "Behold": 503,
      "oice": 504,
      "As": 505,
      "ub": 506,
      "When": 507,
      "fir": 508,
      "ex": 509,
      "ci": 510,
      "da": 511,
      "burn": 512,
      "selves": 513,
      "brother": 514,
      "through": 515,
      "dis": 516,
      "des": 517,
      "It": 518,
      "than": 519,
      "prophe": 520,
      "behold": 521,
      "jud": 522,
      "ure": 523,
      "eous": 524,
      "heard": 525,
      "saith": 526,
      "ust": 527,
      "ph": 528,
      "hund": 529,
      "time": 530,
      "hundred": 531,
      "ite": 532,
      "ving": 533,
      "cer": 534,
      "evil": 535,
      "row": 536,
      "righteous": 537,
      "If": 538,
      "tre": 539,
      "sand": 540,
      "heaven": 541,
      "saw": 542,
      "tru": 543,
      "called": 544,
      "hus": 545,
      "law": 546,
      "hr": 547,
      "hast": 548,
      "aul": 549,
      "med": 550,
      "ach": 551,
      "ened": 552,
      "irit": 553,
      "tle": 554,
      "first": 555,
      "words": 556,
      "seven": 557,
      "cei": 558,
      "daught": 559,
      "thousand": 560,
      "dest": 561,
      "Chr": 562,
      "ful": 563,
      "head": 564,
      "Christ": 565,
      "pp": 566,
      "She": 567,
      "ning": 568,
      "fathers": 569,
      "done": 570,
      "how": 571,
      "ty": 572,
      "cked": 573,
      "servant": 574,
      "found": 575,
      "fire": 576,
      "mer": 577,
      "ink": 578,
      "ities": 579,
      "cle": 580,
      "given": 581,
      "years": 582,
      "says": 583,
      "himself": 584,
      "many": 585,
      "Jo": 586,
      "str": 587,
      "ace": 588,
      "alt": 589,
      "about": 590,
      "Therefore": 591,
      "don": 592,
      "would": 593,
      "ark": 594,
      "side": 595,
      "eyes": 596,
      "hu": 597,
      "ng": 598,
      "soul": 599,
      "blo": 600,
      "glor": 601,
      "Let": 602,
      "servants": 603,
      "gave": 604,
      "dr": 605,
      "ence": 606,
      "gether": 607,
      "together": 608,
      "beg": 609,
      "roy": 610,
      "voice": 611,
      "answere": 612,
      "hy": 613,
      "hab": 614,
      "four": 615,
      "holy": 616,
      "gold": 617,
      "spo": 618,
      "mount": 619,
      "har": 620,
      "answered": 621,
      "ign": 622,
      "three": 623,
      "cut": 624,
      "yet": 625,
      "tri": 626,
      "speak": 627,
      "life": 628,
      "wicked": 629,
      "che": 630,
      "rem": 631,
      "bread": 632,
      "dwell": 633,
      "unt": 634,
      "can": 635,
      "om": 636,
      "turned": 637,
      "pres": 638,
      "able": 639,
      "tain": 640,
      "capt": 641,
      "bes": 642,
      "commanded": 643,
      "blood": 644,
      "Ja": 645,
      "wr": 646,
      "thine": 647,
      "light": 648,
      "outh": 649,
      "thir": 650,
      "thereof": 651,
      "destroy": 652,
      "fu": 653,
      "list": 654,
      "ase": 655,
      "judg": 656,
      "ings": 657,
      "cities": 658,
      "hands": 659,
      "ue": 660,
      "ken": 661,
      "mies": 662,
      "In": 663,
      "ef": 664,
      "ments": 665,
      "twe": 666,
      "car": 667,
      "cre": 668,
      "gra": 669,
      "until": 670,
      "shi": 671,
      "another": 672,
      "fam": 673,
      "mouth": 674,
      "?\"": 675,
      "mid": 676,
      "cl": 677,
      "ene": 678,
      "alk": 679,
      "um": 680,
      "Who": 681,
      "face": 682,
      "old": 683,
      "been": 684,
      "sword": 685,
      "nations": 686,
      "Saul": 687,
      "cast": 688,
      "keep": 689,
      "Thus": 690,
      "water": 691,
      "This": 692,
      "pray": 693,
      "wife": 694,
      "clo": 695,
      "peace": 696,
      "clean": 697,
      "fles": 698,
      "kill": 699,
      "round": 700,
      "prin": 701,
      "flesh": 702,
      "tell": 703,
      "themselves": 704,
      "priests": 705,
      "mul": 706,
      "hor": 707,
      "tak": 708,
      "mber": 709,
      "glory": 710,
      "rest": 711,
      "high": 712,
      "Re": 713,
      "What": 714,
      "ot": 715,
      "llow": 716,
      "ws": 717,
      "Am": 718,
      "sil": 719,
      "jo": 720,
      "ba": 721,
      "ack": 722,
      "cob": 723,
      "death": 724,
      "sea": 725,
      "year": 726,
      "didn": 727,
      "Jacob": 728,
      "sy": 729,
      "fall": 730,
      "bless": 731,
      "altar": 732,
      "kind": 733,
      "uch": 734,
      "asse": 735,
      "god": 736,
      "young": 737,
      "ains": 738,
      "long": 739,
      "faith": 740,
      "den": 741,
      "pos": 742,
      "lay": 743,
      "very": 744,
      "ic": 745,
      "Lev": 746,
      "midst": 747,
      "Ar": 748,
      "ses": 749,
      "ried": 750,
      "dead": 751,
      "love": 752,
      "drink": 753,
      "woman": 754,
      "recei": 755,
      "read": 756,
      "happ": 757,
      "lam": 758,
      "without": 759,
      "lon": 760,
      "field": 761,
      "lie": 762,
      "burnt": 763,
      "toward": 764,
      "left": 765,
      "ction": 766,
      "full": 767,
      "aron": 768,
      "Aaron": 769,
      "ised": 770,
      "wild": 771,
      "walk": 772,
      "Go": 773,
      "az": 774,
      "habit": 775,
      "fied": 776,
      "anger": 777,
      "mine": 778,
      "Thou": 779,
      "ble": 780,
      "Phi": 781,
      "ond": 782,
      "igh": 783,
      "five": 784,
      "part": 785,
      "night": 786,
      "reign": 787,
      "mighty": 788,
      "lled": 789,
      "herit": 790,
      "both": 791,
      "ared": 792,
      "fear": 793,
      "spirit": 794,
      "bl": 795,
      "sh": 796,
      "Ne": 797,
      "Gi": 798,
      "All": 799,
      "mother": 800,
      "war": 801,
      "sight": 802,
      "My": 803,
      "righteousness": 804,
      ".'": 805,
      "wise": 806,
      "ham": 807,
      "ished": 808,
      "kings": 809,
      "ave": 810,
      "fru": 811,
      "tem": 812,
      "kingdom": 813,
      "sacri": 814,
      "stood": 815,
      "sacrifi": 816,
      "ary": 817,
      "taken": 818,
      "twent": 819,
      "ps": 820,
      "ek": 821,
      "aces": 822,
      "Sam": 823,
      "tit": 824,
      "ines": 825,
      "same": 826,
      "daughter": 827,
      "liver": 828,
      "silver": 829,
      "wall": 830,
      "writ": 831,
      "ini": 832,
      "some": 833,
      "cont": 834,
      "month": 835,
      "chief": 836,
      "ower": 837,
      "iniqu": 838,
      "new": 839,
      "stru": 840,
      "Abra": 841,
      "ather": 842,
      "ily": 843,
      "serve": 844,
      "inherit": 845,
      "coven": 846,
      "lies": 847,
      "six": 848,
      "host": 849,
      "aby": 850,
      "lomon": 851,
      "Solomon": 852,
      "die": 853,
      "covenant": 854,
      "dev": 855,
      "erness": 856,
      "count": 857,
      "gth": 858,
      "ls": 859,
      "sed": 860,
      "art": 861,
      "laid": 862,
      "cub": 863,
      "raise": 864,
      "wilderness": 865,
      "much": 866,
      "born": 867,
      "tab": 868,
      "ild": 869,
      "Baby": 870,
      "flo": 871,
      "Babylon": 872,
      "twenty": 873,
      "hel": 874,
      "angel": 875,
      "lord": 876,
      "look": 877,
      "Philist": 878,
      "told": 879,
      "spake": 880,
      "ways": 881,
      "Eli": 882,
      "stren": 883,
      "test": 884,
      "sk": 885,
      "ask": 886,
      "spoke": 887,
      "Pha": 888,
      "delive": 889,
      "Son": 890,
      "thered": 891,
      "cerning": 892,
      "strong": 893,
      "We": 894,
      "Mo": 895,
      "merc": 896,
      "multit": 897,
      "bur": 898,
      "oh": 899,
      "attle": 900,
      "ia": 901,
      "none": 902,
      "spok": 903,
      "waters": 904,
      "disci": 905,
      "back": 906,
      "spoken": 907,
      "por": 908,
      "thren": 909,
      "deliver": 910,
      "ches": 911,
      "san": 912,
      "sess": 913,
      "Jos": 914,
      "possess": 915,
      "hon": 916,
      "wa": 917,
      "whose": 918,
      "ude": 919,
      "inhabit": 920,
      "Father": 921,
      "being": 922,
      "near": 923,
      "raoh": 924,
      "brethren": 925,
      "Pharaoh": 926,
      "world": 927,
      "gate": 928,
      "does": 929,
      "delivered": 930,
      "written": 931,
      "ali": 932,
      "offerings": 933,
      "cho": 934,
      "inted": 935,
      "seen": 936,
      "Where": 937,
      "bod": 938,
      "seed": 939,
      "ched": 940,
      "concerning": 941,
      "qui": 942,
      "ned": 943,
      "cam": 944,
      "brothers": 945,
      "ples": 946,
      "understand": 947,
      "door": 948,
      "Ben": 949,
      "Levites": 950,
      "princes": 951,
      "ister": 952,
      "ner": 953,
      "iniquity": 954,
      "pi": 955,
      "bed": 956,
      "wine": 957,
      "feet": 958,
      "gathered": 959,
      "power": 960,
      "hua": 961,
      "ions": 962,
      "acle": 963,
      "build": 964,
      "coun": 965,
      "return": 966,
      "fruit": 967,
      "Don": 968,
      "just": 969,
      "sat": 970,
      "vis": 971,
      "certain": 972,
      "vers": 973,
      "Philistines": 974,
      "works": 975,
      "Jeho": 976,
      "enemies": 977,
      "Sp": 978,
      "lit": 979,
      "seek": 980,
      "happened": 981,
      "order": 982,
      "pur": 983,
      "pleas": 984,
      "daughters": 985,
      "ern": 986,
      "congre": 987,
      "congreg": 988,
      "Jose": 989,
      "These": 990,
      "Jews": 991,
      "gar": 992,
      "ship": 993,
      "Abraham": 994,
      "Joseph": 995,
      "oud": 996,
      "prophet": 997,
      "follow": 998,
      "congregation": 999
    },
    "merges": [
      [
        "t",
        "h"
      ],
      [
        "th",
        "e"
      ],
      [
        "a",
        "n"
      ],
      [
        "i",
        "n"
      ],
      [
        "an",
        "d"
      ],
      [
        "r",
        "e"
      ],
      [
        "o",
        "u"
      ],
      [
        "o",
        "f"
      ],
      [
        "h",
        "e"
      ],
      [
        "t",
        "o"
      ],
      [
        "l",
        "l"
      ],
      [
        "o",
        "n"
      ],
      [
        "h",
        "a"
      ],
      [
        "i",
        "s"
      ],
      [
        "e",
        "r"
      ],
      [
        "o",
        "r"
      ],
      [
        "e",
        "s"
      ],
      [
        "e",
        "n"
      ],
      [
        "a",
        "t"
      ],
      [
        "e",
        "d"
      ],
      [
        "in",
        "g"
      ],
      [
        "h",
        "i"
      ],
      [
        "s",
        "e"
      ],
      [
        "a",
        "r"
      ],
      [
        "i",
        "t"
      ],
      [
        "b",
        "e"
      ],
      [
        "a",
        "s"
      ],
      [
        "w",
        "i"
      ],
      [
        "y",
        "ou"
      ],
      [
        "m",
        "e"
      ],
      [
        "s",
        "a"
      ],
      [
        "l",
        "e"
      ],
      [
        "th",
        "at"
      ],
      [
        "w",
        "e"
      ],
      [
        "v",
        "e"
      ],
      [
        "s",
        "ha"
      ],
      [
        "h",
        "o"
      ],
      [
        "n",
        "d"
      ],
      [
        "i",
        "d"
      ],
      [
        "s",
        "t"
      ],
      [
        "r",
        "o"
      ],
      [
        "n",
        "o"
      ],
      [
        "f",
        "or"
      ],
      [
        "h",
        "is"
      ],
      [
        "l",
        "d"
      ],
      [
        "sha",
        "ll"
      ],
      [
        "g",
        "h"
      ],
      [
        "a",
        "h"
      ],
      [
        "a",
        "ll"
      ],
      [
        "a",
        "y"
      ],
      [
        "hi",
        "m"
      ],
      [
        "o",
        "d"
      ],
      [
        "i",
        "r"
      ],
      [
        "wi",
        "th"
      ],
      [
        "u",
        "n"
      ],
      [
        "A",
        "nd"
      ],
      [
        "c",
        "e"
      ],
      [
        "the",
        "m"
      ],
      [
        "u",
        "t"
      ],
      [
        "c",
        "h"
      ],
      [
        "T",
        "he"
      ],
      [
        "l",
        "i"
      ],
      [
        "r",
        "a"
      ],
      [
        "the",
        "y"
      ],
      [
        "r",
        "i"
      ],
      [
        "v",
        "er"
      ],
      [
        "the",
        "r"
      ],
      [
        "gh",
        "t"
      ],
      [
        "en",
        "t"
      ],
      [
        "c",
        "o"
      ],
      [
        "d",
        "e"
      ],
      [
        "a",
        "l"
      ],
      [
        "wi",
        "ll"
      ],
      [
        "k",
        "e"
      ],
      [
        "c",
        "a"
      ],
      [
        "no",
        "t"
      ],
      [
        "o",
        "re"
      ],
      [
        "w",
        "ho"
      ],
      [
        "m",
        "y"
      ],
      [
        "a",
        "m"
      ],
      [
        "you",
        "r"
      ],
      [
        "w",
        "as"
      ],
      [
        "or",
        "d"
      ],
      [
        "o",
        "w"
      ],
      [
        "un",
        "to"
      ],
      [
        "u",
        "p"
      ],
      [
        "a",
        "re"
      ],
      [
        "e",
        "l"
      ],
      [
        "ha",
        "ve"
      ],
      [
        "u",
        "s"
      ],
      [
        "p",
        "e"
      ],
      [
        "a",
        "in"
      ],
      [
        "w",
        "hi"
      ],
      [
        "ou",
        "t"
      ],
      [
        "G",
        "od"
      ],
      [
        "ro",
        "m"
      ],
      [
        "i",
        "on"
      ],
      [
        "sa",
        "id"
      ],
      [
        "v",
        "en"
      ],
      [
        "s",
        "o"
      ],
      [
        "the",
        "ir"
      ],
      [
        "on",
        "e"
      ],
      [
        "f",
        "rom"
      ],
      [
        "the",
        "re"
      ],
      [
        "m",
        "an"
      ],
      [
        "whi",
        "ch"
      ],
      [
        "i",
        "l"
      ],
      [
        "f",
        "ore"
      ],
      [
        "a",
        "b"
      ],
      [
        "a",
        "d"
      ],
      [
        "m",
        "a"
      ],
      [
        "u",
        "r"
      ],
      [
        "y",
        "e"
      ],
      [
        "h",
        "ou"
      ],
      [
        "k",
        "ing"
      ],
      [
        "es",
        "s"
      ],
      [
        "Y",
        "ah"
      ],
      [
        "s",
        "on"
      ],
      [
        "es",
        "t"
      ],
      [
        "we",
        "h"
      ],
      [
        "Yah",
        "weh"
      ],
      [
        "g",
        "o"
      ],
      [
        "l",
        "o"
      ],
      [
        "th",
        "ou"
      ],
      [
        "L",
        "O"
      ],
      [
        "R",
        "D"
      ],
      [
        "LO",
        "RD"
      ],
      [
        "we",
        "re"
      ],
      [
        "d",
        "o"
      ],
      [
        "t",
        "er"
      ],
      [
        "f",
        "i"
      ],
      [
        "w",
        "he"
      ],
      [
        "ou",
        "r"
      ],
      [
        "n",
        "e"
      ],
      [
        "l",
        "y"
      ],
      [
        "a",
        "g"
      ],
      [
        "I",
        "s"
      ],
      [
        "a",
        "c"
      ],
      [
        "he",
        "r"
      ],
      [
        "f",
        "e"
      ],
      [
        "o",
        "p"
      ],
      [
        "sa",
        "y"
      ],
      [
        "f",
        "a"
      ],
      [
        "d",
        "ay"
      ],
      [
        "b",
        "y"
      ],
      [
        "ra",
        "el"
      ],
      [
        "Is",
        "rael"
      ],
      [
        "re",
        "n"
      ],
      [
        "b",
        "ut"
      ],
      [
        "H",
        "e"
      ],
      [
        "re",
        "d"
      ],
      [
        "th",
        "y"
      ],
      [
        "th",
        "is"
      ],
      [
        "c",
        "hi"
      ],
      [
        "t",
        "s"
      ],
      [
        "s",
        "p"
      ],
      [
        "r",
        "ou"
      ],
      [
        "ha",
        "d"
      ],
      [
        "er",
        "s"
      ],
      [
        "at",
        "ion"
      ],
      [
        "u",
        "l"
      ],
      [
        "he",
        "ar"
      ],
      [
        "ca",
        "me"
      ],
      [
        "t",
        "e"
      ],
      [
        "ag",
        "ain"
      ],
      [
        "pe",
        "op"
      ],
      [
        "l",
        "a"
      ],
      [
        "no",
        "w"
      ],
      [
        "hou",
        "se"
      ],
      [
        "co",
        "me"
      ],
      [
        "whe",
        "n"
      ],
      [
        "se",
        "l"
      ],
      [
        "m",
        "en"
      ],
      [
        "th",
        "ing"
      ],
      [
        "w",
        "ay"
      ],
      [
        "co",
        "m"
      ],
      [
        "p",
        "t"
      ],
      [
        "peop",
        "le"
      ],
      [
        "c",
        "on"
      ],
      [
        "h",
        "and"
      ],
      [
        "chi",
        "ld"
      ],
      [
        "in",
        "to"
      ],
      [
        "c",
        "k"
      ],
      [
        "the",
        "e"
      ],
      [
        "in",
        "e"
      ],
      [
        "e",
        "ver"
      ],
      [
        "i",
        "ght"
      ],
      [
        "F",
        "or"
      ],
      [
        "g",
        "e"
      ],
      [
        "n",
        "ess"
      ],
      [
        "of",
        "f"
      ],
      [
        "l",
        "and"
      ],
      [
        "ur",
        "n"
      ],
      [
        "o",
        "k"
      ],
      [
        "u",
        "d"
      ],
      [
        "child",
        "ren"
      ],
      [
        "ow",
        "n"
      ],
      [
        "g",
        "i"
      ],
      [
        ".",
        "\""
      ],
      [
        "be",
        "fore"
      ],
      [
        "s",
        "er"
      ],
      [
        "ho",
        "ld"
      ],
      [
        "w",
        "ent"
      ],
      [
        "w",
        "o"
      ],
      [
        "u",
        "se"
      ],
      [
        "w",
        "ord"
      ],
      [
        "s",
        "he"
      ],
      [
        "r",
        "u"
      ],
      [
        "on",
        "g"
      ],
      [
        "it",
        "y"
      ],
      [
        "g",
        "re"
      ],
      [
        "v",
        "es"
      ],
      [
        "again",
        "st"
      ],
      [
        "a",
        "f"
      ],
      [
        "o",
        "s"
      ],
      [
        "ca",
        "use"
      ],
      [
        "i",
        "m"
      ],
      [
        "as",
        "t"
      ],
      [
        "a",
        "k"
      ],
      [
        "fa",
        "ther"
      ],
      [
        "al",
        "so"
      ],
      [
        "ha",
        "t"
      ],
      [
        "B",
        "ut"
      ],
      [
        "u",
        "nd"
      ],
      [
        "w",
        "or"
      ],
      [
        "B",
        "e"
      ],
      [
        "p",
        "ro"
      ],
      [
        "o",
        "ver"
      ],
      [
        "an",
        "t"
      ],
      [
        "e",
        "ar"
      ],
      [
        "o",
        "se"
      ],
      [
        "e",
        "t"
      ],
      [
        "ha",
        "s"
      ],
      [
        "i",
        "f"
      ],
      [
        "ma",
        "de"
      ],
      [
        "ar",
        "d"
      ],
      [
        "up",
        "on"
      ],
      [
        "say",
        "ing"
      ],
      [
        "a",
        "ke"
      ],
      [
        "k",
        "now"
      ],
      [
        "ser",
        "v"
      ],
      [
        "i",
        "es"
      ],
      [
        "is",
        "e"
      ],
      [
        "a",
        "th"
      ],
      [
        "e",
        "p"
      ],
      [
        "e",
        "ven"
      ],
      [
        "a",
        "v"
      ],
      [
        "as",
        "s"
      ],
      [
        "is",
        "t"
      ],
      [
        "t",
        "ed"
      ],
      [
        "s",
        "u"
      ],
      [
        "an",
        "s"
      ],
      [
        "o",
        "ther"
      ],
      [
        "off",
        "er"
      ],
      [
        "p",
        "l"
      ],
      [
        "ou",
        "n"
      ],
      [
        "in",
        "d"
      ],
      [
        "i",
        "ah"
      ],
      [
        "m",
        "ent"
      ],
      [
        "e",
        "v"
      ],
      [
        "m",
        "ay"
      ],
      [
        "re",
        "s"
      ],
      [
        "p",
        "r"
      ],
      [
        "d",
        "id"
      ],
      [
        "The",
        "n"
      ],
      [
        "ha",
        "th"
      ],
      [
        "b",
        "r"
      ],
      [
        "ou",
        "s"
      ],
      [
        "en",
        "d"
      ],
      [
        "t",
        "i"
      ],
      [
        "le",
        "t"
      ],
      [
        "b",
        "re"
      ],
      [
        "com",
        "m"
      ],
      [
        "m",
        "b"
      ],
      [
        "n",
        "a"
      ],
      [
        "l",
        "t"
      ],
      [
        "d",
        "own"
      ],
      [
        "i",
        "th"
      ],
      [
        "son",
        "s"
      ],
      [
        "ri",
        "ght"
      ],
      [
        "thing",
        "s"
      ],
      [
        "L",
        "ord"
      ],
      [
        "b",
        "o"
      ],
      [
        "gre",
        "at"
      ],
      [
        "The",
        "y"
      ],
      [
        "ou",
        "nd"
      ],
      [
        "ever",
        "y"
      ],
      [
        "D",
        "av"
      ],
      [
        "Dav",
        "id"
      ],
      [
        "J",
        "es"
      ],
      [
        "se",
        "e"
      ],
      [
        "be",
        "cause"
      ],
      [
        "an",
        "g"
      ],
      [
        "the",
        "n"
      ],
      [
        "it",
        "s"
      ],
      [
        "id",
        "e"
      ],
      [
        "an",
        "y"
      ],
      [
        "offer",
        "ing"
      ],
      [
        "ma",
        "ke"
      ],
      [
        "p",
        "ri"
      ],
      [
        "v",
        "ed"
      ],
      [
        "J",
        "er"
      ],
      [
        "t",
        "urn"
      ],
      [
        "af",
        "ter"
      ],
      [
        "b",
        "u"
      ],
      [
        "b",
        "ro"
      ],
      [
        "J",
        "e"
      ],
      [
        "a",
        "p"
      ],
      [
        "n",
        "or"
      ],
      [
        "sel",
        "f"
      ],
      [
        "g",
        "a"
      ],
      [
        "S",
        "o"
      ],
      [
        "ear",
        "th"
      ],
      [
        "the",
        "se"
      ],
      [
        "i",
        "ce"
      ],
      [
        "Jes",
        "us"
      ],
      [
        "d",
        "i"
      ],
      [
        "ar",
        "s"
      ],
      [
        "W",
        "he"
      ],
      [
        "li",
        "ke"
      ],
      [
        "c",
        "t"
      ],
      [
        "a",
        "way"
      ],
      [
        "re",
        "e"
      ],
      [
        "i",
        "ll"
      ],
      [
        "s",
        "in"
      ],
      [
        "na",
        "me"
      ],
      [
        "p",
        "er"
      ],
      [
        "p",
        "ut"
      ],
      [
        "pri",
        "est"
      ],
      [
        "le",
        "m"
      ],
      [
        "comm",
        "and"
      ],
      [
        "q",
        "u"
      ],
      [
        "s",
        "to"
      ],
      [
        "m",
        "on"
      ],
      [
        "rou",
        "ght"
      ],
      [
        "l",
        "es"
      ],
      [
        "gi",
        "ve"
      ],
      [
        "oun",
        "t"
      ],
      [
        "r",
        "y"
      ],
      [
        "ac",
        "c"
      ],
      [
        "th",
        "ose"
      ],
      [
        "J",
        "ud"
      ],
      [
        "i",
        "ther"
      ],
      [
        "w",
        "ard"
      ],
      [
        "am",
        "ong"
      ],
      [
        "or",
        "n"
      ],
      [
        "Y",
        "ou"
      ],
      [
        "p",
        "ar"
      ],
      [
        "m",
        "o"
      ],
      [
        "l",
        "ed"
      ],
      [
        "day",
        "s"
      ],
      [
        "b",
        "rought"
      ],
      [
        "os",
        "es"
      ],
      [
        "c",
        "ity"
      ],
      [
        "The",
        "re"
      ],
      [
        "M",
        "oses"
      ],
      [
        "c",
        "all"
      ],
      [
        "w",
        "at"
      ],
      [
        "p",
        "ass"
      ],
      [
        "it",
        "es"
      ],
      [
        "hear",
        "t"
      ],
      [
        "Jer",
        "u"
      ],
      [
        "do",
        "m"
      ],
      [
        "m",
        "ight"
      ],
      [
        "t",
        "wo"
      ],
      [
        "Jud",
        "ah"
      ],
      [
        "f",
        "o"
      ],
      [
        "he",
        "d"
      ],
      [
        "go",
        "od"
      ],
      [
        "l",
        "ess"
      ],
      [
        "sa",
        "lem"
      ],
      [
        "Jeru",
        "salem"
      ],
      [
        "wor",
        "k"
      ],
      [
        "A",
        "b"
      ],
      [
        "ord",
        "ing"
      ],
      [
        "sha",
        "lt"
      ],
      [
        "hou",
        "ld"
      ],
      [
        "la",
        "ce"
      ],
      [
        "s",
        "pe"
      ],
      [
        "an",
        "ts"
      ],
      [
        "a",
        "ven"
      ],
      [
        "t",
        "en"
      ],
      [
        "p",
        "he"
      ],
      [
        "e",
        "at"
      ],
      [
        "s",
        "ou"
      ],
      [
        "s",
        "i"
      ],
      [
        "N",
        "ow"
      ],
      [
        "p",
        "lace"
      ],
      [
        "u",
        "ght"
      ],
      [
        "li",
        "ve"
      ],
      [
        "o",
        "l"
      ],
      [
        "acc",
        "ording"
      ],
      [
        "s",
        "hould"
      ],
      [
        "e",
        "th"
      ],
      [
        "is",
        "h"
      ],
      [
        "t",
        "ake"
      ],
      [
        "for",
        "th"
      ],
      [
        "br",
        "ing"
      ],
      [
        "to",
        "ok"
      ],
      [
        "g",
        "y"
      ],
      [
        "p",
        "o"
      ],
      [
        "c",
        "ri"
      ],
      [
        "we",
        "ll"
      ],
      [
        "at",
        "e"
      ],
      [
        "m",
        "ore"
      ],
      [
        "there",
        "fore"
      ],
      [
        "p",
        "re"
      ],
      [
        "E",
        "gy"
      ],
      [
        "Egy",
        "pt"
      ],
      [
        "who",
        "m"
      ],
      [
        "an",
        "ce"
      ],
      [
        "c",
        "es"
      ],
      [
        "w",
        "hat"
      ],
      [
        "ation",
        "s"
      ],
      [
        "se",
        "t"
      ],
      [
        "s",
        "ent"
      ],
      [
        "g",
        "n"
      ],
      [
        "p",
        "le"
      ],
      [
        "f",
        "t"
      ],
      [
        "c",
        "ha"
      ],
      [
        "ne",
        "ither"
      ],
      [
        "st",
        "and"
      ],
      [
        "whe",
        "re"
      ],
      [
        "und",
        "er"
      ],
      [
        "e",
        "y"
      ],
      [
        "ou",
        "ld"
      ],
      [
        "g",
        "l"
      ],
      [
        "rou",
        "gh"
      ],
      [
        "e",
        "ld"
      ],
      [
        "Be",
        "hold"
      ],
      [
        "o",
        "ice"
      ],
      [
        "A",
        "s"
      ],
      [
        "u",
        "b"
      ],
      [
        "Whe",
        "n"
      ],
      [
        "f",
        "ir"
      ],
      [
        "e",
        "x"
      ],
      [
        "c",
        "i"
      ],
      [
        "d",
        "a"
      ],
      [
        "b",
        "urn"
      ],
      [
        "sel",
        "ves"
      ],
      [
        "bro",
        "ther"
      ],
      [
        "th",
        "rough"
      ],
      [
        "d",
        "is"
      ],
      [
        "d",
        "es"
      ],
      [
        "I",
        "t"
      ],
      [
        "th",
        "an"
      ],
      [
        "pro",
        "phe"
      ],
      [
        "be",
        "hold"
      ],
      [
        "j",
        "ud"
      ],
      [
        "u",
        "re"
      ],
      [
        "e",
        "ous"
      ],
      [
        "hear",
        "d"
      ],
      [
        "sa",
        "ith"
      ],
      [
        "u",
        "st"
      ],
      [
        "p",
        "h"
      ],
      [
        "h",
        "und"
      ],
      [
        "ti",
        "me"
      ],
      [
        "hund",
        "red"
      ],
      [
        "it",
        "e"
      ],
      [
        "v",
        "ing"
      ],
      [
        "c",
        "er"
      ],
      [
        "ev",
        "il"
      ],
      [
        "ro",
        "w"
      ],
      [
        "right",
        "eous"
      ],
      [
        "I",
        "f"
      ],
      [
        "t",
        "re"
      ],
      [
        "s",
        "and"
      ],
      [
        "he",
        "aven"
      ],
      [
        "sa",
        "w"
      ],
      [
        "t",
        "ru"
      ],
      [
        "call",
        "ed"
      ],
      [
        "h",
        "us"
      ],
      [
        "la",
        "w"
      ],
      [
        "h",
        "r"
      ],
      [
        "ha",
        "st"
      ],
      [
        "a",
        "ul"
      ],
      [
        "m",
        "ed"
      ],
      [
        "a",
        "ch"
      ],
      [
        "en",
        "ed"
      ],
      [
        "ir",
        "it"
      ],
      [
        "t",
        "le"
      ],
      [
        "fir",
        "st"
      ],
      [
        "word",
        "s"
      ],
      [
        "se",
        "ven"
      ],
      [
        "ce",
        "i"
      ],
      [
        "da",
        "ught"
      ],
      [
        "thou",
        "sand"
      ],
      [
        "d",
        "est"
      ],
      [
        "C",
        "hr"
      ],
      [
        "f",
        "ul"
      ],
      [
        "he",
        "ad"
      ],
      [
        "Chr",
        "ist"
      ],
      [
        "p",
        "p"
      ],
      [
        "S",
        "he"
      ],
      [
        "n",
        "ing"
      ],
      [
        "father",
        "s"
      ],
      [
        "d",
        "one"
      ],
      [
        "ho",
        "w"
      ],
      [
        "t",
        "y"
      ],
      [
        "ck",
        "ed"
      ],
      [
        "serv",
        "ant"
      ],
      [
        "f",
        "ound"
      ],
      [
        "fi",
        "re"
      ],
      [
        "m",
        "er"
      ],
      [
        "in",
        "k"
      ],
      [
        "it",
        "ies"
      ],
      [
        "c",
        "le"
      ],
      [
        "gi",
        "ven"
      ],
      [
        "ye",
        "ars"
      ],
      [
        "say",
        "s"
      ],
      [
        "him",
        "self"
      ],
      [
        "man",
        "y"
      ],
      [
        "J",
        "o"
      ],
      [
        "st",
        "r"
      ],
      [
        "a",
        "ce"
      ],
      [
        "al",
        "t"
      ],
      [
        "ab",
        "out"
      ],
      [
        "There",
        "fore"
      ],
      [
        "d",
        "on"
      ],
      [
        "w",
        "ould"
      ],
      [
        "ar",
        "k"
      ],
      [
        "s",
        "ide"
      ],
      [
        "ey",
        "es"
      ],
      [
        "h",
        "u"
      ],
      [
        "n",
        "g"
      ],
      [
        "sou",
        "l"
      ],
      [
        "b",
        "lo"
      ],
      [
        "gl",
        "or"
      ],
      [
        "L",
        "et"
      ],
      [
        "serv",
        "ants"
      ],
      [
        "ga",
        "ve"
      ],
      [
        "d",
        "r"
      ],
      [
        "en",
        "ce"
      ],
      [
        "ge",
        "ther"
      ],
      [
        "to",
        "gether"
      ],
      [
        "be",
        "g"
      ],
      [
        "ro",
        "y"
      ],
      [
        "v",
        "oice"
      ],
      [
        "ans",
        "were"
      ],
      [
        "h",
        "y"
      ],
      [
        "ha",
        "b"
      ],
      [
        "f",
        "our"
      ],
      [
        "ho",
        "ly"
      ],
      [
        "go",
        "ld"
      ],
      [
        "sp",
        "o"
      ],
      [
        "m",
        "ount"
      ],
      [
        "ha",
        "r"
      ],
      [
        "answere",
        "d"
      ],
      [
        "i",
        "gn"
      ],
      [
        "th",
        "ree"
      ],
      [
        "c",
        "ut"
      ],
      [
        "ye",
        "t"
      ],
      [
        "t",
        "ri"
      ],
      [
        "spe",
        "ak"
      ],
      [
        "li",
        "fe"
      ],
      [
        "wi",
        "cked"
      ],
      [
        "c",
        "he"
      ],
      [
        "re",
        "m"
      ],
      [
        "bre",
        "ad"
      ],
      [
        "d",
        "well"
      ],
      [
        "un",
        "t"
      ],
      [
        "c",
        "an"
      ],
      [
        "o",
        "m"
      ],
      [
        "turn",
        "ed"
      ],
      [
        "p",
        "res"
      ],
      [
        "ab",
        "le"
      ],
      [
        "t",
        "ain"
      ],
      [
        "ca",
        "pt"
      ],
      [
        "b",
        "es"
      ],
      [
        "command",
        "ed"
      ],
      [
        "blo",
        "od"
      ],
      [
        "J",
        "a"
      ],
      [
        "w",
        "r"
      ],
      [
        "th",
        "ine"
      ],
      [
        "li",
        "ght"
      ],
      [
        "ou",
        "th"
      ],
      [
        "th",
        "ir"
      ],
      [
        "there",
        "of"
      ],
      [
        "dest",
        "roy"
      ],
      [
        "f",
        "u"
      ],
      [
        "l",
        "ist"
      ],
      [
        "a",
        "se"
      ],
      [
        "jud",
        "g"
      ],
      [
        "ing",
        "s"
      ],
      [
        "c",
        "ities"
      ],
      [
        "hand",
        "s"
      ],
      [
        "u",
        "e"
      ],
      [
        "k",
        "en"
      ],
      [
        "m",
        "ies"
      ],
      [
        "I",
        "n"
      ],
      [
        "e",
        "f"
      ],
      [
        "ment",
        "s"
      ],
      [
        "t",
        "we"
      ],
      [
        "c",
        "ar"
      ],
      [
        "c",
        "re"
      ],
      [
        "g",
        "ra"
      ],
      [
        "unt",
        "il"
      ],
      [
        "s",
        "hi"
      ],
      [
        "an",
        "other"
      ],
      [
        "f",
        "am"
      ],
      [
        "m",
        "outh"
      ],
      [
        "?",
        "\""
      ],
      [
        "m",
        "id"
      ],
      [
        "c",
        "l"
      ],
      [
        "en",
        "e"
      ],
      [
        "al",
        "k"
      ],
      [
        "u",
        "m"
      ],
      [
        "W",
        "ho"
      ],
      [
        "fa",
        "ce"
      ],
      [
        "o",
        "ld"
      ],
      [
        "be",
        "en"
      ],
      [
        "s",
        "word"
      ],
      [
        "n",
        "ations"
      ],
      [
        "S",
        "aul"
      ],
      [
        "c",
        "ast"
      ],
      [
        "ke",
        "ep"
      ],
      [
        "T",
        "hus"
      ],
      [
        "wat",
        "er"
      ],
      [
        "T",
        "his"
      ],
      [
        "pr",
        "ay"
      ],
      [
        "wi",
        "fe"
      ],
      [
        "c",
        "lo"
      ],
      [
        "pe",
        "ace"
      ],
      [
        "cle",
        "an"
      ],
      [
        "f",
        "les"
      ],
      [
        "k",
        "ill"
      ],
      [
        "rou",
        "nd"
      ],
      [
        "pr",
        "in"
      ],
      [
        "fles",
        "h"
      ],
      [
        "te",
        "ll"
      ],
      [
        "them",
        "selves"
      ],
      [
        "priest",
        "s"
      ],
      [
        "m",
        "ul"
      ],
      [
        "h",
        "or"
      ],
      [
        "t",
        "ak"
      ],
      [
        "mb",
        "er"
      ],
      [
        "glor",
        "y"
      ],
      [
        "re",
        "st"
      ],
      [
        "hi",
        "gh"
      ],
      [
        "R",
        "e"
      ],
      [
        "W",
        "hat"
      ],
      [
        "o",
        "t"
      ],
      [
        "ll",
        "ow"
      ],
      [
        "w",
        "s"
      ],
      [
        "A",
        "m"
      ],
      [
        "s",
        "il"
      ],
      [
        "j",
        "o"
      ],
      [
        "b",
        "a"
      ],
      [
        "ac",
        "k"
      ],
      [
        "co",
        "b"
      ],
      [
        "de",
        "ath"
      ],
      [
        "se",
        "a"
      ],
      [
        "ye",
        "ar"
      ],
      [
        "did",
        "n"
      ],
      [
        "Ja",
        "cob"
      ],
      [
        "s",
        "y"
      ],
      [
        "f",
        "all"
      ],
      [
        "b",
        "less"
      ],
      [
        "alt",
        "ar"
      ],
      [
        "k",
        "ind"
      ],
      [
        "u",
        "ch"
      ],
      [
        "as",
        "se"
      ],
      [
        "g",
        "od"
      ],
      [
        "you",
        "ng"
      ],
      [
        "ain",
        "s"
      ],
      [
        "l",
        "ong"
      ],
      [
        "fa",
        "ith"
      ],
      [
        "d",
        "en"
      ],
      [
        "p",
        "os"
      ],
      [
        "l",
        "ay"
      ],
      [
        "ver",
        "y"
      ],
      [
        "i",
        "c"
      ],
      [
        "L",
        "ev"
      ],
      [
        "mid",
        "st"
      ],
      [
        "A",
        "r"
      ],
      [
        "s",
        "es"
      ],
      [
        "ri",
        "ed"
      ],
      [
        "de",
        "ad"
      ],
      [
        "lo",
        "ve"
      ],
      [
        "dr",
        "ink"
      ],
      [
        "wo",
        "man"
      ],
      [
        "re",
        "cei"
      ],
      [
        "re",
        "ad"
      ],
      [
        "ha",
        "pp"
      ],
      [
        "l",
        "am"
      ],
      [
        "with",
        "out"
      ],
      [
        "l",
        "on"
      ],
      [
        "fi",
        "eld"
      ],
      [
        "li",
        "e"
      ],
      [
        "burn",
        "t"
      ],
      [
        "to",
        "ward"
      ],
      [
        "le",
        "ft"
      ],
      [
        "ct",
        "ion"
      ],
      [
        "fu",
        "ll"
      ],
      [
        "ar",
        "on"
      ],
      [
        "A",
        "aron"
      ],
      [
        "is",
        "ed"
      ],
      [
        "wi",
        "ld"
      ],
      [
        "w",
        "alk"
      ],
      [
        "G",
        "o"
      ],
      [
        "a",
        "z"
      ],
      [
        "hab",
        "it"
      ],
      [
        "fi",
        "ed"
      ],
      [
        "ang",
        "er"
      ],
      [
        "m",
        "ine"
      ],
      [
        "T",
        "hou"
      ],
      [
        "b",
        "le"
      ],
      [
        "P",
        "hi"
      ],
      [
        "on",
        "d"
      ],
      [
        "i",
        "gh"
      ],
      [
        "fi",
        "ve"
      ],
      [
        "par",
        "t"
      ],
      [
        "n",
        "ight"
      ],
      [
        "re",
        "ign"
      ],
      [
        "might",
        "y"
      ],
      [
        "ll",
        "ed"
      ],
      [
        "her",
        "it"
      ],
      [
        "bo",
        "th"
      ],
      [
        "are",
        "d"
      ],
      [
        "fe",
        "ar"
      ],
      [
        "sp",
        "irit"
      ],
      [
        "b",
        "l"
      ],
      [
        "s",
        "h"
      ],
      [
        "N",
        "e"
      ],
      [
        "G",
        "i"
      ],
      [
        "A",
        "ll"
      ],
      [
        "m",
        "other"
      ],
      [
        "w",
        "ar"
      ],
      [
        "s",
        "ight"
      ],
      [
        "M",
        "y"
      ],
      [
        "righteous",
        "ness"
      ],
      [
        ".",
        "'"
      ],
      [
        "w",
        "ise"
      ],
      [
        "ha",
        "m"
      ],
      [
        "is",
        "hed"
      ],
      [
        "king",
        "s"
      ],
      [
        "a",
        "ve"
      ],
      [
        "f",
        "ru"
      ],
      [
        "te",
        "m"
      ],
      [
        "king",
        "dom"
      ],
      [
        "sa",
        "cri"
      ],
      [
        "sto",
        "od"
      ],
      [
        "sacri",
        "fi"
      ],
      [
        "ar",
        "y"
      ],
      [
        "tak",
        "en"
      ],
      [
        "t",
        "went"
      ],
      [
        "p",
        "s"
      ],
      [
        "e",
        "k"
      ],
      [
        "ac",
        "es"
      ],
      [
        "S",
        "am"
      ],
      [
        "t",
        "it"
      ],
      [
        "in",
        "es"
      ],
      [
        "sa",
        "me"
      ],
      [
        "daught",
        "er"
      ],
      [
        "li",
        "ver"
      ],
      [
        "sil",
        "ver"
      ],
      [
        "w",
        "all"
      ],
      [
        "wr",
        "it"
      ],
      [
        "in",
        "i"
      ],
      [
        "so",
        "me"
      ],
      [
        "con",
        "t"
      ],
      [
        "mon",
        "th"
      ],
      [
        "chi",
        "ef"
      ],
      [
        "ow",
        "er"
      ],
      [
        "ini",
        "qu"
      ],
      [
        "ne",
        "w"
      ],
      [
        "st",
        "ru"
      ],
      [
        "Ab",
        "ra"
      ],
      [
        "a",
        "ther"
      ],
      [
        "il",
        "y"
      ],
      [
        "ser",
        "ve"
      ],
      [
        "in",
        "herit"
      ],
      [
        "co",
        "ven"
      ],
      [
        "li",
        "es"
      ],
      [
        "si",
        "x"
      ],
      [
        "ho",
        "st"
      ],
      [
        "ab",
        "y"
      ],
      [
        "lo",
        "mon"
      ],
      [
        "So",
        "lomon"
      ],
      [
        "di",
        "e"
      ],
      [
        "coven",
        "ant"
      ],
      [
        "de",
        "v"
      ],
      [
        "er",
        "ness"
      ],
      [
        "c",
        "ount"
      ],
      [
        "g",
        "th"
      ],
      [
        "l",
        "s"
      ],
      [
        "s",
        "ed"
      ],
      [
        "ar",
        "t"
      ],
      [
        "la",
        "id"
      ],
      [
        "c",
        "ub"
      ],
      [
        "ra",
        "ise"
      ],
      [
        "wild",
        "erness"
      ],
      [
        "m",
        "uch"
      ],
      [
        "b",
        "orn"
      ],
      [
        "t",
        "ab"
      ],
      [
        "i",
        "ld"
      ],
      [
        "B",
        "aby"
      ],
      [
        "f",
        "lo"
      ],
      [
        "Baby",
        "lon"
      ],
      [
        "twent",
        "y"
      ],
      [
        "he",
        "l"
      ],
      [
        "ang",
        "el"
      ],
      [
        "l",
        "ord"
      ],
      [
        "lo",
        "ok"
      ],
      [
        "Phi",
        "list"
      ],
      [
        "to",
        "ld"
      ],
      [
        "sp",
        "ake"
      ],
      [
        "way",
        "s"
      ],
      [
        "E",
        "li"
      ],
      [
        "st",
        "ren"
      ],
      [
        "t",
        "est"
      ],
      [
        "s",
        "k"
      ],
      [
        "as",
        "k"
      ],
      [
        "spo",
        "ke"
      ],
      [
        "P",
        "ha"
      ],
      [
        "de",
        "live"
      ],
      [
        "S",
        "on"
      ],
      [
        "there",
        "d"
      ],
      [
        "cer",
        "ning"
      ],
      [
        "str",
        "ong"
      ],
      [
        "W",
        "e"
      ],
      [
        "M",
        "o"
      ],
      [
        "mer",
        "c"
      ],
      [
        "mul",
        "tit"
      ],
      [
        "b",
        "ur"
      ],
      [
        "o",
        "h"
      ],
      [
        "at",
        "tle"
      ],
      [
        "i",
        "a"
      ],
      [
        "n",
        "one"
      ],
      [
        "sp",
        "ok"
      ],
      [
        "wat",
        "ers"
      ],
      [
        "dis",
        "ci"
      ],
      [
        "b",
        "ack"
      ],
      [
        "spok",
        "en"
      ],
      [
        "p",
        "or"
      ],
      [
        "th",
        "ren"
      ],
      [
        "de",
        "liver"
      ],
      [
        "che",
        "s"
      ],
      [
        "s",
        "an"
      ],
      [
        "s",
        "ess"
      ],
      [
        "J",
        "os"
      ],
      [
        "pos",
        "sess"
      ],
      [
        "h",
        "on"
      ],
      [
        "w",
        "a"
      ],
      [
        "who",
        "se"
      ],
      [
        "u",
        "de"
      ],
      [
        "in",
        "habit"
      ],
      [
        "F",
        "ather"
      ],
      [
        "be",
        "ing"
      ],
      [
        "ne",
        "ar"
      ],
      [
        "ra",
        "oh"
      ],
      [
        "bre",
        "thren"
      ],
      [
        "Pha",
        "raoh"
      ],
      [
        "wor",
        "ld"
      ],
      [
        "g",
        "ate"
      ],
      [
        "do",
        "es"
      ],
      [
        "delive",
        "red"
      ],
      [
        "writ",
        "ten"
      ],
      [
        "a",
        "li"
      ],
      [
        "offering",
        "s"
      ],
      [
        "c",
        "ho"
      ],
      [
        "in",
        "ted"
      ],
      [
        "se",
        "en"
      ],
      [
        "Whe",
        "re"
      ],
      [
        "b",
        "od"
      ],
      [
        "se",
        "ed"
      ],
      [
        "c",
        "hed"
      ],
      [
        "con",
        "cerning"
      ],
      [
        "qu",
        "i"
      ],
      [
        "n",
        "ed"
      ],
      [
        "ca",
        "m"
      ],
      [
        "brother",
        "s"
      ],
      [
        "pl",
        "es"
      ],
      [
        "under",
        "stand"
      ],
      [
        "do",
        "or"
      ],
      [
        "B",
        "en"
      ],
      [
        "Lev",
        "ites"
      ],
      [
        "prin",
        "ces"
      ],
      [
        "is",
        "ter"
      ],
      [
        "n",
        "er"
      ],
      [
        "iniqu",
        "ity"
      ],
      [
        "p",
        "i"
      ],
      [
        "b",
        "ed"
      ],
      [
        "w",
        "ine"
      ],
      [
        "fe",
        "et"
      ],
      [
        "ga",
        "thered"
      ],
      [
        "p",
        "ower"
      ],
      [
        "hu",
        "a"
      ],
      [
        "ion",
        "s"
      ],
      [
        "ac",
        "le"
      ],
      [
        "bu",
        "ild"
      ],
      [
        "c",
        "oun"
      ],
      [
        "re",
        "turn"
      ],
      [
        "fru",
        "it"
      ],
      [
        "D",
        "on"
      ],
      [
        "j",
        "ust"
      ],
      [
        "s",
        "at"
      ],
      [
        "v",
        "is"
      ],
      [
        "cer",
        "tain"
      ],
      [
        "ver",
        "s"
      ],
      [
        "Philist",
        "ines"
      ],
      [
        "work",
        "s"
      ],
      [
        "Je",
        "ho"
      ],
      [
        "ene",
        "mies"
      ],
      [
        "S",
        "p"
      ],
      [
        "l",
        "it"
      ],
      [
        "see",
        "k"
      ],
      [
        "happ",
        "ened"
      ],
      [
        "ord",
        "er"
      ],
      [
        "p",
        "ur"
      ],
      [
        "ple",
        "as"
      ],
      [
        "daught",
        "ers"
      ],
      [
        "er",
        "n"
      ],
      [
        "con",
        "gre"
      ],
      [
        "congre",
        "g"
      ],
      [
        "J",
        "ose"
      ],
      [
        "The",
        "se"
      ],
      [
        "Je",
        "ws"
      ],
      [
        "g",
        "ar"
      ],
      [
        "shi",
        "p"
      ],
      [
        "Abra",
        "ham"
      ],
      [
        "Jose",
        "ph"
      ],
      [
        "ou",
        "d"
      ],
      [
        "prophe",
        "t"
      ],
      [
        "fo",
        "llow"
      ],
      [
        "congreg",
        "ation"
      ]
    ]
  }
}