{
  "version": "1.0",
  "truncation": null,
  "padding": null,
  "added_tokens": [
    {
      "id": 0,
      "content": "[UNK]",
      "single_word": false,
      "lstrip": false,
      "rstrip": false,
      "normalized": false,
      "special": true
    }
  ],
  "normalizer": null,
  "pre_tokenizer": {
    "type": "Whitespace"
  },
  "post_processor": null,
  "decoder": null,
  "model": {
    "type": "BPE",
    "dropout": null,
    "unk_token": "[UNK]",
    "continuing_subword_prefix": null,
    "end_of_word_suffix": null,
    "fuse_unk": false,
    "byte_fallback": false,
    "ignore_merges": false,
    "vocab": {
      "[UNK]": 0,
      "!": 1,
      "\"": 2,
      "'": 3,
      "(": 4,
      ")": 5,
      ",": 6,
      "-": 7,
      ".": 8,
      "0": 9,
      "1": 10,
      "2": 11,
      "3": 12,
      "4": 13,
      "5": 14,
      "6": 15,
      "7": 16,
      "8": 17,
      "9": 18,
      ":": 19,
      ";": 20,
      "?": 21,
      "A": 22,
      "B": 23,
      "C": 24,
      "D": 25,
      "E": 26,
      "F": 27,
      "G": 28,
      "H": 29,
      "I": 30,
      "J": 31,
      "K": 32,
      "L": 33,
      "M": 34,
      "N": 35,
      "O": 36,
      "P": 37,
      "Q": 38,
      "R": 39,
      "S": 40,
      "T": 41,
      "U": 42,
      "V": 43,
      "W": 44,
      "Z": 45,
      "a": 46,
      "b": 47,
      "c": 48,
      "d": 49,
      "e": 50,
      "f": 51,
      "g": 52,
      "h": 53,
      "i": 54,
      "j": 55,
      "k": 56,
      "l": 57,
      "m": 58,
      "n": 59,
      "o": 60,
      "p": 61,
      "q": 62,
      "r": 63,
      "s": 64,
      "t": 65,
      "u": 66,
      "v": 67,
      "w": 68,
      "x": 69,
      "y": 70,
      "z": 71,
      "{": 72,
      "}": 73,
      "Ä": 74,
      "Ö": 75,
      "Ü": 76,
      "ß": 77,
      "ä": 78,
      "ö": 79,
      "ü": 80,
      "en": 81,
      "er": 82,
      "ch": 83,
      "nd": 84,
      "ei": 85,
      "ie": 86,
      "und": 87,
      "ein": 88,
      "es": 89,
      "ich": 90,
      "da": 91,
      "st": 92,
      "der": 93,
      "au": 94,
      "ge": 95,
      "den": 96,
      "te": 97,
      "ll": 98,
      "die": 99,
      "in": 100,
      "an": 101,
      "ih": 102,
      "em": 103,
      "zu": 104,
      "ha": 105,
      "ten": 106,
      "el": 107,
      "ach": 108,
      "so": 109,
      "gen": 110,
      "ir": 111,
      "ber": 112,
      "vo": 113,
      "ar": 114,
      "sie": 115,
      "un": 116,
      "icht": 117,
      "sein": 118,
      "re": 119,
      "it": 120,
      "ig": 121,
      "ben": 122,
      "das": 123,
      "and": 124,
      "nicht": 125,
      "auf": 126,
      "daß": 127,
      "ist": 128,
      "ER": 129,
      "HER": 130,
      "HERR": 131,
      "sch": 132,
      "ter": 133,
      "Und": 134,
      "eu": 135,
      "des": 136,
      "et": 137,
      "eh": 138,
      "dem": 139,
      "as": 140,
      "am": 141,
      "aus": 142,
      "ihr": 143,
      "ot": 144,
      "or": 145,
      "pr": 146,
      "all": 147,
      "du": 148,
      "von": 149,
      "al": 150,
      "mit": 151,
      "be": 152,
      "spr": 153,
      "ind": 154,
      "mm": 155,
      "wir": 156,
      "oh": 157,
      "war": 158,
      "ver": 159,
      "ern": 160,
      "ra": 161,
      "soll": 162,
      "hat": 163,
      "wer": 164,
      "ihn": 165,
      "aber": 166,
      "wi": 167,
      "dein": 168,
      "ah": 169,
      "ott": 170,
      "sprach": 171,
      "de": 172,
      "mein": 173,
      "um": 174,
      "Gott": 175,
      "wie": 176,
      "sen": 177,
      "ges": 178,
      "St": 179,
      "enn": 180,
      "ön": 181,
      "ol": 182,
      "ohn": 183,
      "vor": 184,
      "Da": 185,
      "HERRN": 186,
      "eit": 187,
      "Sch": 188,
      "se": 189,
      "wird": 190,
      "ihm": 191,
      "sich": 192,
      "denn": 193,
      "ür": 194,
      "Kön": 195,
      "on": 196,
      "lich": 197,
      "cht": 198,
      "euch": 199,
      "us": 200,
      "is": 201,
      "will": 202,
      "ko": 203,
      "im": 204,
      "le": 205,
      "über": 206,
      "och": 207,
      "ren": 208,
      "ag": 209,
      "König": 210,
      "ck": 211,
      "he": 212,
      "Er": 213,
      "Is": 214,
      "ab": 215,
      "lei": 216,
      "hin": 217,
      "at": 218,
      "ne": 219,
      "her": 220,
      "uns": 221,
      "br": 222,
      "werden": 223,
      "rael": 224,
      "Israel": 225,
      "Kind": 226,
      "nach": 227,
      "eil": 228,
      "ann": 229,
      "mir": 230,
      "rei": 231,
      "auch": 232,
      "komm": 233,
      "lie": 234,
      "rie": 235,
      "geh": 236,
      "alle": 237,
      "eine": 238,
      "dir": 239,
      "sind": 240,
      "ro": 241,
      "ihnen": 242,
      "olk": 243,
      "mach": 244,
      "Sohn": 245,
      "hr": 246,
      "pf": 247,
      "einen": 248,
      "unter": 249,
      "wei": 250,
      "ut": 251,
      "Ge": 252,
      "ger": 253,
      "il": 254,
      "Volk": 255,
      "was": 256,
      "dar": 257,
      "seine": 258,
      "vi": 259,
      "imm": 260,
      "mich": 261,
      "Her": 262,
      "dich": 263,
      "Denn": 264,
      "Land": 265,
      "Haus": 266,
      "Br": 267,
      "zum": 268,
      "fen": 269,
      "bei": 270,
      "ur": 271,
      "Kinder": 272,
      "bt": 273,
      "ehr": 274,
      "tet": 275,
      "igen": 276,
      "agen": 277,
      "anz": 278,
      "fü": 279,
      "Wei": 280,
      "sei": 281,
      "gel": 282,
      "ser": 283,
      "ster": 284,
      "haben": 285,
      "Ich": 286,
      "kommen": 287,
      "habe": 288,
      "schen": 289,
      "ehen": 290,
      "nde": 291,
      "iel": 292,
      "chen": 293,
      "Ges": 294,
      "ft": 295,
      "ßen": 296,
      "ad": 297,
      "eg": 298,
      "sten": 299,
      "Sie": 300,
      "hatte": 301,
      "men": 302,
      "etz": 303,
      "ihre": 304,
      "age": 305,
      "kam": 306,
      "sel": 307,
      "dur": 308,
      "ing": 309,
      "wor": 310,
      "est": 311,
      "seinen": 312,
      "durch": 313,
      "os": 314,
      "geben": 315,
      "hö": 316,
      "allen": 317,
      "nun": 318,
      "get": 319,
      "Die": 320,
      "für": 321,
      "chte": 322,
      "rt": 323,
      "wo": 324,
      "geb": 325,
      "waren": 326,
      "So": 327,
      "Ju": 328,
      "noch": 329,
      "deine": 330,
      "gesch": 331,
      "Gottes": 332,
      "ste": 333,
      "pfer": 334,
      "ien": 335,
      "ater": 336,
      "än": 337,
      "Was": 338,
      "hal": 339,
      "Men": 340,
      "Al": 341,
      "Vater": 342,
      "bis": 343,
      "man": 344,
      "nen": 345,
      "meine": 346,
      "Jer": 347,
      "ere": 348,
      "seinem": 349,
      "zen": 350,
      "Jes": 351,
      "sam": 352,
      "rü": 353,
      "Aber": 354,
      "ndern": 355,
      "Hand": 356,
      "det": 357,
      "gt": 358,
      "ert": 359,
      "spricht": 360,
      "alles": 361,
      "ose": 362,
      "Wor": 363,
      "ward": 364,
      "ßt": 365,
      "las": 366,
      "schl": 367,
      "Davi": 368,
      "David": 369,
      "Es": 370,
      "ph": 371,
      "tun": 372,
      "wel": 373,
      "ja": 374,
      "Wer": 375,
      "ingen": 376,
      "acht": 377,
      "Au": 378,
      "sondern": 379,
      "gro": 380,
      "ganz": 381,
      "llen": 382,
      "Der": 383,
      "ünd": 384,
      "keit": 385,
      "igt": 386,
      "ken": 387,
      "Re": 388,
      "als": 389,
      "wider": 390,
      "sollen": 391,
      "wenn": 392,
      "tr": 393,
      "ieh": 394,
      "seiner": 395,
      "öh": 396,
      "Le": 397,
      "ung": 398,
      "Kne": 399,
      "hast": 400,
      "bes": 401,
      "gef": 402,
      "ahr": 403,
      "wä": 404,
      "ihren": 405,
      "zo": 406,
      "sollst": 407,
      "Se": 408,
      "reu": 409,
      "oder": 410,
      "gehen": 411,
      "wieder": 412,
      "chten": 413,
      "amen": 414,
      "Zeit": 415,
      "euer": 416,
      "ige": 417,
      "äu": 418,
      "bst": 419,
      "bin": 420,
      "iter": 421,
      "vom": 422,
      "wohn": 423,
      "angen": 424,
      "fe": 425,
      "ße": 426,
      "tete": 427,
      "Mann": 428,
      "also": 429,
      "adt": 430,
      "An": 431,
      "ohl": 432,
      "arum": 433,
      "ia": 434,
      "zur": 435,
      "Geb": 436,
      "Juda": 437,
      "zwei": 438,
      "Un": 439,
      "gegen": 440,
      "agt": 441,
      "Das": 442,
      "Stadt": 443,
      "welch": 444,
      "usal": 445,
      "Menschen": 446,
      "Hause": 447,
      "Ver": 448,
      "usalem": 449,
      "sagen": 450,
      "Stä": 451,
      "Jerusalem": 452,
      "lau": 453,
      "zer": 454,
      "eer": 455,
      "tern": 456,
      "ging": 457,
      "einem": 458,
      "nah": 459,
      "hl": 460,
      "sah": 461,
      "üt": 462,
      "ob": 463,
      "lassen": 464,
      "Mose": 465,
      "mehr": 466,
      "end": 467,
      "sol": 468,
      "igkeit": 469,
      "Ab": 470,
      "ru": 471,
      "aß": 472,
      "Himm": 473,
      "doch": 474,
      "ner": 475,
      "Himmel": 476,
      "dies": 477,
      "gte": 478,
      "yp": 479,
      "Du": 480,
      "Prie": 481,
      "elt": 482,
      "deinen": 483,
      "Hä": 484,
      "gew": 485,
      "gyp": 486,
      "cken": 487,
      "twor": 488,
      "Lande": 489,
      "sprachen": 490,
      "opfer": 491,
      "Ägyp": 492,
      "heil": 493,
      "macht": 494,
      "aul": 495,
      "Herr": 496,
      "heit": 497,
      "Siehe": 498,
      "nie": 499,
      "eute": 500,
      "eb": 501,
      "antwor": 502,
      "Wasser": 503,
      "hei": 504,
      "Tage": 505,
      "kein": 506,
      "ier": 507,
      "El": 508,
      "Wort": 509,
      "getan": 510,
      "dan": 511,
      "Namen": 512,
      "drei": 513,
      "Ein": 514,
      "viel": 515,
      "Bl": 516,
      "Priester": 517,
      "solch": 518,
      "Jesus": 519,
      "deinem": 520,
      "Ja": 521,
      "om": 522,
      "ke": 523,
      "neh": 524,
      "andern": 525,
      "undert": 526,
      "ün": 527,
      "Israels": 528,
      "ent": 529,
      "siehe": 530,
      "öt": 531,
      "ele": 532,
      "Chr": 533,
      "hundert": 534,
      "sollt": 535,
      "Gei": 536,
      "To": 537,
      "Darum": 538,
      "kommt": 539,
      "ret": 540,
      "vier": 541,
      "Ägypten": 542,
      "ri": 543,
      "amm": 544,
      "ffen": 545,
      "Gesch": 546,
      "eiden": 547,
      "gere": 548,
      "machen": 549,
      "Heil": 550,
      "essen": 551,
      "Brü": 552,
      "einer": 553,
      "Sp": 554,
      "sehen": 555,
      "ihrer": 556,
      "Wenn": 557,
      "uß": 558,
      "zieh": 559,
      "wür": 560,
      "Königs": 561,
      "we": 562,
      "unser": 563,
      "gegeben": 564,
      "zw": 565,
      "sieben": 566,
      "orgen": 567,
      "nis": 568,
      "Christ": 569,
      "stand": 570,
      "oth": 571,
      "glei": 572,
      "wohl": 573,
      "fün": 574,
      "hren": 575,
      "zig": 576,
      "ehn": 577,
      "uch": 578,
      "ät": 579,
      "meinem": 580,
      "meinen": 581,
      "wand": 582,
      "Für": 583,
      "werde": 584,
      "set": 585,
      "Brüder": 586,
      "Augen": 587,
      "Ar": 588,
      "Ber": 589,
      "führ": 590,
      "ausend": 591,
      "kann": 592,
      "na": 593,
      "esen": 594,
      "Am": 595,
      "fünf": 596,
      "ander": 597,
      "aller": 598,
      "Kindern": 599,
      "öl": 600,
      "diese": 601,
      "deiner": 602,
      "darum": 603,
      "Hau": 604,
      "alt": 605,
      "Erde": 606,
      "Leben": 607,
      "ssen": 608,
      "ang": 609,
      "rede": 610,
      "Tag": 611,
      "eln": 612,
      "blei": 613,
      "willen": 614,
      "eglich": 615,
      "Also": 616,
      "woll": 617,
      "Gere": 618,
      "Män": 619,
      "bar": 620,
      "Jah": 621,
      "nichts": 622,
      "halten": 623,
      "Geist": 624,
      "jeglich": 625,
      "lt": 626,
      "tra": 627,
      "As": 628,
      "pt": 629,
      "einde": 630,
      "Ger": 631,
      "ließ": 632,
      "orn": 633,
      "Weib": 634,
      "Herz": 635,
      "dr": 636,
      "Lei": 637,
      "eure": 638,
      "Heiden": 639,
      "eth": 640,
      "ath": 641,
      "fr": 642,
      "Söh": 643,
      "wert": 644,
      "gab": 645,
      "bist": 646,
      "kamen": 647,
      "seines": 648,
      "zogen": 649,
      "Pro": 650,
      "gesagt": 651,
      "bau": 652,
      "ehe": 653,
      "setz": 654,
      "sp": 655,
      "groß": 656,
      "dien": 657,
      "wur": 658,
      "wen": 659,
      "denen": 660,
      "nahm": 661,
      "fl": 662,
      "hil": 663,
      "machte": 664,
      "habt": 665,
      "sag": 666,
      "gekommen": 667,
      "darin": 668,
      "mü": 669,
      "inge": 670,
      "Sohnes": 671,
      "Gesetz": 672,
      "Knecht": 673,
      "rein": 674,
      "zehn": 675,
      "Feuer": 676,
      "Herzen": 677,
      "weg": 678,
      "gemacht": 679,
      "Fel": 680,
      "Rei": 681,
      "Seele": 682,
      "ihrem": 683,
      "Ha": 684,
      "dig": 685,
      "gleich": 686,
      "mand": 687,
      "Städ": 688,
      "Blut": 689,
      "nehmen": 690,
      "Haupt": 691,
      "elbst": 692,
      "verk": 693,
      "lü": 694,
      "ul": 695,
      "liche": 696,
      "scha": 697,
      "ins": 698,
      "geht": 699,
      "Vä": 700,
      "seid": 701,
      "zog": 702,
      "lle": 703,
      "lä": 704,
      "oten": 705,
      "ze": 706,
      "Jo": 707,
      "ug": 708,
      "antwortete": 709,
      "Sal": 710,
      "selben": 711,
      "hatten": 712,
      "Jahre": 713,
      "ckt": 714,
      "Ihr": 715,
      "lo": 716,
      "recht": 717,
      "Gef": 718,
      "rich": 719,
      "ff": 720,
      "Männer": 721,
      "Gem": 722,
      "brach": 723,
      "hör": 724,
      "Schwert": 725,
      "Saul": 726,
      "daselbst": 727,
      "La": 728,
      "Wi": 729,
      "fah": 730,
      "Hände": 731,
      "Gr": 732,
      "niemand": 733,
      "ziehen": 734,
      "Mit": 735,
      "tat": 736,
      "gewor": 737,
      "rieben": 738,
      "Mut": 739,
      "geg": 740,
      "Scha": 741,
      "Hö": 742,
      "kob": 743,
      "We": 744,
      "Jakob": 745,
      "Sünd": 746,
      "hören": 747,
      "Alt": 748,
      "Flei": 749,
      "Wein": 750,
      "Göt": 751,
      "Bru": 752,
      "ganze": 753,
      "sage": 754,
      "nden": 755,
      "mmen": 756,
      "Fü": 757,
      "Vor": 758,
      "tut": 759,
      "wurden": 760,
      "ib": 761,
      "ange": 762,
      "kenn": 763,
      "isch": 764,
      "phe": 765,
      "su": 766,
      "sal": 767,
      "solches": 768,
      "Meer": 769,
      "Geschle": 770,
      "ai": 771,
      "star": 772,
      "Jün": 773,
      "itten": 774,
      "deines": 775,
      "üste": 776,
      "chter": 777,
      "Bruder": 778,
      "wirst": 779,
      "Man": 780,
      "unde": 781,
      "steh": 782,
      "zeu": 783,
      "stehen": 784,
      "imme": 785,
      "Hüt": 786,
      "Pha": 787,
      "bringen": 788,
      "Jos": 789,
      "nä": 790,
      "llt": 791,
      "voll": 792,
      "eur": 793,
      "yr": 794,
      "samm": 795,
      "Söhne": 796,
      "Tr": 797,
      "Klei": 798,
      "En": 799,
      "Morgen": 800,
      "gingen": 801,
      "Stimme": 802,
      "leben": 803,
      "reich": 804,
      "Prophe": 805,
      "Propheten": 806,
      "Tor": 807,
      "Knechte": 808,
      "redete": 809,
      "tu": 810,
      "Fleisch": 811,
      "Sam": 812,
      "meiner": 813,
      "Fürsten": 814,
      "Wüste": 815,
      "ham": 816,
      "samt": 817,
      "eines": 818,
      "aron": 819,
      "me": 820,
      "cke": 821,
      "Mutter": 822,
      "ew": 823,
      "len": 824,
      "ieß": 825,
      "unden": 826,
      "Ta": 827,
      "werdet": 828,
      "muß": 829,
      "wollen": 830,
      "Altar": 831,
      "Aaron": 832,
      "Sei": 833,
      "teten": 834,
      "geredet": 835,
      "hre": 836,
      "bel": 837,
      "kl": 838,
      "Phil": 839,
      "ache": 840,
      "lieb": 841,
      "ewig": 842,
      "Welt": 843,
      "att": 844,
      "geworden": 845,
      "Ru": 846,
      "mal": 847,
      "ehren": 848,
      "etzt": 849,
      "Wie": 850,
      "allem": 851,
      "selbst": 852,
      "chtigkeit": 853,
      "Wir": 854,
      "stern": 855,
      "ilber": 856,
      "zwanz": 857,
      "sand": 858,
      "sech": 859,
      "meines": 860,
      "jem": 861,
      "ört": 862,
      "Spei": 863,
      "Lie": 864,
      "eigen": 865,
      "dieser": 866,
      "abel": 867,
      "Levi": 868,
      "andere": 869,
      "Dan": 870,
      "Bund": 871,
      "Ort": 872,
      "hinein": 873,
      "Brand": 874,
      "Anges": 875,
      "ächt": 876,
      "ager": 877,
      "Erden": 878,
      "jemand": 879,
      "Gol": 880,
      "Zorn": 881,
      "gehor": 882,
      "Hütte": 883,
      "Nacht": 884,
      "große": 885,
      "gewesen": 886,
      "einander": 887,
      "ho": 888,
      "kön": 889,
      "sehr": 890,
      "aufen": 891,
      "Worte": 892,
      "Angesicht": 893,
      "keine": 894,
      "reden": 895,
      "lauben": 896,
      "übr": 897,
      "euren": 898,
      "ochter": 899,
      "Heer": 900,
      "Mo": 901,
      "ohne": 902,
      "Brot": 903,
      "lö": 904,
      "dazu": 905,
      "Gerechtigkeit": 906,
      "fer": 907,
      "ünde": 908,
      "Engel": 909,
      "Gi": 910,
      "He": 911,
      "diesen": 912,
      "fahren": 913,
      "net": 914,
      "hä": 915,
      "nimm": 916,
      "fra": 917,
      "ölk": 918,
      "Städte": 919,
      "mer": 920,
      "davon": 921,
      "hinauf": 922,
      "Salom": 923,
      "Bar": 924,
      "Völk": 925,
      "Zeb": 926,
      "mö": 927,
      "bleiben": 928,
      "Wahr": 929,
      "ht": 930,
      "Gemeinde": 931,
      "Fr": 932,
      "oren": 933,
      "Vaters": 934,
      "welche": 935,
      "Gna": 936,
      "fiel": 937,
      "Gel": 938,
      "aoth": 939,
      "gest": 940,
      "gnis": 941,
      "hen": 942,
      "wohnen": 943,
      "Tö": 944,
      "Tochter": 945,
      "Babel": 946,
      "Frie": 947,
      "stä": 948,
      "sollte": 949,
      "Zebaoth": 950,
      "Wo": 951,
      "gr": 952,
      "vie": 953,
      "tel": 954,
      "Jahr": 955,
      "land": 956,
      "Philist": 957,
      "geschrieben": 958,
      "Tür": 959,
      "bet": 960,
      "weil": 961,
      "ganzen": 962,
      "Zeu": 963,
      "esten": 964,
      "Brandopfer": 965,
      "Weg": 966,
      "pp": 967,
      "sterben": 968,
      "dahin": 969,
      "heim": 970,
      "erne": 971,
      "Mensch": 972,
      "jeglicher": 973,
      "sandte": 974,
      "mann": 975,
      "weiß": 976,
      "geboten": 977,
      "Davids": 978,
      "Zu": 979,
      "laß": 980,
      "steht": 981,
      "ewiglich": 982,
      "ungen": 983,
      "aum": 984,
      "Weiber": 985,
      "ohen": 986,
      "sto": 987,
      "gehe": 988,
      "lichen": 989,
      "Juden": 990,
      "besch": 991,
      "diesem": 992,
      "Väter": 993,
      ".\"": 994,
      "heraus": 995,
      "darauf": 996,
      "emp": 997,
      "gesehen": 998,
      "Jesu": 999,
      "führt": 1000,
      "Sünde": 1001,
      "ersch": 1002,
      "Ben": 1003,
      "Ober": 1004,
      "hieß": 1005,
      "kt": 1006,
      "Be": 1007,
      "Zei": 1008,
      "gten": 1009,
      "cher": 1010,
      "Könige": 1011,
      "Phara": 1012,
      "Leviten": 1013,
      "aten": 1014,
      "fol": 1015,
      "bend": 1016,
      "Kleider": 1017,
      "Mon": 1018,
      "je": 1019,
      "ommen": 1020,
      "Berge": 1021,
      "zwanzig": 1022,
      "Sim": 1023,
      "la": 1024,
      "inken": 1025,
      "andt": 1026,
      "hinaus": 1027,
      "Leute": 1028,
      "tö": 1029,
      "Wege": 1030,
      "Gold": 1031,
      "fallen": 1032,
      "son": 1033,
      "Gnade": 1034,
      "Jor": 1035,
      "has": 1036,
      "rief": 1037,
      "tausend": 1038,
      "heiligen": 1039,
      "hörte": 1040,
      "Fre": 1041,
      "ses": 1042,
      "che": 1043,
      "Weis": 1044,
      "Dien": 1045,
      "for": 1046,
      "allein": 1047,
      "heilig": 1048,
      "Abend": 1049,
      "Philister": 1050,
      "Mein": 1051,
      "gu": 1052,
      "hier": 1053,
      "reit": 1054,
      "Salomo": 1055,
      "bö": 1056,
      "uhl": 1057,
      "rechen": 1058,
      "Gew": 1059,
      "würde": 1060,
      "Ende": 1061,
      "Warum": 1062,
      "großen": 1063,
      "sagte": 1064,
      "viele": 1065,
      "anden": 1066,
      "abb": 1067,
      "schlagen": 1068,
      "Macht": 1069,
      "ana": 1070,
      "losen": 1071,
      "wissen": 1072,
      "gehört": 1073,
      "Silber": 1074,
      "opf": 1075,
      "vert": 1076,
      "Öl": 1077,
      "gebr": 1078,
      "ehrt": 1079,
      "Ho": 1080,
      "wahr": 1081,
      "Stamm": 1082,
      "wollte": 1083,
      "Vieh": 1084,
      "äum": 1085,
      "Tages": 1086,
      "raham": 1087,
      "Abraham": 1088,
      "find": 1089,
      "gi": 1090,
      "hol": 1091,
      "stet": 1092,
      "ak": 1093,
      "unrein": 1094,
      "isset": 1095,
      "Kr": 1096,
      "Mund": 1097,
      "genommen": 1098,
      "müssen": 1099,
      "Ist": 1100,
      "fä": 1101,
      "har": 1102,
      "gesandt": 1103,
      "phra": 1104,
      "geboren": 1105,
      "wäre": 1106,
      "wähl": 1107,
      "erret": 1108,
      "auen": 1109,
      "etliche": 1110,
      "Herrn": 1111,
      "Bö": 1112,
      "Temp": 1113,
      "verb": 1114,
      "Freu": 1115,
      "Jose": 1116,
      "Beth": 1117,
      "ossen": 1118,
      "Tempel": 1119,
      "Gut": 1120,
      "zeugte": 1121,
      "Joseph": 1122,
      "welcher": 1123,
      "ua": 1124,
      "Bo": 1125,
      "Ellen": 1126,
      "Lä": 1127,
      "Zi": 1128,
      "sagt": 1129,
      "wischen": 1130,
      "ahl": 1131,
      "Schw": 1132,
      "legen": 1133,
      "sammen": 1134,
      "Ei": 1135,
      "Glauben": 1136,
      "Na": 1137,
      "lichkeit": 1138,
      "herr": 1139,
      "Ung": 1140,
      "ör": 1141,
      "ald": 1142,
      "lieben": 1143,
      "führen": 1144,
      "Fei": 1145,
      "Nach": 1146,
      "tre": 1147,
      "zä": 1148,
      "zwischen": 1149,
      "Königreich": 1150,
      "zusammen": 1151,
      "arren": 1152,
      "schw": 1153,
      "digen": 1154,
      "lang": 1155,
      "schlug": 1156,
      "Recht": 1157,
      "Jünger": 1158,
      "Ba": 1159,
      "itz": 1160,
      "allerlei": 1161,
      "lück": 1162,
      "Sünden": 1163,
      "tue": 1164,
      "Feinde": 1165,
      "verder": 1166,
      "welchen": 1167,
      "Töchter": 1168,
      "gol": 1169,
      "jen": 1170,
      "jas": 1171,
      "erwähl": 1172,
      "gend": 1173,
      "mmer": 1174,
      "darnach": 1175,
      "Geschlecht": 1176,
      "lange": 1177,
      "Monat": 1178,
      "zei": 1179,
      "verkünd": 1180,
      "aut": 1181,
      "ehl": 1182,
      "ehre": 1183,
      "beg": 1184,
      "cker": 1185,
      "lein": 1186,
      "ßer": 1187,
      "bek": 1188,
      "sprich": 1189,
      "Christus": 1190,
      "standen": 1191,
      "Pf": 1192,
      "Gottlosen": 1193,
      "onne": 1194,
      "ild": 1195,
      "Ägyptenland": 1196,
      "Frem": 1197,
      "flie": 1198,
      "jam": 1199,
      "lagen": 1200,
      "ris": 1201,
      "ans": 1202,
      "geschehen": 1203,
      "Ach": 1204,
      "gern": 1205,
      "nte": 1206,
      "ßig": 1207,
      "vers": 1208,
      "Licht": 1209,
      "heute": 1210,
      "Wohn": 1211,
      "mächt": 1212,
      "ank": 1213,
      "Pharao": 1214,
      "Misset": 1215,
      "Rat": 1216,
      "ckte": 1217,
      "Dies": 1218,
      "geschah": 1219,
      "gegangen": 1220,
      "Jordan": 1221,
      "kia": 1222,
      "dern": 1223,
      "geführt": 1224,
      "inn": 1225,
      "übrig": 1226,
      "Moab": 1227,
      "Lö": 1228,
      "nur": 1229,
      "uel": 1230,
      "Ält": 1231,
      "Ephra": 1232,
      "aja": 1233,
      "under": 1234,
      "schaft": 1235,
      "Lade": 1236,
      "Josua": 1237,
      "Weisheit": 1238,
      "Wagen": 1239,
      "pre": 1240,
      "Herrlichkeit": 1241,
      "läßt": 1242,
      "Geh": 1243,
      "hät": 1244,
      "är": 1245,
      "damit": 1246,
      "Völker": 1247,
      "Aus": 1248,
      "Laß": 1249,
      "mher": 1250,
      "oben": 1251,
      "etwas": 1252,
      "rüh": 1253,
      "Krie": 1254,
      "gl": 1255,
      "ersten": 1256,
      "Frieden": 1257,
      "Opfer": 1258,
      "raft": 1259,
      "Ze": 1260,
      "gut": 1261,
      "äg": 1262,
      "dann": 1263,
      "suchen": 1264,
      "Ehre": 1265,
      "Streit": 1266,
      "Isa": 1267,
      "Ältesten": 1268,
      "aub": 1269,
      "Christi": 1270,
      "dienen": 1271,
      "Gü": 1272,
      "Ka": 1273,
      "rucht": 1274,
      "führte": 1275,
      "Dar": 1276,
      "Teil": 1277,
      "prie": 1278,
      "umher": 1279,
      "richten": 1280,
      "Obersten": 1281,
      "Ohren": 1282,
      "ers": 1283,
      "Liebe": 1284,
      "Gewalt": 1285,
      "bald": 1286,
      "ote": 1287,
      "offen": 1288,
      "etr": 1289,
      "rift": 1290,
      "zwöl": 1291,
      "Reich": 1292,
      "Schafe": 1293,
      "tag": 1294,
      "legte": 1295,
      "Stät": 1296,
      "Mar": 1297,
      "ub": 1298,
      "ugen": 1299,
      "wü": 1300,
      "ihres": 1301,
      "Auf": 1302,
      "Brüdern": 1303,
      "itt": 1304,
      "nung": 1305,
      "Benjam": 1306,
      "Zeichen": 1307,
      "Ephraim": 1308,
      "All": 1309,
      "mlich": 1310,
      "Fl": 1311,
      "Ga": 1312,
      "kon": 1313,
      "herauf": 1314,
      "liegt": 1315,
      "yrien": 1316,
      "Fin": 1317,
      "schon": 1318,
      "mme": 1319,
      "versamm": 1320,
      "hinab": 1321,
      "welches": 1322,
      "Felde": 1323,
      "Nun": 1324,
      "zar": 1325,
      "zuvor": 1326,
      "Stuhl": 1327,
      "Missetat": 1328,
      "hrt": 1329,
      "weis": 1330,
      "Heiligt": 1331,
      "sechs": 1332,
      "zähl": 1333,
      "Mau": 1334,
      "Sonne": 1335,
      "hiel": 1336,
      "äer": 1337,
      "gebracht": 1338,
      "Greu": 1339,
      "Lager": 1340,
      "Sel": 1341,
      "ust": 1342,
      "achtet": 1343,
      "itzen": 1344,
      "machten": 1345,
      "Zeugnis": 1346,
      "Stätte": 1347,
      "immer": 1348,
      "Werk": 1349,
      "sahen": 1350,
      "Heiligen": 1351,
      "Schrift": 1352,
      "Rede": 1353,
      "weder": 1354,
      "Wohnung": 1355,
      "best": 1356,
      "ließen": 1357,
      "gefunden": 1358,
      "zerst": 1359,
      "Vätern": 1360,
      "opfern": 1361,
      "Joh": 1362,
      "setzte": 1363,
      "Kana": 1364,
      "Ma": 1365,
      "Nä": 1366,
      "Sabb": 1367,
      "ill": 1368,
      "legt": 1369,
      "gefallen": 1370,
      "nämlich": 1371,
      "Wahrheit": 1372,
      "Unglück": 1373,
      "ias": 1374,
      "kind": 1375,
      "chsten": 1376,
      "annt": 1377,
      "komme": 1378,
      "fürchte": 1379,
      "nieder": 1380,
      "Füße": 1381,
      "Jon": 1382,
      "Paul": 1383,
      "hob": 1384,
      "schrei": 1385,
      "Paulus": 1386,
      "Amm": 1387,
      "Kraft": 1388,
      "ba": 1389,
      "glau": 1390,
      "schrie": 1391,
      "beide": 1392,
      "Werke": 1393,
      "Benjamin": 1394,
      "Samen": 1395,
      "dl": 1396,
      "hü": 1397,
      "hel": 1398,
      "mals": 1399,
      "taten": 1400,
      "seg": 1401,
      "nacht": 1402,
      "igtausend": 1403,
      "Petr": 1404,
      "llte": 1405,
      "ternacht": 1406,
      "Toten": 1407,
      "Mittag": 1408,
      "Heiligtum": 1409,
      "Petrus": 1410,
      "Sem": 1411,
      "keinen": 1412,
      "elte": 1413,
      "olz": 1414,
      "Schul": 1415,
      "ingt": 1416,
      "gefangen": 1417,
      "Gebote": 1418,
      "Speiso": 1419,
      "Zion": 1420,
      "Von": 1421,
      "freu": 1422,
      "unge": 1423,
      "asse": 1424,
      "verl": 1425,
      "verz": 1426,
      "verbr": 1427,
      "verlassen": 1428,
      "ochen": 1429,
      "Des": 1430,
      "Neb": 1431,
      "schul": 1432,
      "Sti": 1433,
      "unsre": 1434,
      "Weibe": 1435,
      "brachte": 1436,
      "starb": 1437,
      "zwölf": 1438,
      "Hü": 1439,
      "di": 1440,
      "recken": 1441,
      "iger": 1442,
      "user": 1443,
      "Ass": 1444,
      "mherz": 1445,
      "Krieg": 1446,
      "chtern": 1447,
      "Volks": 1448,
      "hört": 1449,
      "dreißig": 1450,
      "ische": 1451,
      "Ah": 1452,
      "Wohl": 1453,
      "leute": 1454,
      "strei": 1455,
      "euten": 1456,
      "Jerem": 1457,
      "Ed": 1458,
      "Gren": 1459,
      "achten": 1460,
      "itte": 1461,
      "ett": 1462,
      "verg": 1463,
      "ündigt": 1464,
      "trinken": 1465,
      "brachten": 1466,
      "Barmherz": 1467,
      "Spr": 1468,
      "erwür": 1469,
      "berei": 1470,
      "halben": 1471,
      "ame": 1472,
      "lebt": 1473,
      "Amt": 1474,
      "Mitternacht": 1475,
      "Barmherzigkeit": 1476,
      "Wolk": 1477,
      "ucht": 1478,
      "ücht": 1479,
      "Hauses": 1480,
      "Als": 1481,
      "Auch": 1482,
      "fröh": 1483,
      "Götzen": 1484,
      "Speisopfer": 1485,
      "ichtet": 1486,
      "empf": 1487,
      "baute": 1488,
      "Wid": 1489,
      "gibt": 1490,
      "Greuel": 1491,
      "sche": 1492,
      "assen": 1493,
      "nahmen": 1494,
      "tragen": 1495,
      "don": 1496,
      "frei": 1497,
      "geden": 1498,
      "gebe": 1499,
      "mache": 1500,
      "ehrte": 1501,
      "höre": 1502,
      "Kanaan": 1503,
      "Acker": 1504,
      "übel": 1505,
      "urt": 1506,
      "Gebir": 1507,
      "athan": 1508,
      "offenbar": 1509,
      "Jeremia": 1510,
      "Hir": 1511,
      "Har": 1512,
      "Sa": 1513,
      "hoch": 1514,
      "lead": 1515,
      "fts": 1516,
      "trat": 1517,
      "Städten": 1518,
      "euf": 1519,
      "Gerechten": 1520,
      "Gilead": 1521,
      "Stifts": 1522,
      "Wind": 1523,
      "enden": 1524,
      "ock": 1525,
      "heißen": 1526,
      "Speise": 1527,
      "Joab": 1528,
      "hält": 1529,
      "fröhlich": 1530,
      "innen": 1531,
      "Stein": 1532,
      "besser": 1533,
      "jeglichen": 1534,
      "vertil": 1535,
      "Je": 1536,
      "ferne": 1537,
      "lag": 1538,
      "elten": 1539,
      "achen": 1540,
      "gesetzt": 1541,
      "liegen": 1542,
      "fünfzig": 1543,
      "setzen": 1544,
      "Esel": 1545,
      "Gehe": 1546,
      "nt": 1547,
      "seit": 1548,
      "unsern": 1549,
      "heißt": 1550,
      "Samuel": 1551,
      "laßt": 1552,
      "Munde": 1553,
      "fu": 1554,
      "kopfer": 1555,
      "Rechten": 1556,
      "Höh": 1557,
      "Lot": 1558,
      "Lust": 1559,
      "daher": 1560,
      "dest": 1561,
      "wis": 1562,
      "wohnten": 1563,
      "Berg": 1564,
      "hörten": 1565,
      "Buch": 1566,
      "bte": 1567,
      "geda": 1568,
      "reg": 1569,
      "itter": 1570,
      "sollten": 1571,
      "gerichtet": 1572,
      "durchs": 1573,
      "Knechten": 1574,
      "kennt": 1575,
      "Tier": 1576,
      "gst": 1577,
      "jetzt": 1578,
      "kr": 1579,
      "undzwanzig": 1580,
      "atz": 1581,
      "schlä": 1582,
      "rufen": 1583,
      "Mi": 1584,
      "ewi": 1585,
      "fre": 1586,
      "Rechte": 1587,
      "kennen": 1588,
      "eurem": 1589,
      "Johann": 1590,
      "mitten": 1591,
      "Landes": 1592,
      "selbe": 1593,
      "vierzig": 1594,
      "bauen": 1595,
      "Grimm": 1596,
      "Götter": 1597,
      "Geld": 1598,
      "Widder": 1599,
      "In": 1600,
      "fte": 1601,
      "los": 1602,
      "sa": 1603,
      "uk": 1604,
      "ehrten": 1605,
      "großer": 1606,
      "gleichwie": 1607,
      "können": 1608,
      "Johannes": 1609,
      "Kl": 1610,
      "Or": 1611,
      "Th": 1612,
      "blieb": 1613,
      "kte": 1614,
      "hab": 1615,
      "raben": 1616,
      "wandeln": 1617,
      "Leib": 1618,
      "Feld": 1619,
      "Finstern": 1620,
      "Gebirge": 1621,
      "Fur": 1622,
      "Frucht": 1623,
      "ften": 1624,
      "sieht": 1625,
      "gessen": 1626,
      "Schi": 1627,
      "liebe": 1628,
      "Samar": 1629,
      "Gutes": 1630,
      "Schwes": 1631,
      "mt": 1632,
      "eister": 1633,
      "bef": 1634,
      "daran": 1635,
      "Armen": 1636,
      "Gefä": 1637,
      "His": 1638,
      "bten": 1639,
      "met": 1640,
      "chtet": 1641,
      "ernen": 1642,
      "beste": 1643,
      "stoßen": 1644,
      "nei": 1645,
      "nten": 1646,
      "schön": 1647,
      "werk": 1648,
      "Gebot": 1649,
      "Menschenkind": 1650,
      "Hoff": 1651,
      "Och": 1652,
      "Richt": 1653,
      "ga": 1654,
      "gezogen": 1655,
      "solche": 1656,
      "Gericht": 1657,
      "priester": 1658,
      "Mag": 1659,
      "Säu": 1660,
      "ipp": 1661,
      "ma": 1662,
      "trei": 1663,
      "van": 1664,
      "erfü": 1665,
      "unnen": 1666,
      "herzu": 1667,
      "fürchten": 1668,
      "dieses": 1669,
      "unserm": 1670,
      "unsers": 1671,
      "äume": 1672,
      "Freude": 1673,
      "Isaak": 1674,
      "Hur": 1675,
      "Holz": 1676,
      "oß": 1677,
      "seh": 1678,
      "weiter": 1679,
      "wohnt": 1680,
      "Fürst": 1681,
      "hof": 1682,
      "Hil": 1683,
      "grü": 1684,
      "zt": 1685,
      "Sündopfer": 1686,
      "Ammon": 1687,
      ".)": 1688,
      "Frü": 1689,
      "Farren": 1690,
      "Wesen": 1691,
      "phat": 1692,
      "ufen": 1693,
      "ießen": 1694,
      "Stü": 1695,
      "Erst": 1696,
      "Erbe": 1697,
      "rost": 1698,
      "bleibt": 1699,
      "Kriegs": 1700,
      "Mich": 1701,
      "zeit": 1702,
      "versch": 1703,
      "Statt": 1704,
      "Schanden": 1705,
      "herab": 1706,
      "Kna": 1707,
      "Ste": 1708,
      "Tod": 1709,
      "Söhnen": 1710,
      "Füßen": 1711,
      "Finsternis": 1712,
      "Psal": 1713,
      "obe": 1714,
      "auft": 1715,
      "schi": 1716,
      "entgegen": 1717,
      "finden": 1718,
      "Fremdl": 1719,
      "Bes": 1720,
      "Kor": 1721,
      "erfahren": 1722,
      "aufer": 1723,
      "miteinander": 1724,
      "Schl": 1725,
      "willst": 1726,
      "Erbt": 1727,
      "Freund": 1728,
      "hätte": 1729,
      "Darnach": 1730,
      "Furcht": 1731,
      "Rind": 1732,
      "Zahl": 1733,
      "täg": 1734,
      "unger": 1735,
      "aufs": 1736,
      "bed": 1737,
      "Stra": 1738,
      "seien": 1739,
      "ängnis": 1740,
      "wenig": 1741,
      "Meine": 1742,
      "iere": 1743,
      "jä": 1744,
      "nern": 1745,
      "hand": 1746,
      "elen": 1747,
      "beten": 1748,
      "geln": 1749,
      "phet": 1750,
      "welchem": 1751,
      "nahe": 1752,
      "Todes": 1753,
      "Gefängnis": 1754,
      "erwählt": 1755,
      "Hiskia": 1756,
      "Ko": 1757,
      "erlö": 1758,
      "nete": 1759,
      "darüber": 1760,
      "Händen": 1761,
      "danken": 1762,
      "Prophet": 1763,
      "sprechen": 1764,
      "Weinber": 1765,
      "Manasse": 1766,
      "eurer": 1767,
      "Grenze": 1768,
      "Fest": 1769,
      "Lü": 1770,
      "fal": 1771,
      "teil": 1772,
      "nder": 1773,
      "lief": 1774,
      "geschlagen": 1775,
      "dritten": 1776,
      "sonst": 1777,
      "Schwester": 1778,
      "Erbteil": 1779,
      "Hohen": 1780,
      "abermals": 1781,
      "gefä": 1782,
      "Himmels": 1783,
      "Christo": 1784,
      "Baal": 1785,
      "Güte": 1786,
      "vangel": 1787,
      "Evangel": 1788,
      "Ham": 1789,
      "Sin": 1790,
      "beit": 1791,
      "gar": 1792,
      "hern": 1793,
      "eitel": 1794,
      "redet": 1795,
      "ale": 1796,
      "neun": 1797,
      "lasse": 1798,
      "äuch": 1799,
      "Ant": 1800,
      "gleichen": 1801,
      "Name": 1802,
      "kä": 1803,
      "neu": 1804,
      "str": 1805,
      "derer": 1806,
      "gelegt": 1807,
      "tust": 1808,
      "Nächsten": 1809,
      "Ahas": 1810,
      "Vö": 1811,
      "dor": 1812,
      "bringt": 1813,
      "äup": 1814,
      "Einwohn": 1815,
      "wollt": 1816,
      "Seite": 1817,
      "streiten": 1818,
      "ium": 1819,
      "mel": 1820,
      "wa": 1821,
      "sieb": 1822,
      "Arbeit": 1823,
      "Evangelium": 1824,
      "Bos": 1825,
      "Fuß": 1826,
      "Hel": 1827,
      "Wunder": 1828,
      "singen": 1829,
      "verw": 1830,
      "gehorsam": 1831,
      "Dienst": 1832,
      "wüst": 1833,
      "helfen": 1834,
      "Alle": 1835,
      "Mes": 1836,
      "kund": 1837,
      "derselben": 1838,
      "are": 1839,
      "schä": 1840,
      "ohlen": 1841,
      "Gebet": 1842,
      "fielen": 1843,
      "empfangen": 1844,
      "bl": 1845,
      "gnä": 1846,
      "auben": 1847,
      "außer": 1848,
      "Höhe": 1849,
      "Hebr": 1850,
      "Monats": 1851,
      "Flü": 1852,
      "Sache": 1853,
      "ka": 1854,
      "wein": 1855,
      "Über": 1856,
      "ande": 1857,
      "ennen": 1858,
      "Absal": 1859,
      "stark": 1860,
      "lebendig": 1861,
      "nimmt": 1862,
      "Diener": 1863,
      "Sabbat": 1864,
      "Assyrien": 1865,
      "Komm": 1866,
      "Absalom": 1867,
      "),": 1868,
      "Get": 1869,
      "Tagen": 1870,
      "nitten": 1871,
      "sitzen": 1872,
      "tot": 1873,
      "äte": 1874,
      "erg": 1875,
      "erst": 1876,
      "scher": 1877,
      "schwer": 1878,
      "ams": 1879,
      "gefiel": 1880,
      "gerecht": 1881,
      "traten": 1882,
      "großes": 1883,
      "Göttern": 1884,
      "jeder": 1885,
      "Wel": 1886,
      "kel": 1887,
      "erste": 1888,
      "neben": 1889,
      "Volkes": 1890,
      "Brunnen": 1891,
      "ftig": 1892,
      "Menge": 1893,
      "elech": 1894,
      "Völkern": 1895,
      "Bet": 1896,
      "Gru": 1897,
      "Lib": 1898,
      "Zie": 1899,
      "affen": 1900,
      "eben": 1901,
      "zür": 1902,
      "äa": 1903,
      "still": 1904,
      "schüt": 1905,
      "weise": 1906,
      "Seb": 1907,
      "Elia": 1908,
      "betrü": 1909,
      "bösen": 1910,
      "golden": 1911,
      "Häup": 1912,
      "Seine": 1913,
      "ischen": 1914,
      "ichte": 1915,
      "igten": 1916,
      "verst": 1917,
      "werfen": 1918,
      "hinter": 1919,
      "Herde": 1920,
      "selig": 1921,
      "gebar": 1922,
      "antworten": 1923,
      "fort": 1924,
      "Weh": 1925,
      "sest": 1926,
      "arbei": 1927,
      "rechten": 1928,
      "untereinander": 1929,
      "Vaterhä": 1930,
      "Häuser": 1931,
      "sagten": 1932,
      "Pharis": 1933,
      "Jonathan": 1934,
      "gnädig": 1935,
      "Sol": 1936,
      "Teuf": 1937,
      "Tiere": 1938,
      "erei": 1939,
      "stein": 1940,
      "stra": 1941,
      "els": 1942,
      "schar": 1943,
      "Jerobe": 1944,
      "Geschlechtern": 1945,
      "töten": 1946,
      "Mauer": 1947,
      "Ew": 1948,
      "Sich": 1949,
      "fern": 1950,
      "sünd": 1951,
      "zun": 1952,
      "arja": 1953,
      "inden": 1954,
      "gebot": 1955,
      "halte": 1956,
      "keiner": 1957,
      "dient": 1958,
      "Morgens": 1959,
      "agerten": 1960,
      "treten": 1961,
      "verderben": 1962,
      "versöh": 1963,
      "Magd": 1964,
      "Ap": 1965,
      "fand": 1966,
      "öst": 1967,
      "Stunde": 1968,
      "ons": 1969,
      "licher": 1970,
      "mächtig": 1971,
      "Samaria": 1972,
      "Ochsen": 1973,
      "Einwohner": 1974,
      "digt": 1975,
      "rer": 1976,
      "anan": 1977,
      "aufe": 1978,
      "eut": 1979,
      "begab": 1980,
      "lasset": 1981,
      "schlugen": 1982,
      "Elis": 1983,
      "Joja": 1984,
      "städ": 1985,
      "gute": 1986,
      "gaben": 1987,
      "Ewigkeit": 1988,
      "Deine": 1989,
      "Ser": 1990,
      "treu": 1991,
      "üh": 1992,
      "otten": 1993,
      "orben": 1994,
      "dul": 1995,
      "brei": 1996,
      "Weisen": 1997,
      "ammer": 1998,
      "siebenten": 1999,
      "schaffen": 2000,
      "Friede": 2001,
      "guten": 2002,
      "Feinden": 2003,
      "Bu": 2004,
      "Pl": 2005,
      "dür": 2006,
      "ket": 2007,
      "ost": 2008,
      "ören": 2009,
      "heben": 2010,
      "rüb": 2011,
      "Kleid": 2012,
      "Gibe": 2013,
      "Böses": 2014,
      "verborgen": 2015,
      "Schuld": 2016,
      "Hoffnung": 2017,
      "Chal": 2018,
      "brechen": 2019,
      "test": 2020,
      "reut": 2021,
      "bede": 2022,
      "pht": 2023,
      "Seelen": 2024,
      "Eli": 2025,
      "ständ": 2026,
      "Feind": 2027,
      "Gad": 2028,
      "Mal": 2029,
      "Seh": 2030,
      "Zunge": 2031,
      "lanz": 2032,
      "ches": 2033,
      "irgend": 2034,
      "Erz": 2035,
      "Worten": 2036,
      "Arm": 2037,
      "Habe": 2038,
      "fuhr": 2039,
      "Den": 2040,
      "Glei": 2041,
      "Kä": 2042,
      "Sage": 2043,
      "fest": 2044,
      "haus": 2045,
      "mah": 2046,
      "mag": 2047,
      "pha": 2048,
      "wach": 2049,
      "deren": 2050,
      "anger": 2051,
      "igte": 2052,
      "nezar": 2053,
      "annen": 2054,
      "Weise": 2055,
      "adnezar": 2056,
      "woren": 2057,
      "osau": 2058,
      "Geschrei": 2059,
      "böse": 2060,
      "Moabiter": 2061,
      "Nebuk": 2062,
      "bereitet": 2063,
      "Nebukadnezar": 2064,
      "Ahab": 2065,
      "Gra": 2066,
      "Kal": 2067,
      "Mer": 2068,
      "eile": 2069,
      "beiden": 2070,
      "wohnte": 2071,
      "fressen": 2072,
      "Gefangen": 2073,
      "Edom": 2074,
      "regier": 2075,
      "Antl": 2076,
      "Teufel": 2077,
      "Lob": 2078,
      "Meister": 2079,
      "läu": 2080,
      "oriter": 2081,
      "bew": 2082,
      "geheil": 2083,
      "antworteten": 2084,
      "wandte": 2085,
      "Asa": 2086,
      "zehnten": 2087,
      "Ruhe": 2088,
      "Schriftgel": 2089,
      "jedermann": 2090,
      "Dinge": 2091,
      "Gal": 2092,
      "Wit": 2093,
      "gott": 2094,
      "qu": 2095,
      "silber": 2096,
      "Steine": 2097,
      "imelech": 2098,
      "ckten": 2099,
      "gebie": 2100,
      "Jesum": 2101,
      "Ägypter": 2102,
      "flucht": 2103,
      "Josa": 2104,
      "schuldig": 2105,
      "Chald": 2106,
      "Antlitz": 2107,
      "Ele": 2108,
      "Haufen": 2109,
      "Sat": 2110,
      "beh": 2111,
      "linge": 2112,
      "such": 2113,
      "unken": 2114,
      "Schu": 2115,
      "usern": 2116,
      "Geschen": 2117,
      "Diese": 2118,
      "sucht": 2119,
      "eures": 2120,
      "grimm": 2121,
      "wisset": 2122,
      "Richter": 2123,
      "täglich": 2124,
      "Cher": 2125,
      "Dein": 2126,
      "Leuten": 2127,
      "göt": 2128,
      "gang": 2129,
      "lob": 2130,
      "mä": 2131,
      "saß": 2132,
      "außen": 2133,
      "gek": 2134,
      "annte": 2135,
      "reißen": 2136,
      "Anf": 2137,
      "gegenüber": 2138,
      "Tode": 2139,
      "Herzens": 2140,
      "Sauls": 2141,
      "Willen": 2142,
      "jähr": 2143,
      "Doch": 2144,
      "Ur": 2145,
      "ler": 2146,
      "lagerten": 2147,
      "erhö": 2148,
      "este": 2149,
      "geschworen": 2150,
      "zweihundert": 2151,
      "zerbr": 2152,
      "Ruben": 2153,
      "fragen": 2154,
      "goldenen": 2155,
      "begraben": 2156,
      "Früchte": 2157,
      "Pharisäer": 2158,
      "Gleich": 2159,
      "Boten": 2160,
      "Ch": 2161,
      "Fett": 2162,
      "Jung": 2163,
      "sern": 2164,
      "wend": 2165,
      "seln": 2166,
      "fürchtet": 2167,
      "wollten": 2168,
      "Hauptmann": 2169,
      "Höhen": 2170,
      "Apost": 2171,
      "Josaphat": 2172,
      "Jungfr": 2173,
      "Gar": 2174,
      "Jeh": 2175,
      "Narren": 2176,
      "jungen": 2177,
      "mu": 2178,
      "genug": 2179,
      "itern": 2180,
      "verschl": 2181,
      "gesündigt": 2182,
      "leiden": 2183,
      "ilt": 2184,
      "tung": 2185,
      "Unter": 2186,
      "grö": 2187,
      "Schiff": 2188,
      "Hohenpriester": 2189,
      "Bosheit": 2190,
      "Grube": 2191,
      "Bach": 2192,
      "Lehre": 2193,
      "wuß": 2194,
      "itze": 2195,
      "scht": 2196,
      "ottet": 2197,
      "Schrei": 2198,
      "ilde": 2199,
      "getr": 2200,
      "gebaut": 2201,
      "frem": 2202,
      "Wider": 2203,
      "Jakobs": 2204,
      "Daniel": 2205,
      "Dankopfer": 2206,
      "Wahrlich": 2207,
      "Sela": 2208,
      "Hirten": 2209,
      "Säulen": 2210,
      "siebzig": 2211,
      "Cherub": 2212,
      "Ros": 2213,
      "Tyr": 2214,
      "morgen": 2215,
      "sehe": 2216,
      "weit": 2217,
      "hath": 2218,
      "issen": 2219,
      "liebt": 2220,
      "Unrecht": 2221,
      "Priestern": 2222,
      "Lebens": 2223,
      "Vorstäd": 2224,
      "stär": 2225,
      "konnte": 2226,
      "Lamm": 2227,
      "Wand": 2228,
      "ffe": 2229,
      "pl": 2230,
      "sü": 2231,
      "sse": 2232,
      "vollen": 2233,
      "warum": 2234,
      "abt": 2235,
      "nachdem": 2236,
      "eilen": 2237,
      "egnet": 2238,
      "wiederum": 2239,
      "wandelt": 2240,
      "Bef": 2241,
      "konnten": 2242,
      "Wolken": 2243,
      "Rinder": 2244,
      "Eleas": 2245,
      "Baum": 2246,
      "Im": 2247,
      "Not": 2248,
      "würden": 2249,
      "Bergen": 2250,
      "führten": 2251,
      "Jüngl": 2252,
      "gestorben": 2253,
      "erretten": 2254,
      "Hurerei": 2255,
      "Kam": 2256,
      "Los": 2257,
      "Me": 2258,
      "Syr": 2259,
      "sät": 2260,
      "ichten": 2261,
      "gehalten": 2262,
      "iges": 2263,
      "ahren": 2264,
      "gesund": 2265,
      "Dazu": 2266,
      "schla": 2267,
      "alsbald": 2268,
      "heiß": 2269,
      "Amoriter": 2270,
      "wenden": 2271,
      "Grund": 2272,
      "Bundes": 2273,
      "jenseit": 2274,
      "hielt": 2275,
      "freuen": 2276,
      "gefällt": 2277,
      "!\"": 2278,
      "Ehe": 2279,
      "Has": 2280,
      "Posau": 2281,
      "Si": 2282,
      "Zehn": 2283,
      "glauben": 2284,
      "mut": 2285,
      "uchen": 2286,
      "genannt": 2287,
      "ord": 2288,
      "Königen": 2289,
      "Erd": 2290,
      "pflanz": 2291,
      "Gesicht": 2292,
      "baum": 2293,
      "Laßt": 2294,
      "Schaden": 2295,
      "Vorhof": 2296,
      "übrigen": 2297,
      "Löwen": 2298,
      "treiben": 2299,
      "Psalm": 2300,
      "Hu": 2301,
      "Hunger": 2302,
      "Maul": 2303,
      "Trüb": 2304,
      "fing": 2305,
      "fanden": 2306,
      "hau": 2307,
      "lose": 2308,
      "desselben": 2309,
      "allezeit": 2310,
      "pfen": 2311,
      "änge": 2312,
      "wärt": 2313,
      "dritte": 2314,
      "richtete": 2315,
      "sammeln": 2316,
      "findet": 2317,
      "holen": 2318,
      "gedachte": 2319,
      "Galil": 2320,
      "Bal": 2321,
      "De": 2322,
      "Gu": 2323,
      "Pal": 2324,
      "Raub": 2325,
      "eins": 2326,
      "sieh": 2327,
      "lege": 2328,
      "legten": 2329,
      "Auge": 2330,
      "trö": 2331,
      "Segen": 2332,
      "solange": 2333,
      "Tore": 2334,
      "Männern": 2335,
      "sprecht": 2336,
      "Aarons": 2337,
      "beschnitten": 2338,
      "erschien": 2339,
      "ippen": 2340,
      "Häupter": 2341,
      "Rosse": 2342,
      "Trübsal": 2343,
      "Hor": 2344,
      "Tal": 2345,
      "gä": 2346,
      "kus": 2347,
      "rä": 2348,
      "za": 2349,
      "zigtausend": 2350,
      "entr": 2351,
      "dieweil": 2352,
      "anon": 2353,
      "ausger": 2354,
      "verunrein": 2355,
      "vorüber": 2356,
      "unsrer": 2357,
      "Gest": 2358,
      "ieht": 2359,
      "Leid": 2360,
      "spiel": 2361,
      "Jüngern": 2362,
      "nimmer": 2363,
      "Zeiten": 2364,
      "errettet": 2365,
      "Anfang": 2366,
      "Eleasar": 2367,
      "Dam": 2368,
      "Est": 2369,
      "Fehl": 2370,
      "Leuch": 2371,
      "Per": 2372,
      "Ram": 2373,
      "ate": 2374,
      "früh": 2375,
      "köst": 2376,
      "oah": 2377,
      "zert": 2378,
      "unges": 2379,
      "bez": 2380,
      "betete": 2381,
      "onnen": 2382,
      "trau": 2383,
      "Leibe": 2384,
      "Nachkommen": 2385,
      "Hilfe": 2386,
      "Hebron": 2387,
      "geheiligt": 2388,
      "Dir": 2389,
      "Lippen": 2390,
      "Pur": 2391,
      "Sar": 2392,
      "Tisch": 2393,
      "lehren": 2394,
      "inne": 2395,
      "senden": 2396,
      "daraus": 2397,
      "änger": 2398,
      "Last": 2399,
      "geworfen": 2400,
      "hoben": 2401,
      "befohlen": 2402,
      "goldene": 2403,
      "wendig": 2404,
      "Dur": 2405,
      "Sil": 2406,
      "Syrien": 2407,
      "Um": 2408,
      "kne": 2409,
      "dab": 2410,
      "rechte": 2411,
      "begeg": 2412,
      "atten": 2413,
      "rote": 2414,
      "zieht": 2415,
      "kannt": 2416,
      "Gabe": 2417,
      "Mauern": 2418,
      "Wolke": 2419,
      "Vögel": 2420,
      "Ziegen": 2421,
      "Syrer": 2422,
      "Lenden": 2423,
      "Zwei": 2424,
      "glich": 2425,
      "richt": 2426,
      "zie": 2427,
      "zorn": 2428,
      "erkennen": 2429,
      "ichen": 2430,
      "vergeben": 2431,
      "Staub": 2432,
      "brä": 2433,
      "ings": 2434,
      "Esau": 2435,
      "richte": 2436,
      "fragte": 2437,
      "folgen": 2438,
      "rühmen": 2439,
      "sehet": 2440,
      "Bas": 2441,
      "Feigen": 2442,
      "Nimm": 2443,
      "Rie": 2444,
      "laufen": 2445,
      "pur": 2446,
      "demüt": 2447,
      "verständ": 2448,
      "unsere": 2449,
      "rom": 2450,
      "urz": 2451,
      "heilige": 2452,
      "setzten": 2453,
      "verkündigen": 2454,
      "Libanon": 2455,
      "Bür": 2456,
      "obt": 2457,
      "th": 2458,
      "Übel": 2459,
      "erbar": 2460,
      "breit": 2461,
      "selber": 2462,
      "Reden": 2463,
      "trä": 2464,
      "wären": 2465,
      "reuz": 2466,
      "riffen": 2467,
      "richtet": 2468,
      "Lämmer": 2469,
      "predigen": 2470,
      "Ord": 2471,
      "Knaben": 2472,
      "Sichem": 2473,
      "regierte": 2474,
      "zerbrochen": 2475,
      "Bild": 2476,
      "Glie": 2477,
      "Mil": 2478,
      "Räuch": 2479,
      "az": 2480,
      "bo": 2481,
      "satt": 2482,
      "ßte": 2483,
      "üb": 2484,
      "hervor": 2485,
      "weißt": 2486,
      "zweiund": 2487,
      "Stär": 2488,
      "Haut": 2489,
      "gehorchen": 2490,
      "Nachts": 2491,
      "Gelüb": 2492,
      "Bogen": 2493,
      "schwanger": 2494,
      "hielten": 2495,
      "kenntnis": 2496,
      "ewige": 2497,
      "ewigen": 2498,
      "Schriftgelehrten": 2499,
      "Amen": 2500,
      "Gro": 2501,
      "Heu": 2502,
      "Kel": 2503,
      "Pas": 2504,
      "aßen": 2505,
      "hm": 2506,
      "hret": 2507,
      "erk": 2508,
      "eist": 2509,
      "unten": 2510,
      "ausr": 2511,
      "ganzem": 2512,
      "opfert": 2513,
      "bleibe": 2514,
      "Reicht": 2515,
      "Schaf": 2516,
      "zwanzigtausend": 2517,
      "fliehen": 2518,
      "Apostel": 2519,
      "Hoch": 2520,
      "Pil": 2521,
      "dige": 2522,
      "kehren": 2523,
      "od": 2524,
      "ud": 2525,
      "erzür": 2526,
      "behalten": 2527,
      "Schande": 2528,
      "machst": 2529,
      "Herren": 2530,
      "Mannes": 2531,
      "Abimelech": 2532,
      "redeten": 2533,
      "Jahren": 2534,
      "Geruch": 2535,
      "Joas": 2536,
      "Tran": 2537,
      "mögen": 2538,
      "Weibern": 2539,
      "Simon": 2540,
      "äumen": 2541,
      "Freuden": 2542,
      "Löwe": 2543,
      "Zede": 2544,
      "zerstreut": 2545,
      "Midi": 2546,
      "freund": 2547,
      "Flügel": 2548,
      "Solches": 2549,
      "Purpur": 2550,
      "Art": 2551,
      "Hon": 2552,
      "Lohn": 2553,
      "bat": 2554,
      "fet": 2555,
      "ok": 2556,
      "ober": 2557,
      "erwe": 2558,
      "aust": 2559,
      "hart": 2560,
      "inde": 2561,
      "warf": 2562,
      "urm": 2563,
      "Jerich": 2564,
      "Werken": 2565,
      "zersch": 2566,
      "riß": 2567,
      "Geräte": 2568,
      "müsse": 2569,
      "Jordans": 2570,
      "erfüllt": 2571,
      "schlafen": 2572,
      "Reichtum": 2573,
      "Honig": 2574,
      "Lein": 2575,
      "Nar": 2576,
      "Oder": 2577,
      "Zent": 2578,
      "nüt": 2579,
      "pa": 2580,
      "thalben": 2581,
      "ermah": 2582,
      "chs": 2583,
      "gegessen": 2584,
      "schau": 2585,
      "Strom": 2586,
      "Schät": 2587,
      "Schild": 2588,
      "Ged": 2589,
      "getrost": 2590,
      "geblieben": 2591,
      "Verstand": 2592,
      "Christum": 2593,
      "floh": 2594,
      "Fels": 2595,
      "Hölle": 2596,
      "Geschlechter": 2597,
      "Same": 2598,
      "Sime": 2599,
      "Frev": 2600,
      "Zedern": 2601,
      "sechshundert": 2602,
      "sündigen": 2603,
      "Galiläa": 2604,
      "ausgerottet": 2605,
      "zornig": 2606,
      "Abr": 2607,
      "Hi": 2608,
      "Hanan": 2609,
      "Nie": 2610,
      "Pre": 2611,
      "blieben": 2612,
      "ühe": 2613,
      "erl": 2614,
      "inget": 2615,
      "ehem": 2616,
      "begeh": 2617,
      "vergessen": 2618,
      "Erkenntnis": 2619,
      "gelassen": 2620,
      "ängt": 2621,
      "zerris": 2622,
      "opferte": 2623,
      "nehme": 2624,
      "Gras": 2625,
      "Traum": 2626,
      "sechzig": 2627,
      "Pharaos": 2628,
      "Alles": 2629,
      "Kanaaniter": 2630,
      "Fremdling": 2631,
      "waschen": 2632,
      "Jerobeam": 2633,
      "Stärke": 2634,
      "Gassen": 2635,
      "Hall": 2636,
      "Heth": 2637,
      "Ster": 2638,
      "jag": 2639,
      "ond": 2640,
      "zlich": 2641,
      "ären": 2642,
      "dad": 2643,
      "denselben": 2644,
      "anken": 2645,
      "zurü": 2646,
      "Stri": 2647,
      "romme": 2648,
      "ilder": 2649,
      "Landen": 2650,
      "allenthalben": 2651,
      "haltet": 2652,
      "Regen": 2653,
      "Seba": 2654,
      "dreihundert": 2655,
      "vielen": 2656,
      "wandelte": 2657,
      "fünfund": 2658,
      "hilf": 2659,
      "Bruders": 2660,
      "zeugt": 2661,
      "offenbart": 2662,
      "Leinwand": 2663,
      "Bäume": 2664,
      "Grü": 2665,
      "Joch": 2666,
      "Nicht": 2667,
      "Tun": 2668,
      "hohen": 2669,
      "ile": 2670,
      "letz": 2671,
      "sä": 2672,
      "sitz": 2673,
      "betet": 2674,
      "ragen": 2675,
      "leidet": 2676,
      "hinfort": 2677,
      "eilend": 2678,
      "rocken": 2679,
      "Gedanken": 2680,
      "trugen": 2681,
      "Verder": 2682,
      "Will": 2683,
      "Hör": 2684,
      "Höret": 2685,
      "Hütten": 2686,
      "Toren": 2687,
      "Seid": 2688,
      "Chaldäer": 2689,
      "größer": 2690,
      "Cherubim": 2691,
      "Vorstädte": 2692,
      "Damas": 2693,
      "Zentner": 2694,
      "zerrissen": 2695,
      "(-": 2696,
      "Eu": 2697,
      "Hals": 2698,
      "Su": 2699,
      "flei": 2700,
      "fft": 2701,
      "heut": 2702,
      "rig": 2703,
      "äh": 2704,
      "äre": 2705,
      "einmal": 2706,
      "berufen": 2707,
      "ahel": 2708,
      "vorzu": 2709,
      "eitausend": 2710,
      "sicher": 2711,
      "bringe": 2712,
      "eilt": 2713,
      "darein": 2714,
      "Jesaja": 2715,
      "Abner": 2716,
      "hilft": 2717,
      "zehntausend": 2718,
      "kenne": 2719,
      "möchte": 2720,
      "Abrahams": 2721,
      "herrlich": 2722,
      "verderbt": 2723,
      "fürchteten": 2724,
      "gedenken": 2725,
      "Gefangenen": 2726,
      "Midian": 2727,
      "Jericho": 2728,
      "Hiob": 2729,
      "(-)": 2730,
      "\",": 2731,
      "Bist": 2732,
      "Bile": 2733,
      "Ihre": 2734,
      "fa": 2735,
      "ißt": 2736,
      "kim": 2737,
      "sach": 2738,
      "säu": 2739,
      "chnet": 2740,
      "ndet": 2741,
      "stir": 2742,
      "denke": 2743,
      "reten": 2744,
      "dessen": 2745,
      "versto": 2746,
      "rat": 2747,
      "wieger": 2748,
      "Schatten": 2749,
      "Schwieger": 2750,
      "untert": 2751,
      "geschieht": 2752,
      "stellte": 2753,
      "Gebeine": 2754,
      "solcher": 2755,
      "Sünder": 2756,
      "Stammes": 2757,
      "holz": 2758,
      "Kron": 2759,
      "fährt": 2760,
      "Mardoch": 2761,
      "schrieen": 2762,
      "Gefäße": 2763,
      "Gelübde": 2764,
      "Damaskus": 2765,
      "Dem": 2766,
      "Dör": 2767,
      "Frei": 2768,
      "Glau": 2769,
      "Gib": 2770,
      "Hin": 2771,
      "Kopf": 2772,
      "Linken": 2773,
      "Netz": 2774,
      "Raum": 2775,
      "festen": 2776,
      "trie": 2777,
      "öll": 2778,
      "ötet": 2779,
      "ümm": 2780,
      "üstet": 2781,
      "anrü": 2782,
      "ith": 2783,
      "oher": 2784,
      "verdor": 2785,
      "wiß": 2786,
      "Str": 2787,
      "gelten": 2788,
      "iters": 2789,
      "vierhundert": 2790,
      "draußen": 2791,
      "lebendigen": 2792,
      "herrschen": 2793,
      "Esther": 2794,
      "bezah": 2795,
      "Waffen": 2796,
      "fei": 2797,
      "oll": 2798,
      "stehe": 2799,
      "auber": 2800,
      "haftig": 2801,
      "sor": 2802,
      "ungehorsam": 2803,
      "eug": 2804,
      "versie": 2805,
      "gesegnet": 2806,
      "Schar": 2807,
      "willig": 2808,
      "lebte": 2809,
      "atus": 2810,
      "lieber": 2811,
      "ftigen": 2812,
      "getötet": 2813,
      "Jugend": 2814,
      "trin": 2815,
      "Angst": 2816,
      "flohen": 2817,
      "Felsen": 2818,
      "läs": 2819,
      "Zeugen": 2820,
      "fällt": 2821,
      "zählen": 2822,
      "Heiligtums": 2823,
      "hernach": 2824,
      "Plage": 2825,
      "wußte": 2826,
      "Tyrus": 2827,
      "wärts": 2828,
      "siehst": 2829,
      "Trankopfer": 2830,
      "Beer": 2831,
      "Hat": 2832,
      "Sinn": 2833,
      "Zad": 2834,
      "fin": 2835,
      "frucht": 2836,
      "iß": 2837,
      "öße": 2838,
      "zuh": 2839,
      "achte": 2840,
      "warten": 2841,
      "verachtet": 2842,
      "lebe": 2843,
      "Isma": 2844,
      "pfel": 2845,
      "anzünd": 2846,
      "ieren": 2847,
      "nehm": 2848,
      "anderes": 2849,
      "suchte": 2850,
      "eigenen": 2851,
      "merken": 2852,
      "Boden": 2853,
      "segnete": 2854,
      "käme": 2855,
      "Sebul": 2856,
      "Elisa": 2857,
      "Buße": 2858,
      "gebiete": 2859,
      "Gleichnis": 2860,
      "Widersach": 2861,
      "Pilatus": 2862,
      "Zedekia": 2863,
      "Narr": 2864,
      "zurück": 2865,
      "Zadok": 2866,
      "Dor": 2867,
      "Tau": 2868,
      "fro": 2869,
      "zücht": 2870,
      "erhob": 2871,
      "ergrimm": 2872,
      "eide": 2873,
      "schlief": 2874,
      "demselben": 2875,
      "miter": 2876,
      "liches": 2877,
      "weisen": 2878,
      "darf": 2879,
      "führe": 2880,
      "trug": 2881,
      "Häl": 2882,
      "Elenden": 2883,
      "Namens": 2884,
      "Knechtes": 2885,
      "Seiten": 2886,
      "Hebe": 2887,
      "heimsuchen": 2888,
      "fält": 2889,
      "Eisen": 2890,
      "Napht": 2891,
      "Gehet": 2892,
      "Güter": 2893,
      "Semmel": 2894,
      "Micha": 2895,
      "weinte": 2896,
      "versöhnen": 2897,
      "vorzusingen": 2898,
      "Bileam": 2899,
      "Enden": 2900,
      "Gil": 2901,
      "Lab": 2902,
      "Tie": 2903,
      "Tha": 2904,
      "Wä": 2905,
      "Weil": 2906,
      "dün": 2907,
      "gilt": 2908,
      "non": 2909,
      "uja": 2910,
      "chn": 2911,
      "damm": 2912,
      "llten": 2913,
      "reck": 2914,
      "schwei": 2915,
      "Gottlose": 2916,
      "Schmach": 2917,
      "Schrecken": 2918,
      "Schatz": 2919,
      "hrte": 2920,
      "seist": 2921,
      "Verb": 2922,
      "hlehem": 2923,
      "Leibes": 2924,
      "versammelt": 2925,
      "verbrennen": 2926,
      "erwürgt": 2927,
      "vertilgt": 2928,
      "erlöst": 2929,
      "Bethlehem": 2930,
      "wachsen": 2931,
      "Geschenke": 2932,
      "haupt": 2933,
      "Decke": 2934,
      "Basan": 2935,
      "Abram": 2936,
      "fruchtbar": 2937,
      "22": 2938,
      "Dr": 2939,
      "Kn": 2940,
      "Zur": 2941,
      "bitten": 2942,
      "gib": 2943,
      "mehl": 2944,
      "rings": 2945,
      "ue": 2946,
      "enz": 2947,
      "eicht": 2948,
      "ied": 2949,
      "gewiß": 2950,
      "hassen": 2951,
      "pfle": 2952,
      "weiden": 2953,
      "Gedul": 2954,
      "Dieser": 2955,
      "Rehabe": 2956,
      "währet": 2957,
      "wohne": 2958,
      "Stämme": 2959,
      "anderen": 2960,
      "Leichn": 2961,
      "weggeführt": 2962,
      "Lied": 2963,
      "fragten": 2964,
      "Türen": 2965,
      "hätten": 2966,
      "Fluch": 2967,
      "Erstgeb": 2968,
      "Übertre": 2969,
      "Getrei": 2970,
      "betrübt": 2971,
      "Vaterhäusern": 2972,
      "behü": 2973,
      "Erdbo": 2974,
      "Räuchwerk": 2975,
      "freundlich": 2976,
      "stirbt": 2977,
      "zuhauf": 2978,
      "Naphthal": 2979,
      "Erdboden": 2980,
      "Bett": 2981,
      "Halle": 2982,
      "Kir": 2983,
      "Pest": 2984,
      "Trost": 2985,
      "ius": 2986,
      "junge": 2987,
      "satz": 2988,
      "tie": 2989,
      "stie": 2990,
      "anbeten": 2991,
      "unst": 2992,
      "reckte": 2993,
      "umkommen": 2994,
      "ilenz": 2995,
      "Verheiß": 2996,
      "lauter": 2997,
      "rufe": 2998,
      "kannst": 2999
    },
    "merges": [
      [
        "e",
        "n"
      ],
      [
        "e",
        "r"
      ],
      [
        "c",
        "h"
      ],
      [
        "n",
        "d"
      ],
      [
        "e",
        "i"
      ],
      [
        "i",
        "e"
      ],
      [
        "u",
        "nd"
      ],
      [
        "ei",
        "n"
      ],
      [
        "e",
        "s"
      ],
      [
        "i",
        "ch"
      ],
      [
        "d",
        "a"
      ],
      [
        "s",
        "t"
      ],
      [
        "d",
        "er"
      ],
      [
        "a",
        "u"
      ],
      [
        "g",
        "e"
      ],
      [
        "d",
        "en"
      ],
      [
        "t",
        "e"
      ],
      [
        "l",
        "l"
      ],
      [
        "d",
        "ie"
      ],
      [
        "i",
        "n"
      ],
      [
        "a",
        "n"
      ],
      [
        "i",
        "h"
      ],
      [
        "e",
        "m"
      ],
      [
        "z",
        "u"
      ],
      [
        "h",
        "a"
      ],
      [
        "t",
        "en"
      ],
      [
        "e",
        "l"
      ],
      [
        "a",
        "ch"
      ],
      [
        "s",
        "o"
      ],
      [
        "g",
        "en"
      ],
      [
        "i",
        "r"
      ],
      [
        "b",
        "er"
      ],
      [
        "v",
        "o"
      ],
      [
        "a",
        "r"
      ],
      [
        "s",
        "ie"
      ],
      [
        "u",
        "n"
      ],
      [
        "ich",
        "t"
      ],
      [
        "s",
        "ein"
      ],
      [
        "r",
        "e"
      ],
      [
        "i",
        "t"
      ],
      [
        "i",
        "g"
      ],
      [
        "b",
        "en"
      ],
      [
        "da",
        "s"
      ],
      [
        "a",
        "nd"
      ],
      [
        "n",
        "icht"
      ],
      [
        "au",
        "f"
      ],
      [
        "da",
        "ß"
      ],
      [
        "i",
        "st"
      ],
      [
        "E",
        "R"
      ],
      [
        "H",
        "ER"
      ],
      [
        "HER",
        "R"
      ],
      [
        "s",
        "ch"
      ],
      [
        "t",
        "er"
      ],
      [
        "U",
        "nd"
      ],
      [
        "e",
        "u"
      ],
      [
        "d",
        "es"
      ],
      [
        "e",
        "t"
      ],
      [
        "e",
        "h"
      ],
      [
        "d",
        "em"
      ],
      [
        "a",
        "s"
      ],
      [
        "a",
        "m"
      ],
      [
        "au",
        "s"
      ],
      [
        "ih",
        "r"
      ],
      [
        "o",
        "t"
      ],
      [
        "o",
        "r"
      ],
      [
        "p",
        "r"
      ],
      [
        "a",
        "ll"
      ],
      [
        "d",
        "u"
      ],
      [
        "vo",
        "n"
      ],
      [
        "a",
        "l"
      ],
      [
        "m",
        "it"
      ],
      [
        "b",
        "e"
      ],
      [
        "s",
        "pr"
      ],
      [
        "i",
        "nd"
      ],
      [
        "m",
        "m"
      ],
      [
        "w",
        "ir"
      ],
      [
        "o",
        "h"
      ],
      [
        "w",
        "ar"
      ],
      [
        "v",
        "er"
      ],
      [
        "er",
        "n"
      ],
      [
        "r",
        "a"
      ],
      [
        "so",
        "ll"
      ],
      [
        "ha",
        "t"
      ],
      [
        "w",
        "er"
      ],
      [
        "ih",
        "n"
      ],
      [
        "a",
        "ber"
      ],
      [
        "w",
        "i"
      ],
      [
        "d",
        "ein"
      ],
      [
        "a",
        "h"
      ],
      [
        "ot",
        "t"
      ],
      [
        "spr",
        "ach"
      ],
      [
        "d",
        "e"
      ],
      [
        "m",
        "ein"
      ],
      [
        "u",
        "m"
      ],
      [
        "G",
        "ott"
      ],
      [
        "w",
        "ie"
      ],
      [
        "s",
        "en"
      ],
      [
        "g",
        "es"
      ],
      [
        "S",
        "t"
      ],
      [
        "en",
        "n"
      ],
      [
        "ö",
        "n"
      ],
      [
        "o",
        "l"
      ],
      [
        "oh",
        "n"
      ],
      [
        "vo",
        "r"
      ],
      [
        "D",
        "a"
      ],
      [
        "HERR",
        "N"
      ],
      [
        "ei",
        "t"
      ],
      [
        "S",
        "ch"
      ],
      [
        "s",
        "e"
      ],
      [
        "wir",
        "d"
      ],
      [
        "ih",
        "m"
      ],
      [
        "s",
        "ich"
      ],
      [
        "den",
        "n"
      ],
      [
        "ü",
        "r"
      ],
      [
        "K",
        "ön"
      ],
      [
        "o",
        "n"
      ],
      [
        "l",
        "ich"
      ],
      [
        "ch",
        "t"
      ],
      [
        "eu",
        "ch"
      ],
      [
        "u",
        "s"
      ],
      [
        "i",
        "s"
      ],
      [
        "wi",
        "ll"
      ],
      [
        "k",
        "o"
      ],
      [
        "i",
        "m"
      ],
      [
        "l",
        "e"
      ],
      [
        "ü",
        "ber"
      ],
      [
        "o",
        "ch"
      ],
      [
        "r",
        "en"
      ],
      [
        "a",
        "g"
      ],
      [
        "Kön",
        "ig"
      ],
      [
        "c",
        "k"
      ],
      [
        "h",
        "e"
      ],
      [
        "E",
        "r"
      ],
      [
        "I",
        "s"
      ],
      [
        "a",
        "b"
      ],
      [
        "l",
        "ei"
      ],
      [
        "h",
        "in"
      ],
      [
        "a",
        "t"
      ],
      [
        "n",
        "e"
      ],
      [
        "h",
        "er"
      ],
      [
        "un",
        "s"
      ],
      [
        "b",
        "r"
      ],
      [
        "wer",
        "den"
      ],
      [
        "ra",
        "el"
      ],
      [
        "Is",
        "rael"
      ],
      [
        "K",
        "ind"
      ],
      [
        "n",
        "ach"
      ],
      [
        "ei",
        "l"
      ],
      [
        "an",
        "n"
      ],
      [
        "m",
        "ir"
      ],
      [
        "r",
        "ei"
      ],
      [
        "au",
        "ch"
      ],
      [
        "ko",
        "mm"
      ],
      [
        "l",
        "ie"
      ],
      [
        "r",
        "ie"
      ],
      [
        "ge",
        "h"
      ],
      [
        "all",
        "e"
      ],
      [
        "ein",
        "e"
      ],
      [
        "d",
        "ir"
      ],
      [
        "s",
        "ind"
      ],
      [
        "r",
        "o"
      ],
      [
        "ihn",
        "en"
      ],
      [
        "ol",
        "k"
      ],
      [
        "m",
        "ach"
      ],
      [
        "S",
        "ohn"
      ],
      [
        "h",
        "r"
      ],
      [
        "p",
        "f"
      ],
      [
        "ein",
        "en"
      ],
      [
        "un",
        "ter"
      ],
      [
        "w",
        "ei"
      ],
      [
        "u",
        "t"
      ],
      [
        "G",
        "e"
      ],
      [
        "g",
        "er"
      ],
      [
        "i",
        "l"
      ],
      [
        "V",
        "olk"
      ],
      [
        "w",
        "as"
      ],
      [
        "da",
        "r"
      ],
      [
        "sein",
        "e"
      ],
      [
        "v",
        "i"
      ],
      [
        "i",
        "mm"
      ],
      [
        "m",
        "ich"
      ],
      [
        "H",
        "er"
      ],
      [
        "d",
        "ich"
      ],
      [
        "D",
        "enn"
      ],
      [
        "L",
        "and"
      ],
      [
        "H",
        "aus"
      ],
      [
        "B",
        "r"
      ],
      [
        "zu",
        "m"
      ],
      [
        "f",
        "en"
      ],
      [
        "b",
        "ei"
      ],
      [
        "u",
        "r"
      ],
      [
        "Kind",
        "er"
      ],
      [
        "b",
        "t"
      ],
      [
        "eh",
        "r"
      ],
      [
        "te",
        "t"
      ],
      [
        "i",
        "gen"
      ],
      [
        "a",
        "gen"
      ],
      [
        "an",
        "z"
      ],
      [
        "f",
        "ü"
      ],
      [
        "W",
        "ei"
      ],
      [
        "s",
        "ei"
      ],
      [
        "ge",
        "l"
      ],
      [
        "s",
        "er"
      ],
      [
        "st",
        "er"
      ],
      [
        "ha",
        "ben"
      ],
      [
        "I",
        "ch"
      ],
      [
        "komm",
        "en"
      ],
      [
        "ha",
        "be"
      ],
      [
        "sch",
        "en"
      ],
      [
        "eh",
        "en"
      ],
      [
        "nd",
        "e"
      ],
      [
        "ie",
        "l"
      ],
      [
        "ch",
        "en"
      ],
      [
        "G",
        "es"
      ],
      [
        "f",
        "t"
      ],
      [
        "ß",
        "en"
      ],
      [
        "a",
        "d"
      ],
      [
        "e",
        "g"
      ],
      [
        "st",
        "en"
      ],
      [
        "S",
        "ie"
      ],
      [
        "hat",
        "te"
      ],
      [
        "m",
        "en"
      ],
      [
        "et",
        "z"
      ],
      [
        "ih",
        "re"
      ],
      [
        "a",
        "ge"
      ],
      [
        "k",
        "am"
      ],
      [
        "s",
        "el"
      ],
      [
        "du",
        "r"
      ],
      [
        "in",
        "g"
      ],
      [
        "w",
        "or"
      ],
      [
        "es",
        "t"
      ],
      [
        "sein",
        "en"
      ],
      [
        "dur",
        "ch"
      ],
      [
        "o",
        "s"
      ],
      [
        "ge",
        "ben"
      ],
      [
        "h",
        "ö"
      ],
      [
        "all",
        "en"
      ],
      [
        "n",
        "un"
      ],
      [
        "ge",
        "t"
      ],
      [
        "D",
        "ie"
      ],
      [
        "f",
        "ür"
      ],
      [
        "ch",
        "te"
      ],
      [
        "r",
        "t"
      ],
      [
        "w",
        "o"
      ],
      [
        "ge",
        "b"
      ],
      [
        "war",
        "en"
      ],
      [
        "S",
        "o"
      ],
      [
        "J",
        "u"
      ],
      [
        "n",
        "och"
      ],
      [
        "dein",
        "e"
      ],
      [
        "ges",
        "ch"
      ],
      [
        "Gott",
        "es"
      ],
      [
        "st",
        "e"
      ],
      [
        "pf",
        "er"
      ],
      [
        "i",
        "en"
      ],
      [
        "a",
        "ter"
      ],
      [
        "ä",
        "n"
      ],
      [
        "W",
        "as"
      ],
      [
        "ha",
        "l"
      ],
      [
        "M",
        "en"
      ],
      [
        "A",
        "l"
      ],
      [
        "V",
        "ater"
      ],
      [
        "b",
        "is"
      ],
      [
        "m",
        "an"
      ],
      [
        "n",
        "en"
      ],
      [
        "mein",
        "e"
      ],
      [
        "J",
        "er"
      ],
      [
        "er",
        "e"
      ],
      [
        "sein",
        "em"
      ],
      [
        "z",
        "en"
      ],
      [
        "J",
        "es"
      ],
      [
        "s",
        "am"
      ],
      [
        "r",
        "ü"
      ],
      [
        "A",
        "ber"
      ],
      [
        "nd",
        "ern"
      ],
      [
        "H",
        "and"
      ],
      [
        "d",
        "et"
      ],
      [
        "g",
        "t"
      ],
      [
        "er",
        "t"
      ],
      [
        "spr",
        "icht"
      ],
      [
        "all",
        "es"
      ],
      [
        "o",
        "se"
      ],
      [
        "W",
        "or"
      ],
      [
        "war",
        "d"
      ],
      [
        "ß",
        "t"
      ],
      [
        "l",
        "as"
      ],
      [
        "sch",
        "l"
      ],
      [
        "Da",
        "vi"
      ],
      [
        "Davi",
        "d"
      ],
      [
        "E",
        "s"
      ],
      [
        "p",
        "h"
      ],
      [
        "t",
        "un"
      ],
      [
        "w",
        "el"
      ],
      [
        "j",
        "a"
      ],
      [
        "W",
        "er"
      ],
      [
        "in",
        "gen"
      ],
      [
        "ach",
        "t"
      ],
      [
        "A",
        "u"
      ],
      [
        "so",
        "ndern"
      ],
      [
        "g",
        "ro"
      ],
      [
        "g",
        "anz"
      ],
      [
        "ll",
        "en"
      ],
      [
        "D",
        "er"
      ],
      [
        "ü",
        "nd"
      ],
      [
        "k",
        "eit"
      ],
      [
        "ig",
        "t"
      ],
      [
        "k",
        "en"
      ],
      [
        "R",
        "e"
      ],
      [
        "al",
        "s"
      ],
      [
        "wi",
        "der"
      ],
      [
        "soll",
        "en"
      ],
      [
        "w",
        "enn"
      ],
      [
        "t",
        "r"
      ],
      [
        "ie",
        "h"
      ],
      [
        "sein",
        "er"
      ],
      [
        "ö",
        "h"
      ],
      [
        "L",
        "e"
      ],
      [
        "un",
        "g"
      ],
      [
        "K",
        "ne"
      ],
      [
        "ha",
        "st"
      ],
      [
        "b",
        "es"
      ],
      [
        "ge",
        "f"
      ],
      [
        "ah",
        "r"
      ],
      [
        "w",
        "ä"
      ],
      [
        "ihr",
        "en"
      ],
      [
        "z",
        "o"
      ],
      [
        "soll",
        "st"
      ],
      [
        "S",
        "e"
      ],
      [
        "re",
        "u"
      ],
      [
        "o",
        "der"
      ],
      [
        "geh",
        "en"
      ],
      [
        "wie",
        "der"
      ],
      [
        "ch",
        "ten"
      ],
      [
        "am",
        "en"
      ],
      [
        "Z",
        "eit"
      ],
      [
        "eu",
        "er"
      ],
      [
        "i",
        "ge"
      ],
      [
        "ä",
        "u"
      ],
      [
        "b",
        "st"
      ],
      [
        "b",
        "in"
      ],
      [
        "it",
        "er"
      ],
      [
        "vo",
        "m"
      ],
      [
        "w",
        "ohn"
      ],
      [
        "an",
        "gen"
      ],
      [
        "f",
        "e"
      ],
      [
        "ß",
        "e"
      ],
      [
        "te",
        "te"
      ],
      [
        "M",
        "ann"
      ],
      [
        "al",
        "so"
      ],
      [
        "ad",
        "t"
      ],
      [
        "A",
        "n"
      ],
      [
        "oh",
        "l"
      ],
      [
        "ar",
        "um"
      ],
      [
        "i",
        "a"
      ],
      [
        "zu",
        "r"
      ],
      [
        "Ge",
        "b"
      ],
      [
        "Ju",
        "da"
      ],
      [
        "z",
        "wei"
      ],
      [
        "U",
        "n"
      ],
      [
        "ge",
        "gen"
      ],
      [
        "ag",
        "t"
      ],
      [
        "D",
        "as"
      ],
      [
        "St",
        "adt"
      ],
      [
        "wel",
        "ch"
      ],
      [
        "us",
        "al"
      ],
      [
        "Men",
        "schen"
      ],
      [
        "Haus",
        "e"
      ],
      [
        "V",
        "er"
      ],
      [
        "usal",
        "em"
      ],
      [
        "s",
        "agen"
      ],
      [
        "St",
        "ä"
      ],
      [
        "Jer",
        "usalem"
      ],
      [
        "l",
        "au"
      ],
      [
        "z",
        "er"
      ],
      [
        "e",
        "er"
      ],
      [
        "ter",
        "n"
      ],
      [
        "g",
        "ing"
      ],
      [
        "ein",
        "em"
      ],
      [
        "n",
        "ah"
      ],
      [
        "h",
        "l"
      ],
      [
        "s",
        "ah"
      ],
      [
        "ü",
        "t"
      ],
      [
        "o",
        "b"
      ],
      [
        "las",
        "sen"
      ],
      [
        "M",
        "ose"
      ],
      [
        "m",
        "ehr"
      ],
      [
        "en",
        "d"
      ],
      [
        "so",
        "l"
      ],
      [
        "ig",
        "keit"
      ],
      [
        "A",
        "b"
      ],
      [
        "r",
        "u"
      ],
      [
        "a",
        "ß"
      ],
      [
        "H",
        "imm"
      ],
      [
        "d",
        "och"
      ],
      [
        "n",
        "er"
      ],
      [
        "Himm",
        "el"
      ],
      [
        "die",
        "s"
      ],
      [
        "g",
        "te"
      ],
      [
        "y",
        "p"
      ],
      [
        "D",
        "u"
      ],
      [
        "P",
        "rie"
      ],
      [
        "el",
        "t"
      ],
      [
        "dein",
        "en"
      ],
      [
        "H",
        "ä"
      ],
      [
        "ge",
        "w"
      ],
      [
        "g",
        "yp"
      ],
      [
        "ck",
        "en"
      ],
      [
        "t",
        "wor"
      ],
      [
        "Land",
        "e"
      ],
      [
        "sprach",
        "en"
      ],
      [
        "o",
        "pfer"
      ],
      [
        "Ä",
        "gyp"
      ],
      [
        "h",
        "eil"
      ],
      [
        "mach",
        "t"
      ],
      [
        "au",
        "l"
      ],
      [
        "Her",
        "r"
      ],
      [
        "h",
        "eit"
      ],
      [
        "Sie",
        "he"
      ],
      [
        "n",
        "ie"
      ],
      [
        "eu",
        "te"
      ],
      [
        "e",
        "b"
      ],
      [
        "an",
        "twor"
      ],
      [
        "Was",
        "ser"
      ],
      [
        "h",
        "ei"
      ],
      [
        "T",
        "age"
      ],
      [
        "k",
        "ein"
      ],
      [
        "i",
        "er"
      ],
      [
        "E",
        "l"
      ],
      [
        "Wor",
        "t"
      ],
      [
        "get",
        "an"
      ],
      [
        "da",
        "n"
      ],
      [
        "N",
        "amen"
      ],
      [
        "d",
        "rei"
      ],
      [
        "E",
        "in"
      ],
      [
        "v",
        "iel"
      ],
      [
        "B",
        "l"
      ],
      [
        "Prie",
        "ster"
      ],
      [
        "sol",
        "ch"
      ],
      [
        "Jes",
        "us"
      ],
      [
        "dein",
        "em"
      ],
      [
        "J",
        "a"
      ],
      [
        "o",
        "m"
      ],
      [
        "k",
        "e"
      ],
      [
        "n",
        "eh"
      ],
      [
        "and",
        "ern"
      ],
      [
        "und",
        "ert"
      ],
      [
        "ü",
        "n"
      ],
      [
        "Israel",
        "s"
      ],
      [
        "en",
        "t"
      ],
      [
        "sie",
        "he"
      ],
      [
        "ö",
        "t"
      ],
      [
        "el",
        "e"
      ],
      [
        "C",
        "hr"
      ],
      [
        "h",
        "undert"
      ],
      [
        "soll",
        "t"
      ],
      [
        "G",
        "ei"
      ],
      [
        "T",
        "o"
      ],
      [
        "D",
        "arum"
      ],
      [
        "komm",
        "t"
      ],
      [
        "re",
        "t"
      ],
      [
        "vi",
        "er"
      ],
      [
        "Ägyp",
        "ten"
      ],
      [
        "r",
        "i"
      ],
      [
        "am",
        "m"
      ],
      [
        "f",
        "fen"
      ],
      [
        "Ges",
        "ch"
      ],
      [
        "ei",
        "den"
      ],
      [
        "ger",
        "e"
      ],
      [
        "mach",
        "en"
      ],
      [
        "H",
        "eil"
      ],
      [
        "es",
        "sen"
      ],
      [
        "Br",
        "ü"
      ],
      [
        "ein",
        "er"
      ],
      [
        "S",
        "p"
      ],
      [
        "s",
        "ehen"
      ],
      [
        "ihr",
        "er"
      ],
      [
        "W",
        "enn"
      ],
      [
        "u",
        "ß"
      ],
      [
        "z",
        "ieh"
      ],
      [
        "w",
        "ür"
      ],
      [
        "König",
        "s"
      ],
      [
        "w",
        "e"
      ],
      [
        "uns",
        "er"
      ],
      [
        "ge",
        "geben"
      ],
      [
        "z",
        "w"
      ],
      [
        "sie",
        "ben"
      ],
      [
        "or",
        "gen"
      ],
      [
        "n",
        "is"
      ],
      [
        "Chr",
        "ist"
      ],
      [
        "st",
        "and"
      ],
      [
        "ot",
        "h"
      ],
      [
        "g",
        "lei"
      ],
      [
        "w",
        "ohl"
      ],
      [
        "fü",
        "n"
      ],
      [
        "h",
        "ren"
      ],
      [
        "z",
        "ig"
      ],
      [
        "eh",
        "n"
      ],
      [
        "u",
        "ch"
      ],
      [
        "ä",
        "t"
      ],
      [
        "mein",
        "em"
      ],
      [
        "mein",
        "en"
      ],
      [
        "w",
        "and"
      ],
      [
        "F",
        "ür"
      ],
      [
        "wer",
        "de"
      ],
      [
        "s",
        "et"
      ],
      [
        "Brü",
        "der"
      ],
      [
        "Au",
        "gen"
      ],
      [
        "A",
        "r"
      ],
      [
        "B",
        "er"
      ],
      [
        "fü",
        "hr"
      ],
      [
        "aus",
        "end"
      ],
      [
        "k",
        "ann"
      ],
      [
        "n",
        "a"
      ],
      [
        "es",
        "en"
      ],
      [
        "A",
        "m"
      ],
      [
        "fün",
        "f"
      ],
      [
        "and",
        "er"
      ],
      [
        "all",
        "er"
      ],
      [
        "Kind",
        "ern"
      ],
      [
        "ö",
        "l"
      ],
      [
        "die",
        "se"
      ],
      [
        "dein",
        "er"
      ],
      [
        "dar",
        "um"
      ],
      [
        "H",
        "au"
      ],
      [
        "al",
        "t"
      ],
      [
        "Er",
        "de"
      ],
      [
        "Le",
        "ben"
      ],
      [
        "s",
        "sen"
      ],
      [
        "an",
        "g"
      ],
      [
        "re",
        "de"
      ],
      [
        "T",
        "ag"
      ],
      [
        "el",
        "n"
      ],
      [
        "b",
        "lei"
      ],
      [
        "will",
        "en"
      ],
      [
        "eg",
        "lich"
      ],
      [
        "Al",
        "so"
      ],
      [
        "wo",
        "ll"
      ],
      [
        "G",
        "ere"
      ],
      [
        "M",
        "än"
      ],
      [
        "b",
        "ar"
      ],
      [
        "J",
        "ah"
      ],
      [
        "nicht",
        "s"
      ],
      [
        "hal",
        "ten"
      ],
      [
        "Gei",
        "st"
      ],
      [
        "j",
        "eglich"
      ],
      [
        "l",
        "t"
      ],
      [
        "t",
        "ra"
      ],
      [
        "A",
        "s"
      ],
      [
        "p",
        "t"
      ],
      [
        "ei",
        "nde"
      ],
      [
        "G",
        "er"
      ],
      [
        "lie",
        "ß"
      ],
      [
        "or",
        "n"
      ],
      [
        "Wei",
        "b"
      ],
      [
        "Her",
        "z"
      ],
      [
        "d",
        "r"
      ],
      [
        "L",
        "ei"
      ],
      [
        "eu",
        "re"
      ],
      [
        "H",
        "eiden"
      ],
      [
        "et",
        "h"
      ],
      [
        "at",
        "h"
      ],
      [
        "f",
        "r"
      ],
      [
        "S",
        "öh"
      ],
      [
        "wer",
        "t"
      ],
      [
        "g",
        "ab"
      ],
      [
        "b",
        "ist"
      ],
      [
        "kam",
        "en"
      ],
      [
        "sein",
        "es"
      ],
      [
        "zo",
        "gen"
      ],
      [
        "P",
        "ro"
      ],
      [
        "ges",
        "agt"
      ],
      [
        "b",
        "au"
      ],
      [
        "eh",
        "e"
      ],
      [
        "s",
        "etz"
      ],
      [
        "s",
        "p"
      ],
      [
        "gro",
        "ß"
      ],
      [
        "d",
        "ien"
      ],
      [
        "w",
        "ur"
      ],
      [
        "w",
        "en"
      ],
      [
        "den",
        "en"
      ],
      [
        "nah",
        "m"
      ],
      [
        "f",
        "l"
      ],
      [
        "h",
        "il"
      ],
      [
        "mach",
        "te"
      ],
      [
        "ha",
        "bt"
      ],
      [
        "s",
        "ag"
      ],
      [
        "ge",
        "kommen"
      ],
      [
        "dar",
        "in"
      ],
      [
        "m",
        "ü"
      ],
      [
        "in",
        "ge"
      ],
      [
        "Sohn",
        "es"
      ],
      [
        "Ges",
        "etz"
      ],
      [
        "Kne",
        "cht"
      ],
      [
        "r",
        "ein"
      ],
      [
        "z",
        "ehn"
      ],
      [
        "F",
        "euer"
      ],
      [
        "Her",
        "zen"
      ],
      [
        "w",
        "eg"
      ],
      [
        "ge",
        "macht"
      ],
      [
        "F",
        "el"
      ],
      [
        "R",
        "ei"
      ],
      [
        "Se",
        "ele"
      ],
      [
        "ihr",
        "em"
      ],
      [
        "H",
        "a"
      ],
      [
        "d",
        "ig"
      ],
      [
        "glei",
        "ch"
      ],
      [
        "m",
        "and"
      ],
      [
        "Stä",
        "d"
      ],
      [
        "Bl",
        "ut"
      ],
      [
        "neh",
        "men"
      ],
      [
        "Hau",
        "pt"
      ],
      [
        "el",
        "bst"
      ],
      [
        "ver",
        "k"
      ],
      [
        "l",
        "ü"
      ],
      [
        "u",
        "l"
      ],
      [
        "lich",
        "e"
      ],
      [
        "sch",
        "a"
      ],
      [
        "in",
        "s"
      ],
      [
        "geh",
        "t"
      ],
      [
        "V",
        "ä"
      ],
      [
        "sei",
        "d"
      ],
      [
        "zo",
        "g"
      ],
      [
        "ll",
        "e"
      ],
      [
        "l",
        "ä"
      ],
      [
        "o",
        "ten"
      ],
      [
        "z",
        "e"
      ],
      [
        "J",
        "o"
      ],
      [
        "u",
        "g"
      ],
      [
        "antwor",
        "tete"
      ],
      [
        "S",
        "al"
      ],
      [
        "sel",
        "ben"
      ],
      [
        "hat",
        "ten"
      ],
      [
        "Jah",
        "re"
      ],
      [
        "ck",
        "t"
      ],
      [
        "I",
        "hr"
      ],
      [
        "l",
        "o"
      ],
      [
        "re",
        "cht"
      ],
      [
        "Ge",
        "f"
      ],
      [
        "r",
        "ich"
      ],
      [
        "f",
        "f"
      ],
      [
        "Män",
        "ner"
      ],
      [
        "G",
        "em"
      ],
      [
        "br",
        "ach"
      ],
      [
        "hö",
        "r"
      ],
      [
        "Sch",
        "wert"
      ],
      [
        "S",
        "aul"
      ],
      [
        "das",
        "elbst"
      ],
      [
        "L",
        "a"
      ],
      [
        "W",
        "i"
      ],
      [
        "f",
        "ah"
      ],
      [
        "Hä",
        "nde"
      ],
      [
        "G",
        "r"
      ],
      [
        "nie",
        "mand"
      ],
      [
        "zieh",
        "en"
      ],
      [
        "M",
        "it"
      ],
      [
        "t",
        "at"
      ],
      [
        "ge",
        "wor"
      ],
      [
        "rie",
        "ben"
      ],
      [
        "M",
        "ut"
      ],
      [
        "ge",
        "g"
      ],
      [
        "Sch",
        "a"
      ],
      [
        "H",
        "ö"
      ],
      [
        "ko",
        "b"
      ],
      [
        "W",
        "e"
      ],
      [
        "Ja",
        "kob"
      ],
      [
        "S",
        "ünd"
      ],
      [
        "hö",
        "ren"
      ],
      [
        "Al",
        "t"
      ],
      [
        "F",
        "lei"
      ],
      [
        "W",
        "ein"
      ],
      [
        "G",
        "öt"
      ],
      [
        "Br",
        "u"
      ],
      [
        "ganz",
        "e"
      ],
      [
        "s",
        "age"
      ],
      [
        "nd",
        "en"
      ],
      [
        "mm",
        "en"
      ],
      [
        "F",
        "ü"
      ],
      [
        "V",
        "or"
      ],
      [
        "t",
        "ut"
      ],
      [
        "wur",
        "den"
      ],
      [
        "i",
        "b"
      ],
      [
        "an",
        "ge"
      ],
      [
        "k",
        "enn"
      ],
      [
        "i",
        "sch"
      ],
      [
        "p",
        "he"
      ],
      [
        "s",
        "u"
      ],
      [
        "s",
        "al"
      ],
      [
        "solch",
        "es"
      ],
      [
        "M",
        "eer"
      ],
      [
        "Gesch",
        "le"
      ],
      [
        "a",
        "i"
      ],
      [
        "st",
        "ar"
      ],
      [
        "J",
        "ün"
      ],
      [
        "it",
        "ten"
      ],
      [
        "dein",
        "es"
      ],
      [
        "ü",
        "ste"
      ],
      [
        "ch",
        "ter"
      ],
      [
        "Bru",
        "der"
      ],
      [
        "wir",
        "st"
      ],
      [
        "M",
        "an"
      ],
      [
        "und",
        "e"
      ],
      [
        "st",
        "eh"
      ],
      [
        "z",
        "eu"
      ],
      [
        "st",
        "ehen"
      ],
      [
        "imm",
        "e"
      ],
      [
        "H",
        "üt"
      ],
      [
        "P",
        "ha"
      ],
      [
        "br",
        "ingen"
      ],
      [
        "J",
        "os"
      ],
      [
        "n",
        "ä"
      ],
      [
        "ll",
        "t"
      ],
      [
        "vo",
        "ll"
      ],
      [
        "eu",
        "r"
      ],
      [
        "y",
        "r"
      ],
      [
        "sam",
        "m"
      ],
      [
        "Söh",
        "ne"
      ],
      [
        "T",
        "r"
      ],
      [
        "K",
        "lei"
      ],
      [
        "E",
        "n"
      ],
      [
        "M",
        "orgen"
      ],
      [
        "g",
        "ingen"
      ],
      [
        "St",
        "imme"
      ],
      [
        "le",
        "ben"
      ],
      [
        "rei",
        "ch"
      ],
      [
        "Pro",
        "phe"
      ],
      [
        "Prophe",
        "ten"
      ],
      [
        "T",
        "or"
      ],
      [
        "Kne",
        "chte"
      ],
      [
        "rede",
        "te"
      ],
      [
        "t",
        "u"
      ],
      [
        "Flei",
        "sch"
      ],
      [
        "S",
        "am"
      ],
      [
        "mein",
        "er"
      ],
      [
        "Für",
        "sten"
      ],
      [
        "W",
        "üste"
      ],
      [
        "ha",
        "m"
      ],
      [
        "sam",
        "t"
      ],
      [
        "ein",
        "es"
      ],
      [
        "ar",
        "on"
      ],
      [
        "m",
        "e"
      ],
      [
        "ck",
        "e"
      ],
      [
        "Mut",
        "ter"
      ],
      [
        "e",
        "w"
      ],
      [
        "l",
        "en"
      ],
      [
        "ie",
        "ß"
      ],
      [
        "und",
        "en"
      ],
      [
        "T",
        "a"
      ],
      [
        "wer",
        "det"
      ],
      [
        "m",
        "uß"
      ],
      [
        "wo",
        "llen"
      ],
      [
        "Alt",
        "ar"
      ],
      [
        "A",
        "aron"
      ],
      [
        "S",
        "ei"
      ],
      [
        "te",
        "ten"
      ],
      [
        "gere",
        "det"
      ],
      [
        "h",
        "re"
      ],
      [
        "b",
        "el"
      ],
      [
        "k",
        "l"
      ],
      [
        "P",
        "hil"
      ],
      [
        "ach",
        "e"
      ],
      [
        "lie",
        "b"
      ],
      [
        "ew",
        "ig"
      ],
      [
        "W",
        "elt"
      ],
      [
        "at",
        "t"
      ],
      [
        "gewor",
        "den"
      ],
      [
        "R",
        "u"
      ],
      [
        "m",
        "al"
      ],
      [
        "eh",
        "ren"
      ],
      [
        "etz",
        "t"
      ],
      [
        "W",
        "ie"
      ],
      [
        "all",
        "em"
      ],
      [
        "sel",
        "bst"
      ],
      [
        "cht",
        "igkeit"
      ],
      [
        "W",
        "ir"
      ],
      [
        "st",
        "ern"
      ],
      [
        "il",
        "ber"
      ],
      [
        "zw",
        "anz"
      ],
      [
        "s",
        "and"
      ],
      [
        "se",
        "ch"
      ],
      [
        "mein",
        "es"
      ],
      [
        "j",
        "em"
      ],
      [
        "ö",
        "rt"
      ],
      [
        "Sp",
        "ei"
      ],
      [
        "L",
        "ie"
      ],
      [
        "ei",
        "gen"
      ],
      [
        "die",
        "ser"
      ],
      [
        "ab",
        "el"
      ],
      [
        "Le",
        "vi"
      ],
      [
        "and",
        "ere"
      ],
      [
        "D",
        "an"
      ],
      [
        "B",
        "und"
      ],
      [
        "O",
        "rt"
      ],
      [
        "hin",
        "ein"
      ],
      [
        "Br",
        "and"
      ],
      [
        "An",
        "ges"
      ],
      [
        "ä",
        "cht"
      ],
      [
        "ag",
        "er"
      ],
      [
        "Er",
        "den"
      ],
      [
        "jem",
        "and"
      ],
      [
        "G",
        "ol"
      ],
      [
        "Z",
        "orn"
      ],
      [
        "geh",
        "or"
      ],
      [
        "Hüt",
        "te"
      ],
      [
        "N",
        "acht"
      ],
      [
        "gro",
        "ße"
      ],
      [
        "gew",
        "esen"
      ],
      [
        "ein",
        "ander"
      ],
      [
        "h",
        "o"
      ],
      [
        "k",
        "ön"
      ],
      [
        "s",
        "ehr"
      ],
      [
        "auf",
        "en"
      ],
      [
        "Wor",
        "te"
      ],
      [
        "Anges",
        "icht"
      ],
      [
        "k",
        "eine"
      ],
      [
        "re",
        "den"
      ],
      [
        "lau",
        "ben"
      ],
      [
        "ü",
        "br"
      ],
      [
        "eu",
        "ren"
      ],
      [
        "och",
        "ter"
      ],
      [
        "H",
        "eer"
      ],
      [
        "M",
        "o"
      ],
      [
        "ohn",
        "e"
      ],
      [
        "Br",
        "ot"
      ],
      [
        "l",
        "ö"
      ],
      [
        "da",
        "zu"
      ],
      [
        "Gere",
        "chtigkeit"
      ],
      [
        "f",
        "er"
      ],
      [
        "ü",
        "nde"
      ],
      [
        "En",
        "gel"
      ],
      [
        "G",
        "i"
      ],
      [
        "H",
        "e"
      ],
      [
        "die",
        "sen"
      ],
      [
        "fah",
        "ren"
      ],
      [
        "n",
        "et"
      ],
      [
        "h",
        "ä"
      ],
      [
        "n",
        "imm"
      ],
      [
        "f",
        "ra"
      ],
      [
        "öl",
        "k"
      ],
      [
        "Städ",
        "te"
      ],
      [
        "m",
        "er"
      ],
      [
        "da",
        "von"
      ],
      [
        "hin",
        "auf"
      ],
      [
        "Sal",
        "om"
      ],
      [
        "B",
        "ar"
      ],
      [
        "V",
        "ölk"
      ],
      [
        "Z",
        "eb"
      ],
      [
        "m",
        "ö"
      ],
      [
        "blei",
        "ben"
      ],
      [
        "W",
        "ahr"
      ],
      [
        "h",
        "t"
      ],
      [
        "Gem",
        "einde"
      ],
      [
        "F",
        "r"
      ],
      [
        "or",
        "en"
      ],
      [
        "Vater",
        "s"
      ],
      [
        "welch",
        "e"
      ],
      [
        "G",
        "na"
      ],
      [
        "f",
        "iel"
      ],
      [
        "G",
        "el"
      ],
      [
        "a",
        "oth"
      ],
      [
        "ges",
        "t"
      ],
      [
        "g",
        "nis"
      ],
      [
        "h",
        "en"
      ],
      [
        "wohn",
        "en"
      ],
      [
        "T",
        "ö"
      ],
      [
        "T",
        "ochter"
      ],
      [
        "B",
        "abel"
      ],
      [
        "F",
        "rie"
      ],
      [
        "st",
        "ä"
      ],
      [
        "soll",
        "te"
      ],
      [
        "Zeb",
        "aoth"
      ],
      [
        "W",
        "o"
      ],
      [
        "g",
        "r"
      ],
      [
        "v",
        "ie"
      ],
      [
        "te",
        "l"
      ],
      [
        "J",
        "ahr"
      ],
      [
        "l",
        "and"
      ],
      [
        "Phil",
        "ist"
      ],
      [
        "gesch",
        "rieben"
      ],
      [
        "T",
        "ür"
      ],
      [
        "b",
        "et"
      ],
      [
        "w",
        "eil"
      ],
      [
        "ganz",
        "en"
      ],
      [
        "Z",
        "eu"
      ],
      [
        "es",
        "ten"
      ],
      [
        "Brand",
        "opfer"
      ],
      [
        "W",
        "eg"
      ],
      [
        "p",
        "p"
      ],
      [
        "ster",
        "ben"
      ],
      [
        "da",
        "hin"
      ],
      [
        "hei",
        "m"
      ],
      [
        "ern",
        "e"
      ],
      [
        "Men",
        "sch"
      ],
      [
        "jeglich",
        "er"
      ],
      [
        "sand",
        "te"
      ],
      [
        "m",
        "ann"
      ],
      [
        "wei",
        "ß"
      ],
      [
        "geb",
        "oten"
      ],
      [
        "David",
        "s"
      ],
      [
        "Z",
        "u"
      ],
      [
        "l",
        "aß"
      ],
      [
        "steh",
        "t"
      ],
      [
        "ewig",
        "lich"
      ],
      [
        "un",
        "gen"
      ],
      [
        "au",
        "m"
      ],
      [
        "Wei",
        "ber"
      ],
      [
        "oh",
        "en"
      ],
      [
        "st",
        "o"
      ],
      [
        "ge",
        "he"
      ],
      [
        "lich",
        "en"
      ],
      [
        "Ju",
        "den"
      ],
      [
        "bes",
        "ch"
      ],
      [
        "dies",
        "em"
      ],
      [
        "Vä",
        "ter"
      ],
      [
        ".",
        "\""
      ],
      [
        "her",
        "aus"
      ],
      [
        "dar",
        "auf"
      ],
      [
        "em",
        "p"
      ],
      [
        "ges",
        "ehen"
      ],
      [
        "Jes",
        "u"
      ],
      [
        "führ",
        "t"
      ],
      [
        "S",
        "ünde"
      ],
      [
        "er",
        "sch"
      ],
      [
        "B",
        "en"
      ],
      [
        "O",
        "ber"
      ],
      [
        "h",
        "ieß"
      ],
      [
        "k",
        "t"
      ],
      [
        "B",
        "e"
      ],
      [
        "Z",
        "ei"
      ],
      [
        "g",
        "ten"
      ],
      [
        "ch",
        "er"
      ],
      [
        "Kön",
        "ige"
      ],
      [
        "Pha",
        "ra"
      ],
      [
        "Levi",
        "ten"
      ],
      [
        "a",
        "ten"
      ],
      [
        "f",
        "ol"
      ],
      [
        "ben",
        "d"
      ],
      [
        "Klei",
        "der"
      ],
      [
        "M",
        "on"
      ],
      [
        "j",
        "e"
      ],
      [
        "o",
        "mmen"
      ],
      [
        "Ber",
        "ge"
      ],
      [
        "zwanz",
        "ig"
      ],
      [
        "S",
        "im"
      ],
      [
        "l",
        "a"
      ],
      [
        "in",
        "ken"
      ],
      [
        "and",
        "t"
      ],
      [
        "hin",
        "aus"
      ],
      [
        "L",
        "eute"
      ],
      [
        "t",
        "ö"
      ],
      [
        "We",
        "ge"
      ],
      [
        "Gol",
        "d"
      ],
      [
        "f",
        "allen"
      ],
      [
        "so",
        "n"
      ],
      [
        "Gna",
        "de"
      ],
      [
        "J",
        "or"
      ],
      [
        "ha",
        "s"
      ],
      [
        "rie",
        "f"
      ],
      [
        "t",
        "ausend"
      ],
      [
        "heil",
        "igen"
      ],
      [
        "hör",
        "te"
      ],
      [
        "F",
        "re"
      ],
      [
        "s",
        "es"
      ],
      [
        "ch",
        "e"
      ],
      [
        "Wei",
        "s"
      ],
      [
        "D",
        "ien"
      ],
      [
        "f",
        "or"
      ],
      [
        "all",
        "ein"
      ],
      [
        "heil",
        "ig"
      ],
      [
        "A",
        "bend"
      ],
      [
        "Philist",
        "er"
      ],
      [
        "M",
        "ein"
      ],
      [
        "g",
        "u"
      ],
      [
        "h",
        "ier"
      ],
      [
        "r",
        "eit"
      ],
      [
        "Salom",
        "o"
      ],
      [
        "b",
        "ö"
      ],
      [
        "u",
        "hl"
      ],
      [
        "re",
        "chen"
      ],
      [
        "Ge",
        "w"
      ],
      [
        "wür",
        "de"
      ],
      [
        "E",
        "nde"
      ],
      [
        "W",
        "arum"
      ],
      [
        "gro",
        "ßen"
      ],
      [
        "sag",
        "te"
      ],
      [
        "vie",
        "le"
      ],
      [
        "and",
        "en"
      ],
      [
        "ab",
        "b"
      ],
      [
        "schl",
        "agen"
      ],
      [
        "M",
        "acht"
      ],
      [
        "an",
        "a"
      ],
      [
        "lo",
        "sen"
      ],
      [
        "wi",
        "ssen"
      ],
      [
        "geh",
        "ört"
      ],
      [
        "S",
        "ilber"
      ],
      [
        "o",
        "pf"
      ],
      [
        "ver",
        "t"
      ],
      [
        "Ö",
        "l"
      ],
      [
        "ge",
        "br"
      ],
      [
        "ehr",
        "t"
      ],
      [
        "H",
        "o"
      ],
      [
        "w",
        "ahr"
      ],
      [
        "St",
        "amm"
      ],
      [
        "woll",
        "te"
      ],
      [
        "V",
        "ieh"
      ],
      [
        "ä",
        "um"
      ],
      [
        "Ta",
        "ges"
      ],
      [
        "ra",
        "ham"
      ],
      [
        "Ab",
        "raham"
      ],
      [
        "f",
        "ind"
      ],
      [
        "g",
        "i"
      ],
      [
        "h",
        "ol"
      ],
      [
        "st",
        "et"
      ],
      [
        "a",
        "k"
      ],
      [
        "un",
        "rein"
      ],
      [
        "is",
        "set"
      ],
      [
        "K",
        "r"
      ],
      [
        "M",
        "und"
      ],
      [
        "gen",
        "ommen"
      ],
      [
        "mü",
        "ssen"
      ],
      [
        "I",
        "st"
      ],
      [
        "f",
        "ä"
      ],
      [
        "ha",
        "r"
      ],
      [
        "ges",
        "andt"
      ],
      [
        "ph",
        "ra"
      ],
      [
        "geb",
        "oren"
      ],
      [
        "wä",
        "re"
      ],
      [
        "wä",
        "hl"
      ],
      [
        "er",
        "ret"
      ],
      [
        "au",
        "en"
      ],
      [
        "et",
        "liche"
      ],
      [
        "Herr",
        "n"
      ],
      [
        "B",
        "ö"
      ],
      [
        "T",
        "emp"
      ],
      [
        "ver",
        "b"
      ],
      [
        "F",
        "reu"
      ],
      [
        "J",
        "ose"
      ],
      [
        "B",
        "eth"
      ],
      [
        "os",
        "sen"
      ],
      [
        "Temp",
        "el"
      ],
      [
        "G",
        "ut"
      ],
      [
        "zeu",
        "gte"
      ],
      [
        "Jose",
        "ph"
      ],
      [
        "welch",
        "er"
      ],
      [
        "u",
        "a"
      ],
      [
        "B",
        "o"
      ],
      [
        "E",
        "llen"
      ],
      [
        "L",
        "ä"
      ],
      [
        "Z",
        "i"
      ],
      [
        "s",
        "agt"
      ],
      [
        "wi",
        "schen"
      ],
      [
        "ah",
        "l"
      ],
      [
        "Sch",
        "w"
      ],
      [
        "le",
        "gen"
      ],
      [
        "sam",
        "men"
      ],
      [
        "E",
        "i"
      ],
      [
        "G",
        "lauben"
      ],
      [
        "N",
        "a"
      ],
      [
        "lich",
        "keit"
      ],
      [
        "her",
        "r"
      ],
      [
        "Un",
        "g"
      ],
      [
        "ö",
        "r"
      ],
      [
        "al",
        "d"
      ],
      [
        "lie",
        "ben"
      ],
      [
        "fü",
        "hren"
      ],
      [
        "F",
        "ei"
      ],
      [
        "N",
        "ach"
      ],
      [
        "t",
        "re"
      ],
      [
        "z",
        "ä"
      ],
      [
        "z",
        "wischen"
      ],
      [
        "König",
        "reich"
      ],
      [
        "zu",
        "sammen"
      ],
      [
        "ar",
        "ren"
      ],
      [
        "sch",
        "w"
      ],
      [
        "d",
        "igen"
      ],
      [
        "l",
        "ang"
      ],
      [
        "schl",
        "ug"
      ],
      [
        "Re",
        "cht"
      ],
      [
        "Jün",
        "ger"
      ],
      [
        "B",
        "a"
      ],
      [
        "it",
        "z"
      ],
      [
        "aller",
        "lei"
      ],
      [
        "lü",
        "ck"
      ],
      [
        "Sünd",
        "en"
      ],
      [
        "tu",
        "e"
      ],
      [
        "F",
        "einde"
      ],
      [
        "ver",
        "der"
      ],
      [
        "wel",
        "chen"
      ],
      [
        "Tö",
        "chter"
      ],
      [
        "g",
        "ol"
      ],
      [
        "j",
        "en"
      ],
      [
        "j",
        "as"
      ],
      [
        "er",
        "wähl"
      ],
      [
        "gen",
        "d"
      ],
      [
        "mm",
        "er"
      ],
      [
        "dar",
        "nach"
      ],
      [
        "Geschle",
        "cht"
      ],
      [
        "l",
        "ange"
      ],
      [
        "Mon",
        "at"
      ],
      [
        "z",
        "ei"
      ],
      [
        "verk",
        "ünd"
      ],
      [
        "au",
        "t"
      ],
      [
        "eh",
        "l"
      ],
      [
        "eh",
        "re"
      ],
      [
        "be",
        "g"
      ],
      [
        "ck",
        "er"
      ],
      [
        "l",
        "ein"
      ],
      [
        "ß",
        "er"
      ],
      [
        "be",
        "k"
      ],
      [
        "spr",
        "ich"
      ],
      [
        "Christ",
        "us"
      ],
      [
        "stand",
        "en"
      ],
      [
        "P",
        "f"
      ],
      [
        "Gott",
        "losen"
      ],
      [
        "on",
        "ne"
      ],
      [
        "il",
        "d"
      ],
      [
        "Ägypten",
        "land"
      ],
      [
        "Fr",
        "em"
      ],
      [
        "f",
        "lie"
      ],
      [
        "j",
        "am"
      ],
      [
        "l",
        "agen"
      ],
      [
        "r",
        "is"
      ],
      [
        "an",
        "s"
      ],
      [
        "gesch",
        "ehen"
      ],
      [
        "A",
        "ch"
      ],
      [
        "g",
        "ern"
      ],
      [
        "n",
        "te"
      ],
      [
        "ß",
        "ig"
      ],
      [
        "ver",
        "s"
      ],
      [
        "L",
        "icht"
      ],
      [
        "h",
        "eute"
      ],
      [
        "W",
        "ohn"
      ],
      [
        "m",
        "ächt"
      ],
      [
        "an",
        "k"
      ],
      [
        "Phara",
        "o"
      ],
      [
        "M",
        "isset"
      ],
      [
        "R",
        "at"
      ],
      [
        "ck",
        "te"
      ],
      [
        "Die",
        "s"
      ],
      [
        "gesch",
        "ah"
      ],
      [
        "geg",
        "angen"
      ],
      [
        "Jor",
        "dan"
      ],
      [
        "k",
        "ia"
      ],
      [
        "der",
        "n"
      ],
      [
        "ge",
        "führt"
      ],
      [
        "in",
        "n"
      ],
      [
        "übr",
        "ig"
      ],
      [
        "Mo",
        "ab"
      ],
      [
        "L",
        "ö"
      ],
      [
        "n",
        "ur"
      ],
      [
        "u",
        "el"
      ],
      [
        "Ä",
        "lt"
      ],
      [
        "E",
        "phra"
      ],
      [
        "a",
        "ja"
      ],
      [
        "und",
        "er"
      ],
      [
        "scha",
        "ft"
      ],
      [
        "La",
        "de"
      ],
      [
        "Jos",
        "ua"
      ],
      [
        "Weis",
        "heit"
      ],
      [
        "W",
        "agen"
      ],
      [
        "p",
        "re"
      ],
      [
        "Herr",
        "lichkeit"
      ],
      [
        "lä",
        "ßt"
      ],
      [
        "G",
        "eh"
      ],
      [
        "h",
        "ät"
      ],
      [
        "ä",
        "r"
      ],
      [
        "da",
        "mit"
      ],
      [
        "Völk",
        "er"
      ],
      [
        "A",
        "us"
      ],
      [
        "L",
        "aß"
      ],
      [
        "m",
        "her"
      ],
      [
        "o",
        "ben"
      ],
      [
        "et",
        "was"
      ],
      [
        "rü",
        "h"
      ],
      [
        "K",
        "rie"
      ],
      [
        "g",
        "l"
      ],
      [
        "er",
        "sten"
      ],
      [
        "Frie",
        "den"
      ],
      [
        "O",
        "pfer"
      ],
      [
        "ra",
        "ft"
      ],
      [
        "Z",
        "e"
      ],
      [
        "g",
        "ut"
      ],
      [
        "ä",
        "g"
      ],
      [
        "dan",
        "n"
      ],
      [
        "su",
        "chen"
      ],
      [
        "E",
        "hre"
      ],
      [
        "St",
        "reit"
      ],
      [
        "Is",
        "a"
      ],
      [
        "Ält",
        "esten"
      ],
      [
        "au",
        "b"
      ],
      [
        "Christ",
        "i"
      ],
      [
        "dien",
        "en"
      ],
      [
        "G",
        "ü"
      ],
      [
        "K",
        "a"
      ],
      [
        "ru",
        "cht"
      ],
      [
        "führ",
        "te"
      ],
      [
        "D",
        "ar"
      ],
      [
        "T",
        "eil"
      ],
      [
        "pr",
        "ie"
      ],
      [
        "um",
        "her"
      ],
      [
        "rich",
        "ten"
      ],
      [
        "Ober",
        "sten"
      ],
      [
        "O",
        "hren"
      ],
      [
        "er",
        "s"
      ],
      [
        "Lie",
        "be"
      ],
      [
        "Gew",
        "alt"
      ],
      [
        "b",
        "ald"
      ],
      [
        "o",
        "te"
      ],
      [
        "o",
        "ffen"
      ],
      [
        "et",
        "r"
      ],
      [
        "ri",
        "ft"
      ],
      [
        "zw",
        "öl"
      ],
      [
        "Rei",
        "ch"
      ],
      [
        "Scha",
        "fe"
      ],
      [
        "t",
        "ag"
      ],
      [
        "le",
        "gte"
      ],
      [
        "Stä",
        "t"
      ],
      [
        "M",
        "ar"
      ],
      [
        "u",
        "b"
      ],
      [
        "u",
        "gen"
      ],
      [
        "w",
        "ü"
      ],
      [
        "ihr",
        "es"
      ],
      [
        "Au",
        "f"
      ],
      [
        "Brüder",
        "n"
      ],
      [
        "it",
        "t"
      ],
      [
        "nun",
        "g"
      ],
      [
        "Ben",
        "jam"
      ],
      [
        "Zei",
        "chen"
      ],
      [
        "Ephra",
        "im"
      ],
      [
        "A",
        "ll"
      ],
      [
        "m",
        "lich"
      ],
      [
        "F",
        "l"
      ],
      [
        "G",
        "a"
      ],
      [
        "k",
        "on"
      ],
      [
        "her",
        "auf"
      ],
      [
        "lie",
        "gt"
      ],
      [
        "yr",
        "ien"
      ],
      [
        "F",
        "in"
      ],
      [
        "sch",
        "on"
      ],
      [
        "mm",
        "e"
      ],
      [
        "ver",
        "samm"
      ],
      [
        "hin",
        "ab"
      ],
      [
        "welch",
        "es"
      ],
      [
        "Fel",
        "de"
      ],
      [
        "N",
        "un"
      ],
      [
        "z",
        "ar"
      ],
      [
        "zu",
        "vor"
      ],
      [
        "St",
        "uhl"
      ],
      [
        "Misset",
        "at"
      ],
      [
        "hr",
        "t"
      ],
      [
        "wei",
        "s"
      ],
      [
        "Heil",
        "igt"
      ],
      [
        "sech",
        "s"
      ],
      [
        "zä",
        "hl"
      ],
      [
        "M",
        "au"
      ],
      [
        "S",
        "onne"
      ],
      [
        "h",
        "iel"
      ],
      [
        "ä",
        "er"
      ],
      [
        "gebr",
        "acht"
      ],
      [
        "G",
        "reu"
      ],
      [
        "L",
        "ager"
      ],
      [
        "S",
        "el"
      ],
      [
        "u",
        "st"
      ],
      [
        "ach",
        "tet"
      ],
      [
        "it",
        "zen"
      ],
      [
        "mach",
        "ten"
      ],
      [
        "Zeu",
        "gnis"
      ],
      [
        "Stät",
        "te"
      ],
      [
        "imm",
        "er"
      ],
      [
        "Wer",
        "k"
      ],
      [
        "sah",
        "en"
      ],
      [
        "Heil",
        "igen"
      ],
      [
        "Sch",
        "rift"
      ],
      [
        "Re",
        "de"
      ],
      [
        "we",
        "der"
      ],
      [
        "Wohn",
        "ung"
      ],
      [
        "b",
        "est"
      ],
      [
        "lie",
        "ßen"
      ],
      [
        "gef",
        "unden"
      ],
      [
        "zer",
        "st"
      ],
      [
        "Vä",
        "tern"
      ],
      [
        "opf",
        "ern"
      ],
      [
        "J",
        "oh"
      ],
      [
        "setz",
        "te"
      ],
      [
        "K",
        "ana"
      ],
      [
        "M",
        "a"
      ],
      [
        "N",
        "ä"
      ],
      [
        "S",
        "abb"
      ],
      [
        "i",
        "ll"
      ],
      [
        "le",
        "gt"
      ],
      [
        "gef",
        "allen"
      ],
      [
        "nä",
        "mlich"
      ],
      [
        "Wahr",
        "heit"
      ],
      [
        "Ung",
        "lück"
      ],
      [
        "i",
        "as"
      ],
      [
        "k",
        "ind"
      ],
      [
        "ch",
        "sten"
      ],
      [
        "ann",
        "t"
      ],
      [
        "komm",
        "e"
      ],
      [
        "für",
        "chte"
      ],
      [
        "nie",
        "der"
      ],
      [
        "Fü",
        "ße"
      ],
      [
        "J",
        "on"
      ],
      [
        "P",
        "aul"
      ],
      [
        "h",
        "ob"
      ],
      [
        "sch",
        "rei"
      ],
      [
        "Paul",
        "us"
      ],
      [
        "A",
        "mm"
      ],
      [
        "K",
        "raft"
      ],
      [
        "b",
        "a"
      ],
      [
        "g",
        "lau"
      ],
      [
        "sch",
        "rie"
      ],
      [
        "bei",
        "de"
      ],
      [
        "Wer",
        "ke"
      ],
      [
        "Benjam",
        "in"
      ],
      [
        "S",
        "amen"
      ],
      [
        "d",
        "l"
      ],
      [
        "h",
        "ü"
      ],
      [
        "h",
        "el"
      ],
      [
        "m",
        "als"
      ],
      [
        "t",
        "aten"
      ],
      [
        "se",
        "g"
      ],
      [
        "nach",
        "t"
      ],
      [
        "igt",
        "ausend"
      ],
      [
        "P",
        "etr"
      ],
      [
        "ll",
        "te"
      ],
      [
        "ter",
        "nacht"
      ],
      [
        "To",
        "ten"
      ],
      [
        "Mit",
        "tag"
      ],
      [
        "Heiligt",
        "um"
      ],
      [
        "Petr",
        "us"
      ],
      [
        "S",
        "em"
      ],
      [
        "k",
        "einen"
      ],
      [
        "el",
        "te"
      ],
      [
        "ol",
        "z"
      ],
      [
        "Sch",
        "ul"
      ],
      [
        "ing",
        "t"
      ],
      [
        "gef",
        "angen"
      ],
      [
        "Geb",
        "ote"
      ],
      [
        "Spei",
        "so"
      ],
      [
        "Zi",
        "on"
      ],
      [
        "V",
        "on"
      ],
      [
        "f",
        "reu"
      ],
      [
        "un",
        "ge"
      ],
      [
        "as",
        "se"
      ],
      [
        "ver",
        "l"
      ],
      [
        "ver",
        "z"
      ],
      [
        "ver",
        "br"
      ],
      [
        "ver",
        "lassen"
      ],
      [
        "och",
        "en"
      ],
      [
        "D",
        "es"
      ],
      [
        "N",
        "eb"
      ],
      [
        "sch",
        "ul"
      ],
      [
        "St",
        "i"
      ],
      [
        "uns",
        "re"
      ],
      [
        "Wei",
        "be"
      ],
      [
        "brach",
        "te"
      ],
      [
        "star",
        "b"
      ],
      [
        "zwöl",
        "f"
      ],
      [
        "H",
        "ü"
      ],
      [
        "d",
        "i"
      ],
      [
        "re",
        "cken"
      ],
      [
        "ig",
        "er"
      ],
      [
        "us",
        "er"
      ],
      [
        "As",
        "s"
      ],
      [
        "mher",
        "z"
      ],
      [
        "Krie",
        "g"
      ],
      [
        "ch",
        "tern"
      ],
      [
        "Volk",
        "s"
      ],
      [
        "hö",
        "rt"
      ],
      [
        "drei",
        "ßig"
      ],
      [
        "isch",
        "e"
      ],
      [
        "A",
        "h"
      ],
      [
        "W",
        "ohl"
      ],
      [
        "l",
        "eute"
      ],
      [
        "st",
        "rei"
      ],
      [
        "eu",
        "ten"
      ],
      [
        "Jer",
        "em"
      ],
      [
        "E",
        "d"
      ],
      [
        "G",
        "ren"
      ],
      [
        "ach",
        "ten"
      ],
      [
        "it",
        "te"
      ],
      [
        "et",
        "t"
      ],
      [
        "ver",
        "g"
      ],
      [
        "ünd",
        "igt"
      ],
      [
        "tr",
        "inken"
      ],
      [
        "brach",
        "ten"
      ],
      [
        "Bar",
        "mherz"
      ],
      [
        "S",
        "pr"
      ],
      [
        "er",
        "wür"
      ],
      [
        "ber",
        "ei"
      ],
      [
        "hal",
        "ben"
      ],
      [
        "am",
        "e"
      ],
      [
        "le",
        "bt"
      ],
      [
        "Am",
        "t"
      ],
      [
        "Mit",
        "ternacht"
      ],
      [
        "Barmherz",
        "igkeit"
      ],
      [
        "W",
        "olk"
      ],
      [
        "u",
        "cht"
      ],
      [
        "ü",
        "cht"
      ],
      [
        "Haus",
        "es"
      ],
      [
        "Al",
        "s"
      ],
      [
        "Au",
        "ch"
      ],
      [
        "fr",
        "öh"
      ],
      [
        "Göt",
        "zen"
      ],
      [
        "Speiso",
        "pfer"
      ],
      [
        "ich",
        "tet"
      ],
      [
        "em",
        "pf"
      ],
      [
        "bau",
        "te"
      ],
      [
        "Wi",
        "d"
      ],
      [
        "gi",
        "bt"
      ],
      [
        "Greu",
        "el"
      ],
      [
        "sch",
        "e"
      ],
      [
        "as",
        "sen"
      ],
      [
        "nah",
        "men"
      ],
      [
        "tra",
        "gen"
      ],
      [
        "d",
        "on"
      ],
      [
        "f",
        "rei"
      ],
      [
        "ge",
        "den"
      ],
      [
        "ge",
        "be"
      ],
      [
        "mach",
        "e"
      ],
      [
        "ehr",
        "te"
      ],
      [
        "hö",
        "re"
      ],
      [
        "Kana",
        "an"
      ],
      [
        "A",
        "cker"
      ],
      [
        "ü",
        "bel"
      ],
      [
        "ur",
        "t"
      ],
      [
        "Geb",
        "ir"
      ],
      [
        "ath",
        "an"
      ],
      [
        "offen",
        "bar"
      ],
      [
        "Jerem",
        "ia"
      ],
      [
        "H",
        "ir"
      ],
      [
        "H",
        "ar"
      ],
      [
        "S",
        "a"
      ],
      [
        "h",
        "och"
      ],
      [
        "le",
        "ad"
      ],
      [
        "ft",
        "s"
      ],
      [
        "tra",
        "t"
      ],
      [
        "Städ",
        "ten"
      ],
      [
        "eu",
        "f"
      ],
      [
        "Gere",
        "chten"
      ],
      [
        "Gi",
        "lead"
      ],
      [
        "Sti",
        "fts"
      ],
      [
        "W",
        "ind"
      ],
      [
        "en",
        "den"
      ],
      [
        "o",
        "ck"
      ],
      [
        "hei",
        "ßen"
      ],
      [
        "Spei",
        "se"
      ],
      [
        "Jo",
        "ab"
      ],
      [
        "hä",
        "lt"
      ],
      [
        "fröh",
        "lich"
      ],
      [
        "in",
        "nen"
      ],
      [
        "St",
        "ein"
      ],
      [
        "bes",
        "ser"
      ],
      [
        "jeglich",
        "en"
      ],
      [
        "vert",
        "il"
      ],
      [
        "J",
        "e"
      ],
      [
        "f",
        "erne"
      ],
      [
        "l",
        "ag"
      ],
      [
        "el",
        "ten"
      ],
      [
        "ach",
        "en"
      ],
      [
        "ges",
        "etzt"
      ],
      [
        "lie",
        "gen"
      ],
      [
        "fünf",
        "zig"
      ],
      [
        "setz",
        "en"
      ],
      [
        "E",
        "sel"
      ],
      [
        "G",
        "ehe"
      ],
      [
        "n",
        "t"
      ],
      [
        "s",
        "eit"
      ],
      [
        "uns",
        "ern"
      ],
      [
        "hei",
        "ßt"
      ],
      [
        "Sam",
        "uel"
      ],
      [
        "la",
        "ßt"
      ],
      [
        "M",
        "unde"
      ],
      [
        "f",
        "u"
      ],
      [
        "ko",
        "pfer"
      ],
      [
        "Re",
        "chten"
      ],
      [
        "H",
        "öh"
      ],
      [
        "L",
        "ot"
      ],
      [
        "L",
        "ust"
      ],
      [
        "da",
        "her"
      ],
      [
        "des",
        "t"
      ],
      [
        "wi",
        "s"
      ],
      [
        "wohn",
        "ten"
      ],
      [
        "Ber",
        "g"
      ],
      [
        "hör",
        "ten"
      ],
      [
        "B",
        "uch"
      ],
      [
        "b",
        "te"
      ],
      [
        "ge",
        "da"
      ],
      [
        "re",
        "g"
      ],
      [
        "it",
        "ter"
      ],
      [
        "soll",
        "ten"
      ],
      [
        "ger",
        "ichtet"
      ],
      [
        "durch",
        "s"
      ],
      [
        "Kne",
        "chten"
      ],
      [
        "kenn",
        "t"
      ],
      [
        "T",
        "ier"
      ],
      [
        "g",
        "st"
      ],
      [
        "j",
        "etzt"
      ],
      [
        "k",
        "r"
      ],
      [
        "und",
        "zwanzig"
      ],
      [
        "at",
        "z"
      ],
      [
        "schl",
        "ä"
      ],
      [
        "ru",
        "fen"
      ],
      [
        "M",
        "i"
      ],
      [
        "e",
        "wi"
      ],
      [
        "f",
        "re"
      ],
      [
        "Re",
        "chte"
      ],
      [
        "kenn",
        "en"
      ],
      [
        "eur",
        "em"
      ],
      [
        "Joh",
        "ann"
      ],
      [
        "mit",
        "ten"
      ],
      [
        "Land",
        "es"
      ],
      [
        "sel",
        "be"
      ],
      [
        "vier",
        "zig"
      ],
      [
        "bau",
        "en"
      ],
      [
        "Gr",
        "imm"
      ],
      [
        "Göt",
        "ter"
      ],
      [
        "Gel",
        "d"
      ],
      [
        "Wid",
        "der"
      ],
      [
        "I",
        "n"
      ],
      [
        "f",
        "te"
      ],
      [
        "l",
        "os"
      ],
      [
        "s",
        "a"
      ],
      [
        "u",
        "k"
      ],
      [
        "ehr",
        "ten"
      ],
      [
        "groß",
        "er"
      ],
      [
        "gleich",
        "wie"
      ],
      [
        "kön",
        "nen"
      ],
      [
        "Johann",
        "es"
      ],
      [
        "K",
        "l"
      ],
      [
        "O",
        "r"
      ],
      [
        "T",
        "h"
      ],
      [
        "b",
        "lieb"
      ],
      [
        "k",
        "te"
      ],
      [
        "ha",
        "b"
      ],
      [
        "ra",
        "ben"
      ],
      [
        "wand",
        "eln"
      ],
      [
        "Lei",
        "b"
      ],
      [
        "Fel",
        "d"
      ],
      [
        "Fin",
        "stern"
      ],
      [
        "Gebir",
        "ge"
      ],
      [
        "F",
        "ur"
      ],
      [
        "F",
        "rucht"
      ],
      [
        "f",
        "ten"
      ],
      [
        "sie",
        "ht"
      ],
      [
        "ges",
        "sen"
      ],
      [
        "Sch",
        "i"
      ],
      [
        "lie",
        "be"
      ],
      [
        "Sam",
        "ar"
      ],
      [
        "Gut",
        "es"
      ],
      [
        "Schw",
        "es"
      ],
      [
        "m",
        "t"
      ],
      [
        "ei",
        "ster"
      ],
      [
        "be",
        "f"
      ],
      [
        "dar",
        "an"
      ],
      [
        "Ar",
        "men"
      ],
      [
        "Gef",
        "ä"
      ],
      [
        "H",
        "is"
      ],
      [
        "b",
        "ten"
      ],
      [
        "m",
        "et"
      ],
      [
        "ch",
        "tet"
      ],
      [
        "ern",
        "en"
      ],
      [
        "bes",
        "te"
      ],
      [
        "sto",
        "ßen"
      ],
      [
        "n",
        "ei"
      ],
      [
        "n",
        "ten"
      ],
      [
        "sch",
        "ön"
      ],
      [
        "wer",
        "k"
      ],
      [
        "Geb",
        "ot"
      ],
      [
        "Menschen",
        "kind"
      ],
      [
        "Ho",
        "ff"
      ],
      [
        "O",
        "ch"
      ],
      [
        "R",
        "icht"
      ],
      [
        "g",
        "a"
      ],
      [
        "ge",
        "zogen"
      ],
      [
        "solch",
        "e"
      ],
      [
        "Ger",
        "icht"
      ],
      [
        "prie",
        "ster"
      ],
      [
        "M",
        "ag"
      ],
      [
        "S",
        "äu"
      ],
      [
        "i",
        "pp"
      ],
      [
        "m",
        "a"
      ],
      [
        "t",
        "rei"
      ],
      [
        "v",
        "an"
      ],
      [
        "er",
        "fü"
      ],
      [
        "un",
        "nen"
      ],
      [
        "her",
        "zu"
      ],
      [
        "für",
        "chten"
      ],
      [
        "dies",
        "es"
      ],
      [
        "unser",
        "m"
      ],
      [
        "unser",
        "s"
      ],
      [
        "äum",
        "e"
      ],
      [
        "Freu",
        "de"
      ],
      [
        "Isa",
        "ak"
      ],
      [
        "H",
        "ur"
      ],
      [
        "H",
        "olz"
      ],
      [
        "o",
        "ß"
      ],
      [
        "s",
        "eh"
      ],
      [
        "wei",
        "ter"
      ],
      [
        "wohn",
        "t"
      ],
      [
        "Für",
        "st"
      ],
      [
        "ho",
        "f"
      ],
      [
        "H",
        "il"
      ],
      [
        "g",
        "rü"
      ],
      [
        "z",
        "t"
      ],
      [
        "Sünd",
        "opfer"
      ],
      [
        "Amm",
        "on"
      ],
      [
        ".",
        ")"
      ],
      [
        "F",
        "rü"
      ],
      [
        "F",
        "arren"
      ],
      [
        "W",
        "esen"
      ],
      [
        "p",
        "hat"
      ],
      [
        "u",
        "fen"
      ],
      [
        "ie",
        "ßen"
      ],
      [
        "St",
        "ü"
      ],
      [
        "Er",
        "st"
      ],
      [
        "Er",
        "be"
      ],
      [
        "ro",
        "st"
      ],
      [
        "blei",
        "bt"
      ],
      [
        "Krieg",
        "s"
      ],
      [
        "M",
        "ich"
      ],
      [
        "z",
        "eit"
      ],
      [
        "ver",
        "sch"
      ],
      [
        "St",
        "att"
      ],
      [
        "Sch",
        "anden"
      ],
      [
        "her",
        "ab"
      ],
      [
        "K",
        "na"
      ],
      [
        "S",
        "te"
      ],
      [
        "To",
        "d"
      ],
      [
        "Söh",
        "nen"
      ],
      [
        "Fü",
        "ßen"
      ],
      [
        "Finstern",
        "is"
      ],
      [
        "P",
        "sal"
      ],
      [
        "o",
        "be"
      ],
      [
        "auf",
        "t"
      ],
      [
        "sch",
        "i"
      ],
      [
        "ent",
        "gegen"
      ],
      [
        "find",
        "en"
      ],
      [
        "Frem",
        "dl"
      ],
      [
        "B",
        "es"
      ],
      [
        "K",
        "or"
      ],
      [
        "er",
        "fahren"
      ],
      [
        "auf",
        "er"
      ],
      [
        "mit",
        "einander"
      ],
      [
        "Sch",
        "l"
      ],
      [
        "will",
        "st"
      ],
      [
        "Er",
        "bt"
      ],
      [
        "Fre",
        "und"
      ],
      [
        "hät",
        "te"
      ],
      [
        "Dar",
        "nach"
      ],
      [
        "Fur",
        "cht"
      ],
      [
        "R",
        "ind"
      ],
      [
        "Z",
        "ahl"
      ],
      [
        "t",
        "äg"
      ],
      [
        "un",
        "ger"
      ],
      [
        "auf",
        "s"
      ],
      [
        "be",
        "d"
      ],
      [
        "St",
        "ra"
      ],
      [
        "sei",
        "en"
      ],
      [
        "än",
        "gnis"
      ],
      [
        "wen",
        "ig"
      ],
      [
        "M",
        "eine"
      ],
      [
        "i",
        "ere"
      ],
      [
        "j",
        "ä"
      ],
      [
        "n",
        "ern"
      ],
      [
        "ha",
        "nd"
      ],
      [
        "el",
        "en"
      ],
      [
        "be",
        "ten"
      ],
      [
        "gel",
        "n"
      ],
      [
        "ph",
        "et"
      ],
      [
        "welch",
        "em"
      ],
      [
        "nah",
        "e"
      ],
      [
        "To",
        "des"
      ],
      [
        "Gef",
        "ängnis"
      ],
      [
        "erwähl",
        "t"
      ],
      [
        "His",
        "kia"
      ],
      [
        "K",
        "o"
      ],
      [
        "er",
        "lö"
      ],
      [
        "ne",
        "te"
      ],
      [
        "dar",
        "über"
      ],
      [
        "Hä",
        "nden"
      ],
      [
        "dan",
        "ken"
      ],
      [
        "Pro",
        "phet"
      ],
      [
        "sp",
        "rechen"
      ],
      [
        "Wein",
        "ber"
      ],
      [
        "Man",
        "asse"
      ],
      [
        "eur",
        "er"
      ],
      [
        "Gren",
        "ze"
      ],
      [
        "F",
        "est"
      ],
      [
        "L",
        "ü"
      ],
      [
        "f",
        "al"
      ],
      [
        "t",
        "eil"
      ],
      [
        "nd",
        "er"
      ],
      [
        "lie",
        "f"
      ],
      [
        "gesch",
        "lagen"
      ],
      [
        "dr",
        "itten"
      ],
      [
        "son",
        "st"
      ],
      [
        "Schwes",
        "ter"
      ],
      [
        "Erbt",
        "eil"
      ],
      [
        "H",
        "ohen"
      ],
      [
        "aber",
        "mals"
      ],
      [
        "gef",
        "ä"
      ],
      [
        "Himmel",
        "s"
      ],
      [
        "Christ",
        "o"
      ],
      [
        "Ba",
        "al"
      ],
      [
        "Gü",
        "te"
      ],
      [
        "van",
        "gel"
      ],
      [
        "E",
        "vangel"
      ],
      [
        "H",
        "am"
      ],
      [
        "S",
        "in"
      ],
      [
        "b",
        "eit"
      ],
      [
        "g",
        "ar"
      ],
      [
        "h",
        "ern"
      ],
      [
        "ei",
        "tel"
      ],
      [
        "re",
        "det"
      ],
      [
        "al",
        "e"
      ],
      [
        "ne",
        "un"
      ],
      [
        "las",
        "se"
      ],
      [
        "äu",
        "ch"
      ],
      [
        "An",
        "t"
      ],
      [
        "glei",
        "chen"
      ],
      [
        "N",
        "ame"
      ],
      [
        "k",
        "ä"
      ],
      [
        "n",
        "eu"
      ],
      [
        "st",
        "r"
      ],
      [
        "der",
        "er"
      ],
      [
        "ge",
        "legt"
      ],
      [
        "tu",
        "st"
      ],
      [
        "Nä",
        "chsten"
      ],
      [
        "A",
        "has"
      ],
      [
        "V",
        "ö"
      ],
      [
        "d",
        "or"
      ],
      [
        "br",
        "ingt"
      ],
      [
        "äu",
        "p"
      ],
      [
        "Ein",
        "wohn"
      ],
      [
        "woll",
        "t"
      ],
      [
        "Sei",
        "te"
      ],
      [
        "strei",
        "ten"
      ],
      [
        "i",
        "um"
      ],
      [
        "m",
        "el"
      ],
      [
        "w",
        "a"
      ],
      [
        "sie",
        "b"
      ],
      [
        "Ar",
        "beit"
      ],
      [
        "Evangel",
        "ium"
      ],
      [
        "B",
        "os"
      ],
      [
        "F",
        "uß"
      ],
      [
        "H",
        "el"
      ],
      [
        "W",
        "under"
      ],
      [
        "s",
        "ingen"
      ],
      [
        "ver",
        "w"
      ],
      [
        "gehor",
        "sam"
      ],
      [
        "Dien",
        "st"
      ],
      [
        "wü",
        "st"
      ],
      [
        "hel",
        "fen"
      ],
      [
        "A",
        "lle"
      ],
      [
        "M",
        "es"
      ],
      [
        "k",
        "und"
      ],
      [
        "der",
        "selben"
      ],
      [
        "ar",
        "e"
      ],
      [
        "sch",
        "ä"
      ],
      [
        "ohl",
        "en"
      ],
      [
        "Geb",
        "et"
      ],
      [
        "fiel",
        "en"
      ],
      [
        "empf",
        "angen"
      ],
      [
        "b",
        "l"
      ],
      [
        "g",
        "nä"
      ],
      [
        "au",
        "ben"
      ],
      [
        "au",
        "ßer"
      ],
      [
        "Hö",
        "he"
      ],
      [
        "He",
        "br"
      ],
      [
        "Monat",
        "s"
      ],
      [
        "F",
        "lü"
      ],
      [
        "S",
        "ache"
      ],
      [
        "k",
        "a"
      ],
      [
        "w",
        "ein"
      ],
      [
        "Ü",
        "ber"
      ],
      [
        "and",
        "e"
      ],
      [
        "enn",
        "en"
      ],
      [
        "Ab",
        "sal"
      ],
      [
        "star",
        "k"
      ],
      [
        "leben",
        "dig"
      ],
      [
        "nimm",
        "t"
      ],
      [
        "Dien",
        "er"
      ],
      [
        "Sabb",
        "at"
      ],
      [
        "Ass",
        "yrien"
      ],
      [
        "Ko",
        "mm"
      ],
      [
        "Absal",
        "om"
      ],
      [
        ")",
        ","
      ],
      [
        "G",
        "et"
      ],
      [
        "T",
        "agen"
      ],
      [
        "n",
        "itten"
      ],
      [
        "s",
        "itzen"
      ],
      [
        "t",
        "ot"
      ],
      [
        "ä",
        "te"
      ],
      [
        "er",
        "g"
      ],
      [
        "er",
        "st"
      ],
      [
        "sch",
        "er"
      ],
      [
        "sch",
        "wer"
      ],
      [
        "am",
        "s"
      ],
      [
        "gef",
        "iel"
      ],
      [
        "gere",
        "cht"
      ],
      [
        "tra",
        "ten"
      ],
      [
        "groß",
        "es"
      ],
      [
        "Göt",
        "tern"
      ],
      [
        "je",
        "der"
      ],
      [
        "W",
        "el"
      ],
      [
        "k",
        "el"
      ],
      [
        "er",
        "ste"
      ],
      [
        "ne",
        "ben"
      ],
      [
        "Volk",
        "es"
      ],
      [
        "Br",
        "unnen"
      ],
      [
        "ft",
        "ig"
      ],
      [
        "Men",
        "ge"
      ],
      [
        "ele",
        "ch"
      ],
      [
        "Völk",
        "ern"
      ],
      [
        "B",
        "et"
      ],
      [
        "G",
        "ru"
      ],
      [
        "L",
        "ib"
      ],
      [
        "Z",
        "ie"
      ],
      [
        "a",
        "ffen"
      ],
      [
        "e",
        "ben"
      ],
      [
        "z",
        "ür"
      ],
      [
        "ä",
        "a"
      ],
      [
        "st",
        "ill"
      ],
      [
        "sch",
        "üt"
      ],
      [
        "wei",
        "se"
      ],
      [
        "Se",
        "b"
      ],
      [
        "El",
        "ia"
      ],
      [
        "bet",
        "rü"
      ],
      [
        "bö",
        "sen"
      ],
      [
        "gol",
        "den"
      ],
      [
        "H",
        "äup"
      ],
      [
        "S",
        "eine"
      ],
      [
        "i",
        "schen"
      ],
      [
        "ich",
        "te"
      ],
      [
        "ig",
        "ten"
      ],
      [
        "ver",
        "st"
      ],
      [
        "wer",
        "fen"
      ],
      [
        "hin",
        "ter"
      ],
      [
        "Her",
        "de"
      ],
      [
        "sel",
        "ig"
      ],
      [
        "geb",
        "ar"
      ],
      [
        "antwor",
        "ten"
      ],
      [
        "for",
        "t"
      ],
      [
        "W",
        "eh"
      ],
      [
        "s",
        "est"
      ],
      [
        "ar",
        "bei"
      ],
      [
        "re",
        "chten"
      ],
      [
        "unter",
        "einander"
      ],
      [
        "Vater",
        "hä"
      ],
      [
        "Hä",
        "user"
      ],
      [
        "sag",
        "ten"
      ],
      [
        "Pha",
        "ris"
      ],
      [
        "Jon",
        "athan"
      ],
      [
        "gnä",
        "dig"
      ],
      [
        "S",
        "ol"
      ],
      [
        "T",
        "euf"
      ],
      [
        "T",
        "iere"
      ],
      [
        "er",
        "ei"
      ],
      [
        "st",
        "ein"
      ],
      [
        "st",
        "ra"
      ],
      [
        "el",
        "s"
      ],
      [
        "sch",
        "ar"
      ],
      [
        "Jer",
        "obe"
      ],
      [
        "Geschle",
        "chtern"
      ],
      [
        "tö",
        "ten"
      ],
      [
        "Mau",
        "er"
      ],
      [
        "E",
        "w"
      ],
      [
        "S",
        "ich"
      ],
      [
        "f",
        "ern"
      ],
      [
        "s",
        "ünd"
      ],
      [
        "zu",
        "n"
      ],
      [
        "ar",
        "ja"
      ],
      [
        "ind",
        "en"
      ],
      [
        "geb",
        "ot"
      ],
      [
        "hal",
        "te"
      ],
      [
        "kein",
        "er"
      ],
      [
        "dien",
        "t"
      ],
      [
        "Morgen",
        "s"
      ],
      [
        "ager",
        "ten"
      ],
      [
        "tre",
        "ten"
      ],
      [
        "verder",
        "ben"
      ],
      [
        "vers",
        "öh"
      ],
      [
        "Mag",
        "d"
      ],
      [
        "A",
        "p"
      ],
      [
        "f",
        "and"
      ],
      [
        "ö",
        "st"
      ],
      [
        "St",
        "unde"
      ],
      [
        "on",
        "s"
      ],
      [
        "lich",
        "er"
      ],
      [
        "mächt",
        "ig"
      ],
      [
        "Samar",
        "ia"
      ],
      [
        "Och",
        "sen"
      ],
      [
        "Einwohn",
        "er"
      ],
      [
        "d",
        "igt"
      ],
      [
        "r",
        "er"
      ],
      [
        "an",
        "an"
      ],
      [
        "auf",
        "e"
      ],
      [
        "eu",
        "t"
      ],
      [
        "be",
        "gab"
      ],
      [
        "las",
        "set"
      ],
      [
        "schl",
        "ugen"
      ],
      [
        "El",
        "is"
      ],
      [
        "Jo",
        "ja"
      ],
      [
        "stä",
        "d"
      ],
      [
        "gu",
        "te"
      ],
      [
        "ga",
        "ben"
      ],
      [
        "Ew",
        "igkeit"
      ],
      [
        "D",
        "eine"
      ],
      [
        "S",
        "er"
      ],
      [
        "t",
        "reu"
      ],
      [
        "ü",
        "h"
      ],
      [
        "ot",
        "ten"
      ],
      [
        "or",
        "ben"
      ],
      [
        "du",
        "l"
      ],
      [
        "br",
        "ei"
      ],
      [
        "Wei",
        "sen"
      ],
      [
        "amm",
        "er"
      ],
      [
        "sieben",
        "ten"
      ],
      [
        "scha",
        "ffen"
      ],
      [
        "Frie",
        "de"
      ],
      [
        "gu",
        "ten"
      ],
      [
        "Fei",
        "nden"
      ],
      [
        "B",
        "u"
      ],
      [
        "P",
        "l"
      ],
      [
        "d",
        "ür"
      ],
      [
        "k",
        "et"
      ],
      [
        "o",
        "st"
      ],
      [
        "ö",
        "ren"
      ],
      [
        "he",
        "ben"
      ],
      [
        "rü",
        "b"
      ],
      [
        "Klei",
        "d"
      ],
      [
        "Gi",
        "be"
      ],
      [
        "Bö",
        "ses"
      ],
      [
        "verb",
        "orgen"
      ],
      [
        "Schul",
        "d"
      ],
      [
        "Hoff",
        "nung"
      ],
      [
        "C",
        "hal"
      ],
      [
        "b",
        "rechen"
      ],
      [
        "t",
        "est"
      ],
      [
        "re",
        "ut"
      ],
      [
        "be",
        "de"
      ],
      [
        "ph",
        "t"
      ],
      [
        "Se",
        "elen"
      ],
      [
        "El",
        "i"
      ],
      [
        "stä",
        "nd"
      ],
      [
        "Fei",
        "nd"
      ],
      [
        "G",
        "ad"
      ],
      [
        "M",
        "al"
      ],
      [
        "S",
        "eh"
      ],
      [
        "Z",
        "unge"
      ],
      [
        "l",
        "anz"
      ],
      [
        "ch",
        "es"
      ],
      [
        "ir",
        "gend"
      ],
      [
        "Er",
        "z"
      ],
      [
        "Wor",
        "ten"
      ],
      [
        "Ar",
        "m"
      ],
      [
        "Ha",
        "be"
      ],
      [
        "fu",
        "hr"
      ],
      [
        "D",
        "en"
      ],
      [
        "G",
        "lei"
      ],
      [
        "K",
        "ä"
      ],
      [
        "S",
        "age"
      ],
      [
        "f",
        "est"
      ],
      [
        "h",
        "aus"
      ],
      [
        "m",
        "ah"
      ],
      [
        "m",
        "ag"
      ],
      [
        "p",
        "ha"
      ],
      [
        "w",
        "ach"
      ],
      [
        "der",
        "en"
      ],
      [
        "an",
        "ger"
      ],
      [
        "ig",
        "te"
      ],
      [
        "ne",
        "zar"
      ],
      [
        "ann",
        "en"
      ],
      [
        "Wei",
        "se"
      ],
      [
        "ad",
        "nezar"
      ],
      [
        "wor",
        "en"
      ],
      [
        "os",
        "au"
      ],
      [
        "Gesch",
        "rei"
      ],
      [
        "bö",
        "se"
      ],
      [
        "Moab",
        "iter"
      ],
      [
        "Neb",
        "uk"
      ],
      [
        "berei",
        "tet"
      ],
      [
        "Nebuk",
        "adnezar"
      ],
      [
        "A",
        "hab"
      ],
      [
        "G",
        "ra"
      ],
      [
        "K",
        "al"
      ],
      [
        "M",
        "er"
      ],
      [
        "ei",
        "le"
      ],
      [
        "bei",
        "den"
      ],
      [
        "wohn",
        "te"
      ],
      [
        "fr",
        "essen"
      ],
      [
        "Gef",
        "angen"
      ],
      [
        "Ed",
        "om"
      ],
      [
        "reg",
        "ier"
      ],
      [
        "Ant",
        "l"
      ],
      [
        "Teuf",
        "el"
      ],
      [
        "L",
        "ob"
      ],
      [
        "M",
        "eister"
      ],
      [
        "l",
        "äu"
      ],
      [
        "or",
        "iter"
      ],
      [
        "be",
        "w"
      ],
      [
        "geh",
        "eil"
      ],
      [
        "antwor",
        "teten"
      ],
      [
        "wand",
        "te"
      ],
      [
        "As",
        "a"
      ],
      [
        "zehn",
        "ten"
      ],
      [
        "Ru",
        "he"
      ],
      [
        "Schrift",
        "gel"
      ],
      [
        "jeder",
        "mann"
      ],
      [
        "D",
        "inge"
      ],
      [
        "G",
        "al"
      ],
      [
        "W",
        "it"
      ],
      [
        "g",
        "ott"
      ],
      [
        "q",
        "u"
      ],
      [
        "s",
        "ilber"
      ],
      [
        "St",
        "eine"
      ],
      [
        "im",
        "elech"
      ],
      [
        "ck",
        "ten"
      ],
      [
        "geb",
        "ie"
      ],
      [
        "Jes",
        "um"
      ],
      [
        "Ägyp",
        "ter"
      ],
      [
        "fl",
        "ucht"
      ],
      [
        "Jos",
        "a"
      ],
      [
        "schul",
        "dig"
      ],
      [
        "Chal",
        "d"
      ],
      [
        "Antl",
        "itz"
      ],
      [
        "E",
        "le"
      ],
      [
        "H",
        "aufen"
      ],
      [
        "S",
        "at"
      ],
      [
        "b",
        "eh"
      ],
      [
        "l",
        "inge"
      ],
      [
        "s",
        "uch"
      ],
      [
        "un",
        "ken"
      ],
      [
        "Sch",
        "u"
      ],
      [
        "us",
        "ern"
      ],
      [
        "Ges",
        "chen"
      ],
      [
        "Die",
        "se"
      ],
      [
        "su",
        "cht"
      ],
      [
        "eur",
        "es"
      ],
      [
        "gr",
        "imm"
      ],
      [
        "wis",
        "set"
      ],
      [
        "Richt",
        "er"
      ],
      [
        "täg",
        "lich"
      ],
      [
        "C",
        "her"
      ],
      [
        "D",
        "ein"
      ],
      [
        "L",
        "euten"
      ],
      [
        "g",
        "öt"
      ],
      [
        "g",
        "ang"
      ],
      [
        "l",
        "ob"
      ],
      [
        "m",
        "ä"
      ],
      [
        "s",
        "aß"
      ],
      [
        "au",
        "ßen"
      ],
      [
        "ge",
        "k"
      ],
      [
        "ann",
        "te"
      ],
      [
        "rei",
        "ßen"
      ],
      [
        "An",
        "f"
      ],
      [
        "gegen",
        "über"
      ],
      [
        "To",
        "de"
      ],
      [
        "Herzen",
        "s"
      ],
      [
        "Saul",
        "s"
      ],
      [
        "Wi",
        "llen"
      ],
      [
        "jä",
        "hr"
      ],
      [
        "D",
        "och"
      ],
      [
        "U",
        "r"
      ],
      [
        "l",
        "er"
      ],
      [
        "l",
        "agerten"
      ],
      [
        "er",
        "hö"
      ],
      [
        "es",
        "te"
      ],
      [
        "gesch",
        "woren"
      ],
      [
        "zwei",
        "hundert"
      ],
      [
        "zer",
        "br"
      ],
      [
        "Ru",
        "ben"
      ],
      [
        "fra",
        "gen"
      ],
      [
        "gol",
        "denen"
      ],
      [
        "beg",
        "raben"
      ],
      [
        "Frü",
        "chte"
      ],
      [
        "Pharis",
        "äer"
      ],
      [
        "Glei",
        "ch"
      ],
      [
        "B",
        "oten"
      ],
      [
        "C",
        "h"
      ],
      [
        "F",
        "ett"
      ],
      [
        "J",
        "ung"
      ],
      [
        "s",
        "ern"
      ],
      [
        "w",
        "end"
      ],
      [
        "sel",
        "n"
      ],
      [
        "für",
        "chtet"
      ],
      [
        "woll",
        "ten"
      ],
      [
        "Haupt",
        "mann"
      ],
      [
        "Höh",
        "en"
      ],
      [
        "Ap",
        "ost"
      ],
      [
        "Josa",
        "phat"
      ],
      [
        "Jung",
        "fr"
      ],
      [
        "G",
        "ar"
      ],
      [
        "J",
        "eh"
      ],
      [
        "N",
        "arren"
      ],
      [
        "j",
        "ungen"
      ],
      [
        "m",
        "u"
      ],
      [
        "gen",
        "ug"
      ],
      [
        "it",
        "ern"
      ],
      [
        "ver",
        "schl"
      ],
      [
        "ges",
        "ündigt"
      ],
      [
        "lei",
        "den"
      ],
      [
        "il",
        "t"
      ],
      [
        "tun",
        "g"
      ],
      [
        "Un",
        "ter"
      ],
      [
        "gr",
        "ö"
      ],
      [
        "Schi",
        "ff"
      ],
      [
        "Hohen",
        "priester"
      ],
      [
        "Bos",
        "heit"
      ],
      [
        "Gru",
        "be"
      ],
      [
        "B",
        "ach"
      ],
      [
        "L",
        "ehre"
      ],
      [
        "w",
        "uß"
      ],
      [
        "it",
        "ze"
      ],
      [
        "sch",
        "t"
      ],
      [
        "ot",
        "tet"
      ],
      [
        "Sch",
        "rei"
      ],
      [
        "il",
        "de"
      ],
      [
        "get",
        "r"
      ],
      [
        "geb",
        "aut"
      ],
      [
        "fr",
        "em"
      ],
      [
        "Wi",
        "der"
      ],
      [
        "Jakob",
        "s"
      ],
      [
        "Dan",
        "iel"
      ],
      [
        "Dan",
        "kopfer"
      ],
      [
        "Wahr",
        "lich"
      ],
      [
        "Sel",
        "a"
      ],
      [
        "Hir",
        "ten"
      ],
      [
        "Säu",
        "len"
      ],
      [
        "sieb",
        "zig"
      ],
      [
        "Cher",
        "ub"
      ],
      [
        "R",
        "os"
      ],
      [
        "T",
        "yr"
      ],
      [
        "m",
        "orgen"
      ],
      [
        "s",
        "ehe"
      ],
      [
        "w",
        "eit"
      ],
      [
        "hat",
        "h"
      ],
      [
        "is",
        "sen"
      ],
      [
        "lie",
        "bt"
      ],
      [
        "Un",
        "recht"
      ],
      [
        "Prie",
        "stern"
      ],
      [
        "Leben",
        "s"
      ],
      [
        "Vor",
        "städ"
      ],
      [
        "stä",
        "r"
      ],
      [
        "kon",
        "nte"
      ],
      [
        "L",
        "amm"
      ],
      [
        "W",
        "and"
      ],
      [
        "f",
        "fe"
      ],
      [
        "p",
        "l"
      ],
      [
        "s",
        "ü"
      ],
      [
        "s",
        "se"
      ],
      [
        "vo",
        "llen"
      ],
      [
        "war",
        "um"
      ],
      [
        "ab",
        "t"
      ],
      [
        "nach",
        "dem"
      ],
      [
        "eil",
        "en"
      ],
      [
        "eg",
        "net"
      ],
      [
        "wieder",
        "um"
      ],
      [
        "wand",
        "elt"
      ],
      [
        "Be",
        "f"
      ],
      [
        "kon",
        "nten"
      ],
      [
        "Wolk",
        "en"
      ],
      [
        "Rind",
        "er"
      ],
      [
        "Ele",
        "as"
      ],
      [
        "B",
        "aum"
      ],
      [
        "I",
        "m"
      ],
      [
        "N",
        "ot"
      ],
      [
        "wür",
        "den"
      ],
      [
        "Ber",
        "gen"
      ],
      [
        "führ",
        "ten"
      ],
      [
        "Jün",
        "gl"
      ],
      [
        "gest",
        "orben"
      ],
      [
        "erret",
        "ten"
      ],
      [
        "Hur",
        "erei"
      ],
      [
        "K",
        "am"
      ],
      [
        "L",
        "os"
      ],
      [
        "M",
        "e"
      ],
      [
        "S",
        "yr"
      ],
      [
        "s",
        "ät"
      ],
      [
        "ich",
        "ten"
      ],
      [
        "ge",
        "halten"
      ],
      [
        "ig",
        "es"
      ],
      [
        "ah",
        "ren"
      ],
      [
        "ges",
        "und"
      ],
      [
        "Da",
        "zu"
      ],
      [
        "schl",
        "a"
      ],
      [
        "als",
        "bald"
      ],
      [
        "hei",
        "ß"
      ],
      [
        "Am",
        "oriter"
      ],
      [
        "wen",
        "den"
      ],
      [
        "Gr",
        "und"
      ],
      [
        "Bund",
        "es"
      ],
      [
        "jen",
        "seit"
      ],
      [
        "hiel",
        "t"
      ],
      [
        "freu",
        "en"
      ],
      [
        "gefä",
        "llt"
      ],
      [
        "!",
        "\""
      ],
      [
        "E",
        "he"
      ],
      [
        "H",
        "as"
      ],
      [
        "P",
        "osau"
      ],
      [
        "S",
        "i"
      ],
      [
        "Z",
        "ehn"
      ],
      [
        "g",
        "lauben"
      ],
      [
        "m",
        "ut"
      ],
      [
        "u",
        "chen"
      ],
      [
        "gen",
        "annt"
      ],
      [
        "or",
        "d"
      ],
      [
        "Kön",
        "igen"
      ],
      [
        "Er",
        "d"
      ],
      [
        "pf",
        "lanz"
      ],
      [
        "Ges",
        "icht"
      ],
      [
        "bau",
        "m"
      ],
      [
        "La",
        "ßt"
      ],
      [
        "Scha",
        "den"
      ],
      [
        "Vor",
        "hof"
      ],
      [
        "übr",
        "igen"
      ],
      [
        "Lö",
        "wen"
      ],
      [
        "trei",
        "ben"
      ],
      [
        "Psal",
        "m"
      ],
      [
        "H",
        "u"
      ],
      [
        "H",
        "unger"
      ],
      [
        "M",
        "aul"
      ],
      [
        "T",
        "rüb"
      ],
      [
        "f",
        "ing"
      ],
      [
        "f",
        "anden"
      ],
      [
        "h",
        "au"
      ],
      [
        "l",
        "ose"
      ],
      [
        "des",
        "selben"
      ],
      [
        "alle",
        "zeit"
      ],
      [
        "pf",
        "en"
      ],
      [
        "än",
        "ge"
      ],
      [
        "wä",
        "rt"
      ],
      [
        "dr",
        "itte"
      ],
      [
        "rich",
        "tete"
      ],
      [
        "samm",
        "eln"
      ],
      [
        "find",
        "et"
      ],
      [
        "hol",
        "en"
      ],
      [
        "geda",
        "chte"
      ],
      [
        "Gal",
        "il"
      ],
      [
        "B",
        "al"
      ],
      [
        "D",
        "e"
      ],
      [
        "G",
        "u"
      ],
      [
        "P",
        "al"
      ],
      [
        "R",
        "aub"
      ],
      [
        "ein",
        "s"
      ],
      [
        "sie",
        "h"
      ],
      [
        "le",
        "ge"
      ],
      [
        "le",
        "gten"
      ],
      [
        "Au",
        "ge"
      ],
      [
        "tr",
        "ö"
      ],
      [
        "Se",
        "gen"
      ],
      [
        "sol",
        "ange"
      ],
      [
        "To",
        "re"
      ],
      [
        "Män",
        "nern"
      ],
      [
        "sp",
        "recht"
      ],
      [
        "Aaron",
        "s"
      ],
      [
        "besch",
        "nitten"
      ],
      [
        "ersch",
        "ien"
      ],
      [
        "ipp",
        "en"
      ],
      [
        "Häup",
        "ter"
      ],
      [
        "Ros",
        "se"
      ],
      [
        "Trüb",
        "sal"
      ],
      [
        "H",
        "or"
      ],
      [
        "T",
        "al"
      ],
      [
        "g",
        "ä"
      ],
      [
        "k",
        "us"
      ],
      [
        "r",
        "ä"
      ],
      [
        "z",
        "a"
      ],
      [
        "z",
        "igtausend"
      ],
      [
        "en",
        "tr"
      ],
      [
        "die",
        "weil"
      ],
      [
        "an",
        "on"
      ],
      [
        "aus",
        "ger"
      ],
      [
        "ver",
        "unrein"
      ],
      [
        "vor",
        "über"
      ],
      [
        "uns",
        "rer"
      ],
      [
        "Ges",
        "t"
      ],
      [
        "ieh",
        "t"
      ],
      [
        "Lei",
        "d"
      ],
      [
        "sp",
        "iel"
      ],
      [
        "Jün",
        "gern"
      ],
      [
        "nimm",
        "er"
      ],
      [
        "Zei",
        "ten"
      ],
      [
        "erret",
        "tet"
      ],
      [
        "Anf",
        "ang"
      ],
      [
        "Eleas",
        "ar"
      ],
      [
        "D",
        "am"
      ],
      [
        "E",
        "st"
      ],
      [
        "F",
        "ehl"
      ],
      [
        "L",
        "euch"
      ],
      [
        "P",
        "er"
      ],
      [
        "R",
        "am"
      ],
      [
        "a",
        "te"
      ],
      [
        "f",
        "rüh"
      ],
      [
        "k",
        "öst"
      ],
      [
        "o",
        "ah"
      ],
      [
        "z",
        "ert"
      ],
      [
        "un",
        "ges"
      ],
      [
        "be",
        "z"
      ],
      [
        "be",
        "tete"
      ],
      [
        "on",
        "nen"
      ],
      [
        "tr",
        "au"
      ],
      [
        "Lei",
        "be"
      ],
      [
        "Nach",
        "kommen"
      ],
      [
        "Hil",
        "fe"
      ],
      [
        "Hebr",
        "on"
      ],
      [
        "geheil",
        "igt"
      ],
      [
        "D",
        "ir"
      ],
      [
        "L",
        "ippen"
      ],
      [
        "P",
        "ur"
      ],
      [
        "S",
        "ar"
      ],
      [
        "T",
        "isch"
      ],
      [
        "l",
        "ehren"
      ],
      [
        "in",
        "ne"
      ],
      [
        "sen",
        "den"
      ],
      [
        "dar",
        "aus"
      ],
      [
        "än",
        "ger"
      ],
      [
        "La",
        "st"
      ],
      [
        "gewor",
        "fen"
      ],
      [
        "ho",
        "ben"
      ],
      [
        "bef",
        "ohlen"
      ],
      [
        "golden",
        "e"
      ],
      [
        "wend",
        "ig"
      ],
      [
        "D",
        "ur"
      ],
      [
        "S",
        "il"
      ],
      [
        "S",
        "yrien"
      ],
      [
        "U",
        "m"
      ],
      [
        "k",
        "ne"
      ],
      [
        "da",
        "b"
      ],
      [
        "re",
        "chte"
      ],
      [
        "be",
        "geg"
      ],
      [
        "at",
        "ten"
      ],
      [
        "ro",
        "te"
      ],
      [
        "zieh",
        "t"
      ],
      [
        "kann",
        "t"
      ],
      [
        "Ga",
        "be"
      ],
      [
        "Mau",
        "ern"
      ],
      [
        "Wolk",
        "e"
      ],
      [
        "Vö",
        "gel"
      ],
      [
        "Zie",
        "gen"
      ],
      [
        "Syr",
        "er"
      ],
      [
        "L",
        "enden"
      ],
      [
        "Z",
        "wei"
      ],
      [
        "g",
        "lich"
      ],
      [
        "r",
        "icht"
      ],
      [
        "z",
        "ie"
      ],
      [
        "z",
        "orn"
      ],
      [
        "er",
        "kennen"
      ],
      [
        "ich",
        "en"
      ],
      [
        "ver",
        "geben"
      ],
      [
        "St",
        "aub"
      ],
      [
        "br",
        "ä"
      ],
      [
        "ing",
        "s"
      ],
      [
        "Es",
        "au"
      ],
      [
        "rich",
        "te"
      ],
      [
        "fra",
        "gte"
      ],
      [
        "fol",
        "gen"
      ],
      [
        "rüh",
        "men"
      ],
      [
        "seh",
        "et"
      ],
      [
        "B",
        "as"
      ],
      [
        "F",
        "eigen"
      ],
      [
        "N",
        "imm"
      ],
      [
        "R",
        "ie"
      ],
      [
        "l",
        "aufen"
      ],
      [
        "p",
        "ur"
      ],
      [
        "dem",
        "üt"
      ],
      [
        "ver",
        "ständ"
      ],
      [
        "uns",
        "ere"
      ],
      [
        "ro",
        "m"
      ],
      [
        "ur",
        "z"
      ],
      [
        "heil",
        "ige"
      ],
      [
        "setz",
        "ten"
      ],
      [
        "verkünd",
        "igen"
      ],
      [
        "Lib",
        "anon"
      ],
      [
        "B",
        "ür"
      ],
      [
        "o",
        "bt"
      ],
      [
        "t",
        "h"
      ],
      [
        "Ü",
        "bel"
      ],
      [
        "er",
        "bar"
      ],
      [
        "br",
        "eit"
      ],
      [
        "sel",
        "ber"
      ],
      [
        "Re",
        "den"
      ],
      [
        "tr",
        "ä"
      ],
      [
        "wä",
        "ren"
      ],
      [
        "reu",
        "z"
      ],
      [
        "ri",
        "ffen"
      ],
      [
        "rich",
        "tet"
      ],
      [
        "Lä",
        "mmer"
      ],
      [
        "pre",
        "digen"
      ],
      [
        "Or",
        "d"
      ],
      [
        "Kna",
        "ben"
      ],
      [
        "Sich",
        "em"
      ],
      [
        "regier",
        "te"
      ],
      [
        "zerbr",
        "ochen"
      ],
      [
        "B",
        "ild"
      ],
      [
        "G",
        "lie"
      ],
      [
        "M",
        "il"
      ],
      [
        "R",
        "äuch"
      ],
      [
        "a",
        "z"
      ],
      [
        "b",
        "o"
      ],
      [
        "s",
        "att"
      ],
      [
        "ß",
        "te"
      ],
      [
        "ü",
        "b"
      ],
      [
        "her",
        "vor"
      ],
      [
        "wei",
        "ßt"
      ],
      [
        "zwei",
        "und"
      ],
      [
        "Stä",
        "r"
      ],
      [
        "Hau",
        "t"
      ],
      [
        "gehor",
        "chen"
      ],
      [
        "Nacht",
        "s"
      ],
      [
        "Gel",
        "üb"
      ],
      [
        "Bo",
        "gen"
      ],
      [
        "schw",
        "anger"
      ],
      [
        "hiel",
        "ten"
      ],
      [
        "kennt",
        "nis"
      ],
      [
        "ewi",
        "ge"
      ],
      [
        "ewi",
        "gen"
      ],
      [
        "Schriftgel",
        "ehrten"
      ],
      [
        "A",
        "men"
      ],
      [
        "G",
        "ro"
      ],
      [
        "H",
        "eu"
      ],
      [
        "K",
        "el"
      ],
      [
        "P",
        "as"
      ],
      [
        "a",
        "ßen"
      ],
      [
        "h",
        "m"
      ],
      [
        "h",
        "ret"
      ],
      [
        "er",
        "k"
      ],
      [
        "ei",
        "st"
      ],
      [
        "un",
        "ten"
      ],
      [
        "aus",
        "r"
      ],
      [
        "ganz",
        "em"
      ],
      [
        "opfer",
        "t"
      ],
      [
        "blei",
        "be"
      ],
      [
        "Rei",
        "cht"
      ],
      [
        "Scha",
        "f"
      ],
      [
        "zwanz",
        "igtausend"
      ],
      [
        "flie",
        "hen"
      ],
      [
        "Apost",
        "el"
      ],
      [
        "H",
        "och"
      ],
      [
        "P",
        "il"
      ],
      [
        "d",
        "ige"
      ],
      [
        "k",
        "ehren"
      ],
      [
        "o",
        "d"
      ],
      [
        "u",
        "d"
      ],
      [
        "er",
        "zür"
      ],
      [
        "be",
        "halten"
      ],
      [
        "Sch",
        "ande"
      ],
      [
        "mach",
        "st"
      ],
      [
        "Her",
        "ren"
      ],
      [
        "Mann",
        "es"
      ],
      [
        "Ab",
        "imelech"
      ],
      [
        "rede",
        "ten"
      ],
      [
        "Jah",
        "ren"
      ],
      [
        "Ger",
        "uch"
      ],
      [
        "Jo",
        "as"
      ],
      [
        "Tr",
        "an"
      ],
      [
        "mö",
        "gen"
      ],
      [
        "Weiber",
        "n"
      ],
      [
        "Sim",
        "on"
      ],
      [
        "äum",
        "en"
      ],
      [
        "Freu",
        "den"
      ],
      [
        "Lö",
        "we"
      ],
      [
        "Ze",
        "de"
      ],
      [
        "zerst",
        "reut"
      ],
      [
        "Mi",
        "di"
      ],
      [
        "fre",
        "und"
      ],
      [
        "Flü",
        "gel"
      ],
      [
        "Sol",
        "ches"
      ],
      [
        "Pur",
        "pur"
      ],
      [
        "A",
        "rt"
      ],
      [
        "H",
        "on"
      ],
      [
        "L",
        "ohn"
      ],
      [
        "b",
        "at"
      ],
      [
        "f",
        "et"
      ],
      [
        "o",
        "k"
      ],
      [
        "o",
        "ber"
      ],
      [
        "er",
        "we"
      ],
      [
        "au",
        "st"
      ],
      [
        "ha",
        "rt"
      ],
      [
        "ind",
        "e"
      ],
      [
        "war",
        "f"
      ],
      [
        "ur",
        "m"
      ],
      [
        "Jer",
        "ich"
      ],
      [
        "Wer",
        "ken"
      ],
      [
        "zer",
        "sch"
      ],
      [
        "ri",
        "ß"
      ],
      [
        "Ger",
        "äte"
      ],
      [
        "mü",
        "sse"
      ],
      [
        "Jordan",
        "s"
      ],
      [
        "erfü",
        "llt"
      ],
      [
        "schla",
        "fen"
      ],
      [
        "Reicht",
        "um"
      ],
      [
        "Hon",
        "ig"
      ],
      [
        "L",
        "ein"
      ],
      [
        "N",
        "ar"
      ],
      [
        "O",
        "der"
      ],
      [
        "Z",
        "ent"
      ],
      [
        "n",
        "üt"
      ],
      [
        "p",
        "a"
      ],
      [
        "t",
        "halben"
      ],
      [
        "er",
        "mah"
      ],
      [
        "ch",
        "s"
      ],
      [
        "ge",
        "gessen"
      ],
      [
        "sch",
        "au"
      ],
      [
        "St",
        "rom"
      ],
      [
        "Sch",
        "ät"
      ],
      [
        "Sch",
        "ild"
      ],
      [
        "Ge",
        "d"
      ],
      [
        "get",
        "rost"
      ],
      [
        "geb",
        "lieben"
      ],
      [
        "Ver",
        "stand"
      ],
      [
        "Christ",
        "um"
      ],
      [
        "fl",
        "oh"
      ],
      [
        "Fel",
        "s"
      ],
      [
        "Hö",
        "lle"
      ],
      [
        "Geschle",
        "chter"
      ],
      [
        "Sam",
        "e"
      ],
      [
        "Sim",
        "e"
      ],
      [
        "Fre",
        "v"
      ],
      [
        "Ze",
        "dern"
      ],
      [
        "sechs",
        "hundert"
      ],
      [
        "sünd",
        "igen"
      ],
      [
        "Galil",
        "äa"
      ],
      [
        "ausger",
        "ottet"
      ],
      [
        "zorn",
        "ig"
      ],
      [
        "A",
        "br"
      ],
      [
        "H",
        "i"
      ],
      [
        "H",
        "anan"
      ],
      [
        "N",
        "ie"
      ],
      [
        "P",
        "re"
      ],
      [
        "b",
        "lieben"
      ],
      [
        "ü",
        "he"
      ],
      [
        "er",
        "l"
      ],
      [
        "in",
        "get"
      ],
      [
        "eh",
        "em"
      ],
      [
        "be",
        "geh"
      ],
      [
        "ver",
        "gessen"
      ],
      [
        "Er",
        "kenntnis"
      ],
      [
        "gel",
        "assen"
      ],
      [
        "än",
        "gt"
      ],
      [
        "zer",
        "ris"
      ],
      [
        "opfer",
        "te"
      ],
      [
        "neh",
        "me"
      ],
      [
        "Gr",
        "as"
      ],
      [
        "Tr",
        "aum"
      ],
      [
        "sech",
        "zig"
      ],
      [
        "Phara",
        "os"
      ],
      [
        "All",
        "es"
      ],
      [
        "Kanaan",
        "iter"
      ],
      [
        "Fremdl",
        "ing"
      ],
      [
        "wa",
        "schen"
      ],
      [
        "Jerobe",
        "am"
      ],
      [
        "Stär",
        "ke"
      ],
      [
        "G",
        "assen"
      ],
      [
        "H",
        "all"
      ],
      [
        "H",
        "eth"
      ],
      [
        "S",
        "ter"
      ],
      [
        "j",
        "ag"
      ],
      [
        "o",
        "nd"
      ],
      [
        "z",
        "lich"
      ],
      [
        "ä",
        "ren"
      ],
      [
        "da",
        "d"
      ],
      [
        "den",
        "selben"
      ],
      [
        "an",
        "ken"
      ],
      [
        "zu",
        "rü"
      ],
      [
        "St",
        "ri"
      ],
      [
        "ro",
        "mme"
      ],
      [
        "il",
        "der"
      ],
      [
        "Land",
        "en"
      ],
      [
        "allen",
        "thalben"
      ],
      [
        "hal",
        "tet"
      ],
      [
        "Re",
        "gen"
      ],
      [
        "Se",
        "ba"
      ],
      [
        "drei",
        "hundert"
      ],
      [
        "viel",
        "en"
      ],
      [
        "wand",
        "elte"
      ],
      [
        "fünf",
        "und"
      ],
      [
        "hil",
        "f"
      ],
      [
        "Bruder",
        "s"
      ],
      [
        "zeu",
        "gt"
      ],
      [
        "offenbar",
        "t"
      ],
      [
        "Lein",
        "wand"
      ],
      [
        "B",
        "äume"
      ],
      [
        "G",
        "rü"
      ],
      [
        "J",
        "och"
      ],
      [
        "N",
        "icht"
      ],
      [
        "T",
        "un"
      ],
      [
        "h",
        "ohen"
      ],
      [
        "i",
        "le"
      ],
      [
        "l",
        "etz"
      ],
      [
        "s",
        "ä"
      ],
      [
        "s",
        "itz"
      ],
      [
        "be",
        "tet"
      ],
      [
        "ra",
        "gen"
      ],
      [
        "lei",
        "det"
      ],
      [
        "hin",
        "fort"
      ],
      [
        "eil",
        "end"
      ],
      [
        "ro",
        "cken"
      ],
      [
        "Ge",
        "danken"
      ],
      [
        "tr",
        "ugen"
      ],
      [
        "Ver",
        "der"
      ],
      [
        "Wi",
        "ll"
      ],
      [
        "Hö",
        "r"
      ],
      [
        "Hö",
        "ret"
      ],
      [
        "Hüt",
        "ten"
      ],
      [
        "Tor",
        "en"
      ],
      [
        "Sei",
        "d"
      ],
      [
        "Chald",
        "äer"
      ],
      [
        "grö",
        "ßer"
      ],
      [
        "Cherub",
        "im"
      ],
      [
        "Vorstäd",
        "te"
      ],
      [
        "Dam",
        "as"
      ],
      [
        "Zent",
        "ner"
      ],
      [
        "zerris",
        "sen"
      ],
      [
        "(",
        "-"
      ],
      [
        "E",
        "u"
      ],
      [
        "H",
        "als"
      ],
      [
        "S",
        "u"
      ],
      [
        "f",
        "lei"
      ],
      [
        "f",
        "ft"
      ],
      [
        "h",
        "eut"
      ],
      [
        "r",
        "ig"
      ],
      [
        "ä",
        "h"
      ],
      [
        "ä",
        "re"
      ],
      [
        "ein",
        "mal"
      ],
      [
        "ber",
        "ufen"
      ],
      [
        "ah",
        "el"
      ],
      [
        "vor",
        "zu"
      ],
      [
        "eit",
        "ausend"
      ],
      [
        "sich",
        "er"
      ],
      [
        "br",
        "inge"
      ],
      [
        "eil",
        "t"
      ],
      [
        "dar",
        "ein"
      ],
      [
        "Jes",
        "aja"
      ],
      [
        "Ab",
        "ner"
      ],
      [
        "hil",
        "ft"
      ],
      [
        "zehn",
        "tausend"
      ],
      [
        "kenn",
        "e"
      ],
      [
        "mö",
        "chte"
      ],
      [
        "Abraham",
        "s"
      ],
      [
        "herr",
        "lich"
      ],
      [
        "verder",
        "bt"
      ],
      [
        "fürchte",
        "ten"
      ],
      [
        "geden",
        "ken"
      ],
      [
        "Gefangen",
        "en"
      ],
      [
        "Midi",
        "an"
      ],
      [
        "Jerich",
        "o"
      ],
      [
        "Hi",
        "ob"
      ],
      [
        "(-",
        ")"
      ],
      [
        "\"",
        ","
      ],
      [
        "B",
        "ist"
      ],
      [
        "B",
        "ile"
      ],
      [
        "I",
        "hre"
      ],
      [
        "f",
        "a"
      ],
      [
        "i",
        "ßt"
      ],
      [
        "k",
        "im"
      ],
      [
        "s",
        "ach"
      ],
      [
        "s",
        "äu"
      ],
      [
        "ch",
        "net"
      ],
      [
        "nd",
        "et"
      ],
      [
        "st",
        "ir"
      ],
      [
        "den",
        "ke"
      ],
      [
        "re",
        "ten"
      ],
      [
        "des",
        "sen"
      ],
      [
        "ver",
        "sto"
      ],
      [
        "ra",
        "t"
      ],
      [
        "wie",
        "ger"
      ],
      [
        "Sch",
        "atten"
      ],
      [
        "Sch",
        "wieger"
      ],
      [
        "unter",
        "t"
      ],
      [
        "gesch",
        "ieht"
      ],
      [
        "ste",
        "llte"
      ],
      [
        "Geb",
        "eine"
      ],
      [
        "solch",
        "er"
      ],
      [
        "Sünd",
        "er"
      ],
      [
        "Stamm",
        "es"
      ],
      [
        "hol",
        "z"
      ],
      [
        "Kr",
        "on"
      ],
      [
        "fä",
        "hrt"
      ],
      [
        "Mar",
        "doch"
      ],
      [
        "schrie",
        "en"
      ],
      [
        "Gefä",
        "ße"
      ],
      [
        "Gelüb",
        "de"
      ],
      [
        "Damas",
        "kus"
      ],
      [
        "D",
        "em"
      ],
      [
        "D",
        "ör"
      ],
      [
        "F",
        "rei"
      ],
      [
        "G",
        "lau"
      ],
      [
        "G",
        "ib"
      ],
      [
        "H",
        "in"
      ],
      [
        "K",
        "opf"
      ],
      [
        "L",
        "inken"
      ],
      [
        "N",
        "etz"
      ],
      [
        "R",
        "aum"
      ],
      [
        "f",
        "esten"
      ],
      [
        "t",
        "rie"
      ],
      [
        "ö",
        "ll"
      ],
      [
        "ö",
        "tet"
      ],
      [
        "ü",
        "mm"
      ],
      [
        "ü",
        "stet"
      ],
      [
        "an",
        "rü"
      ],
      [
        "it",
        "h"
      ],
      [
        "oh",
        "er"
      ],
      [
        "ver",
        "dor"
      ],
      [
        "wi",
        "ß"
      ],
      [
        "St",
        "r"
      ],
      [
        "gel",
        "ten"
      ],
      [
        "iter",
        "s"
      ],
      [
        "vier",
        "hundert"
      ],
      [
        "dr",
        "außen"
      ],
      [
        "leben",
        "digen"
      ],
      [
        "herr",
        "schen"
      ],
      [
        "Est",
        "her"
      ],
      [
        "bez",
        "ah"
      ],
      [
        "W",
        "affen"
      ],
      [
        "f",
        "ei"
      ],
      [
        "o",
        "ll"
      ],
      [
        "st",
        "ehe"
      ],
      [
        "au",
        "ber"
      ],
      [
        "ha",
        "ftig"
      ],
      [
        "so",
        "r"
      ],
      [
        "un",
        "gehorsam"
      ],
      [
        "eu",
        "g"
      ],
      [
        "ver",
        "sie"
      ],
      [
        "ges",
        "egnet"
      ],
      [
        "Sch",
        "ar"
      ],
      [
        "will",
        "ig"
      ],
      [
        "le",
        "bte"
      ],
      [
        "at",
        "us"
      ],
      [
        "lie",
        "ber"
      ],
      [
        "ft",
        "igen"
      ],
      [
        "get",
        "ötet"
      ],
      [
        "Ju",
        "gend"
      ],
      [
        "tr",
        "in"
      ],
      [
        "An",
        "gst"
      ],
      [
        "fl",
        "ohen"
      ],
      [
        "Fel",
        "sen"
      ],
      [
        "lä",
        "s"
      ],
      [
        "Zeu",
        "gen"
      ],
      [
        "fä",
        "llt"
      ],
      [
        "zähl",
        "en"
      ],
      [
        "Heiligtum",
        "s"
      ],
      [
        "hern",
        "ach"
      ],
      [
        "Pl",
        "age"
      ],
      [
        "wuß",
        "te"
      ],
      [
        "Tyr",
        "us"
      ],
      [
        "wärt",
        "s"
      ],
      [
        "sieh",
        "st"
      ],
      [
        "Tran",
        "kopfer"
      ],
      [
        "B",
        "eer"
      ],
      [
        "H",
        "at"
      ],
      [
        "S",
        "inn"
      ],
      [
        "Z",
        "ad"
      ],
      [
        "f",
        "in"
      ],
      [
        "f",
        "rucht"
      ],
      [
        "i",
        "ß"
      ],
      [
        "ö",
        "ße"
      ],
      [
        "zu",
        "h"
      ],
      [
        "ach",
        "te"
      ],
      [
        "war",
        "ten"
      ],
      [
        "ver",
        "achtet"
      ],
      [
        "le",
        "be"
      ],
      [
        "Is",
        "ma"
      ],
      [
        "pf",
        "el"
      ],
      [
        "anz",
        "ünd"
      ],
      [
        "ier",
        "en"
      ],
      [
        "neh",
        "m"
      ],
      [
        "ander",
        "es"
      ],
      [
        "su",
        "chte"
      ],
      [
        "eigen",
        "en"
      ],
      [
        "mer",
        "ken"
      ],
      [
        "Bo",
        "den"
      ],
      [
        "seg",
        "nete"
      ],
      [
        "kä",
        "me"
      ],
      [
        "Seb",
        "ul"
      ],
      [
        "Elis",
        "a"
      ],
      [
        "Bu",
        "ße"
      ],
      [
        "gebie",
        "te"
      ],
      [
        "Gleich",
        "nis"
      ],
      [
        "Wider",
        "sach"
      ],
      [
        "Pil",
        "atus"
      ],
      [
        "Zede",
        "kia"
      ],
      [
        "Nar",
        "r"
      ],
      [
        "zurü",
        "ck"
      ],
      [
        "Zad",
        "ok"
      ],
      [
        "D",
        "or"
      ],
      [
        "T",
        "au"
      ],
      [
        "f",
        "ro"
      ],
      [
        "z",
        "ücht"
      ],
      [
        "er",
        "hob"
      ],
      [
        "er",
        "grimm"
      ],
      [
        "ei",
        "de"
      ],
      [
        "sch",
        "lief"
      ],
      [
        "dem",
        "selben"
      ],
      [
        "mit",
        "er"
      ],
      [
        "lich",
        "es"
      ],
      [
        "wei",
        "sen"
      ],
      [
        "dar",
        "f"
      ],
      [
        "fü",
        "hre"
      ],
      [
        "tr",
        "ug"
      ],
      [
        "Hä",
        "l"
      ],
      [
        "El",
        "enden"
      ],
      [
        "Namen",
        "s"
      ],
      [
        "Knecht",
        "es"
      ],
      [
        "Sei",
        "ten"
      ],
      [
        "He",
        "be"
      ],
      [
        "heim",
        "suchen"
      ],
      [
        "fä",
        "lt"
      ],
      [
        "Ei",
        "sen"
      ],
      [
        "Na",
        "pht"
      ],
      [
        "Geh",
        "et"
      ],
      [
        "Gü",
        "ter"
      ],
      [
        "Sem",
        "mel"
      ],
      [
        "Mich",
        "a"
      ],
      [
        "wein",
        "te"
      ],
      [
        "versöh",
        "nen"
      ],
      [
        "vorzu",
        "singen"
      ],
      [
        "Bile",
        "am"
      ],
      [
        "E",
        "nden"
      ],
      [
        "G",
        "il"
      ],
      [
        "L",
        "ab"
      ],
      [
        "T",
        "ie"
      ],
      [
        "T",
        "ha"
      ],
      [
        "W",
        "ä"
      ],
      [
        "W",
        "eil"
      ],
      [
        "d",
        "ün"
      ],
      [
        "g",
        "ilt"
      ],
      [
        "n",
        "on"
      ],
      [
        "u",
        "ja"
      ],
      [
        "ch",
        "n"
      ],
      [
        "da",
        "mm"
      ],
      [
        "ll",
        "ten"
      ],
      [
        "re",
        "ck"
      ],
      [
        "sch",
        "wei"
      ],
      [
        "Gott",
        "lose"
      ],
      [
        "Sch",
        "mach"
      ],
      [
        "Sch",
        "recken"
      ],
      [
        "Sch",
        "atz"
      ],
      [
        "hr",
        "te"
      ],
      [
        "sei",
        "st"
      ],
      [
        "Ver",
        "b"
      ],
      [
        "hl",
        "ehem"
      ],
      [
        "Lei",
        "bes"
      ],
      [
        "versamm",
        "elt"
      ],
      [
        "verbr",
        "ennen"
      ],
      [
        "erwür",
        "gt"
      ],
      [
        "vertil",
        "gt"
      ],
      [
        "erlö",
        "st"
      ],
      [
        "Bet",
        "hlehem"
      ],
      [
        "wach",
        "sen"
      ],
      [
        "Geschen",
        "ke"
      ],
      [
        "hau",
        "pt"
      ],
      [
        "De",
        "cke"
      ],
      [
        "Bas",
        "an"
      ],
      [
        "Abr",
        "am"
      ],
      [
        "frucht",
        "bar"
      ],
      [
        "2",
        "2"
      ],
      [
        "D",
        "r"
      ],
      [
        "K",
        "n"
      ],
      [
        "Z",
        "ur"
      ],
      [
        "b",
        "itten"
      ],
      [
        "g",
        "ib"
      ],
      [
        "m",
        "ehl"
      ],
      [
        "r",
        "ings"
      ],
      [
        "u",
        "e"
      ],
      [
        "en",
        "z"
      ],
      [
        "ei",
        "cht"
      ],
      [
        "ie",
        "d"
      ],
      [
        "ge",
        "wiß"
      ],
      [
        "ha",
        "ssen"
      ],
      [
        "pf",
        "le"
      ],
      [
        "wei",
        "den"
      ],
      [
        "Ge",
        "dul"
      ],
      [
        "Die",
        "ser"
      ],
      [
        "Re",
        "habe"
      ],
      [
        "wä",
        "hret"
      ],
      [
        "wohn",
        "e"
      ],
      [
        "Stä",
        "mme"
      ],
      [
        "ander",
        "en"
      ],
      [
        "Lei",
        "chn"
      ],
      [
        "weg",
        "geführt"
      ],
      [
        "Lie",
        "d"
      ],
      [
        "fra",
        "gten"
      ],
      [
        "Tür",
        "en"
      ],
      [
        "hät",
        "ten"
      ],
      [
        "Fl",
        "uch"
      ],
      [
        "Erst",
        "geb"
      ],
      [
        "Über",
        "tre"
      ],
      [
        "Get",
        "rei"
      ],
      [
        "betrü",
        "bt"
      ],
      [
        "Vaterhä",
        "usern"
      ],
      [
        "beh",
        "ü"
      ],
      [
        "Erd",
        "bo"
      ],
      [
        "Räuch",
        "werk"
      ],
      [
        "freund",
        "lich"
      ],
      [
        "stir",
        "bt"
      ],
      [
        "zuh",
        "auf"
      ],
      [
        "Napht",
        "hal"
      ],
      [
        "Erdbo",
        "den"
      ],
      [
        "B",
        "ett"
      ],
      [
        "H",
        "alle"
      ],
      [
        "K",
        "ir"
      ],
      [
        "P",
        "est"
      ],
      [
        "T",
        "rost"
      ],
      [
        "i",
        "us"
      ],
      [
        "j",
        "unge"
      ],
      [
        "s",
        "atz"
      ],
      [
        "t",
        "ie"
      ],
      [
        "st",
        "ie"
      ],
      [
        "an",
        "beten"
      ],
      [
        "un",
        "st"
      ],
      [
        "re",
        "ckte"
      ],
      [
        "um",
        "kommen"
      ],
      [
        "il",
        "enz"
      ],
      [
        "Ver",
        "heiß"
      ],
      [
        "lau",
        "ter"
      ],
      [
        "ru",
        "fe"
      ],
      [
        "kann",
        "st"
      ]
    ]
  }
}