{
  "version": "1.0",
  "truncation": null,
  "padding": null,
  "added_tokens": [
    {
      "id": 0,
      "content": "[UNK]",
      "single_word": false,
      "lstrip": false,
      "rstrip": false,
      "normalized": false,
      "special": true
    }
  ],
  "normalizer": null,
  "pre_tokenizer": {
    "type": "Whitespace"
  },
  "post_processor": null,
  "decoder": null,
  "model": {
    "type": "BPE",
    "dropout": null,
    "unk_token": "[UNK]",
    "continuing_subword_prefix": null,
    "end_of_word_suffix": null,
    "fuse_unk": false,
    "byte_fallback": false,
    "ignore_merges": false,
    "vocab": {
      "[UNK]": 0,
      "!": 1,
      "\"": 2,
      "&": 3,
      "'": 4,
      "(": 5,
      ")": 6,
      ",": 7,
      "-": 8,
      ".": 9,
      "0": 10,
      "1": 11,
      "2": 12,
      "3": 13,
      "4": 14,
      "5": 15,
      "6": 16,
      "7": 17,
      "8": 18,
      "9": 19,
      ":": 20,
      ";": 21,
      "?": 22,
      "A": 23,
      "B": 24,
      "C": 25,
      "D": 26,
      "E": 27,
      "F": 28,
      "G": 29,
      "H": 30,
      "I": 31,
      "J": 32,
      "K": 33,
      "L": 34,
      "M": 35,
      "N": 36,
      "O": 37,
      "P": 38,
      "Q": 39,
      "R": 40,
      "S": 41,
      "T": 42,
      "U": 43,
      "V": 44,
      "W": 45,
      "Y": 46,
      "Z": 47,
      "[": 48,
      "]": 49,
      "a": 50,
      "b": 51,
      "c": 52,
      "d": 53,
      "e": 54,
      "f": 55,
      "g": 56,
      "h": 57,
      "i": 58,
      "j": 59,
      "k": 60,
      "l": 61,
      "m": 62,
      "n": 63,
      "o": 64,
      "p": 65,
      "q": 66,
      "r": 67,
      "s": 68,
      "t": 69,
      "u": 70,
      "v": 71,
      "w": 72,
      "x": 73,
      "y": 74,
      "z": 75,
      "{": 76,
      "}": 77,
      "Ä": 78,
      "Ö": 79,
      "Ü": 80,
      "ß": 81,
      "ä": 82,
      "ö": 83,
      "ü": 84,
      "er": 85,
      "en": 86,
      "th": 87,
      "nd": 88,
      "in": 89,
      "ch": 90,
      "the": 91,
      "es": 92,
      "and": 93,
      "ie": 94,
      "und": 95,
      "ll": 96,
      "is": 97,
      "or": 98,
      "ha": 99,
      "of": 100,
      "on": 101,
      "ou": 102,
      "ich": 103,
      "se": 104,
      "an": 105,
      "ar": 106,
      "as": 107,
      "it": 108,
      "to": 109,
      "he": 110,
      "te": 111,
      "re": 112,
      "au": 113,
      "der": 114,
      "de": 115,
      "wi": 116,
      "be": 117,
      "at": 118,
      "ge": 119,
      "me": 120,
      "le": 121,
      "st": 122,
      "den": 123,
      "ing": 124,
      "da": 125,
      "ra": 126,
      "un": 127,
      "sa": 128,
      "ih": 129,
      "die": 130,
      "ig": 131,
      "so": 132,
      "zu": 133,
      "im": 134,
      "om": 135,
      "ein": 136,
      "all": 137,
      "ed": 138,
      "ten": 139,
      "for": 140,
      "ir": 141,
      "you": 142,
      "el": 143,
      "ber": 144,
      "ter": 145,
      "ot": 146,
      "wh": 147,
      "ver": 148,
      "il": 149,
      "sie": 150,
      "al": 151,
      "we": 152,
      "id": 153,
      "that": 154,
      "ere": 155,
      "icht": 156,
      "ah": 157,
      "am": 158,
      "sha": 159,
      "ve": 160,
      "gen": 161,
      "sp": 162,
      "ist": 163,
      "sein": 164,
      "ben": 165,
      "des": 166,
      "will": 167,
      "his": 168,
      "ol": 169,
      "shall": 170,
      "ach": 171,
      "ut": 172,
      "das": 173,
      "nicht": 174,
      "daß": 175,
      "ke": 176,
      "auf": 177,
      "ow": 178,
      "HE": 179,
      "HER": 180,
      "HERR": 181,
      "Und": 182,
      "ur": 183,
      "ind": 184,
      "od": 185,
      "ne": 186,
      "him": 187,
      "dem": 188,
      "ro": 189,
      "was": 190,
      "with": 191,
      "war": 192,
      "men": 193,
      "us": 194,
      "And": 195,
      "hat": 196,
      "them": 197,
      "ce": 198,
      "ther": 199,
      "em": 200,
      "ren": 201,
      "sch": 202,
      "mit": 203,
      "ies": 204,
      "they": 205,
      "von": 206,
      "eu": 207,
      "wer": 208,
      "ab": 209,
      "aus": 210,
      "ht": 211,
      "hen": 212,
      "wir": 213,
      "Is": 214,
      "her": 215,
      "ag": 216,
      "um": 217,
      "rach": 218,
      "aber": 219,
      "oh": 220,
      "rael": 221,
      "ihr": 222,
      "Israel": 223,
      "et": 224,
      "soll": 225,
      "not": 226,
      "fr": 227,
      "du": 228,
      "ihn": 229,
      "ma": 230,
      "ck": 231,
      "ern": 232,
      "man": 233,
      "sen": 234,
      "dein": 235,
      "your": 236,
      "ad": 237,
      "my": 238,
      "Da": 239,
      "wor": 240,
      "up": 241,
      "ott": 242,
      "hr": 243,
      "li": 244,
      "sprach": 245,
      "mein": 246,
      "unto": 247,
      "la": 248,
      "Gott": 249,
      "op": 250,
      "He": 251,
      "have": 252,
      "wie": 253,
      "ion": 254,
      "one": 255,
      "out": 256,
      "God": 257,
      "ven": 258,
      "ges": 259,
      "are": 260,
      "The": 261,
      "who": 262,
      "said": 263,
      "tr": 264,
      "from": 265,
      "their": 266,
      "sel": 267,
      "enn": 268,
      "which": 269,
      "ön": 270,
      "ain": 271,
      "fe": 272,
      "lo": 273,
      "vor": 274,
      "br": 275,
      "co": 276,
      "St": 277,
      "son": 278,
      "est": 279,
      "ess": 280,
      "ame": 281,
      "fore": 282,
      "ent": 283,
      "hou": 284,
      "HERRN": 285,
      "pe": 286,
      "Sch": 287,
      "weh": 288,
      "ohn": 289,
      "king": 290,
      "Yah": 291,
      "wird": 292,
      "ihm": 293,
      "Yahweh": 294,
      "if": 295,
      "sich": 296,
      "Ge": 297,
      "denn": 298,
      "ts": 299,
      "thou": 300,
      "RD": 301,
      "LO": 302,
      "LORD": 303,
      "there": 304,
      "fer": 305,
      "Kön": 306,
      "lich": 307,
      "no": 308,
      "ür": 309,
      "ser": 310,
      "do": 311,
      "ld": 312,
      "euch": 313,
      "lt": 314,
      "ye": 315,
      "über": 316,
      "cht": 317,
      "König": 318,
      "our": 319,
      "pr": 320,
      "lie": 321,
      "old": 322,
      "ord": 323,
      "Er": 324,
      "ight": 325,
      "go": 326,
      "hin": 327,
      "We": 328,
      "say": 329,
      "fa": 330,
      "ste": 331,
      "were": 332,
      "ose": 333,
      "day": 334,
      "by": 335,
      "werden": 336,
      "nach": 337,
      "alle": 338,
      "wo": 339,
      "ause": 340,
      "wa": 341,
      "Kind": 342,
      "mir": 343,
      "os": 344,
      "but": 345,
      "thy": 346,
      "auch": 347,
      "ild": 348,
      "pt": 349,
      "this": 350,
      "kom": 351,
      "ann": 352,
      "also": 353,
      "ers": 354,
      "ly": 355,
      "ak": 356,
      "af": 357,
      "dar": 358,
      "dir": 359,
      "eh": 360,
      "sind": 361,
      "ihnen": 362,
      "mach": 363,
      "Jes": 364,
      "hear": 365,
      "olk": 366,
      "own": 367,
      "Sohn": 368,
      "ation": 369,
      "Ju": 370,
      "came": 371,
      "ib": 372,
      "vid": 373,
      "David": 374,
      "hand": 375,
      "again": 376,
      "unter": 377,
      "peop": 378,
      "land": 379,
      "ine": 380,
      "had": 381,
      "ant": 382,
      "house": 383,
      "when": 384,
      "come": 385,
      "eine": 386,
      "Volk": 387,
      "Her": 388,
      "uns": 389,
      "thing": 390,
      "Jer": 391,
      ".\"": 392,
      "way": 393,
      "seine": 394,
      "oug": 395,
      "com": 396,
      "uch": 397,
      "ong": 398,
      "rie": 399,
      "people": 400,
      "ted": 401,
      "Le": 402,
      "child": 403,
      "einen": 404,
      "mich": 405,
      "dies": 406,
      "igen": 407,
      "ive": 408,
      "into": 409,
      "ward": 410,
      "ath": 411,
      "ill": 412,
      "ger": 413,
      "dich": 414,
      "thee": 415,
      "ok": 416,
      "ever": 417,
      "Denn": 418,
      "Br": 419,
      "Land": 420,
      "Ze": 421,
      "fen": 422,
      "ihre": 423,
      "So": 424,
      "For": 425,
      "now": 426,
      "bo": 427,
      "urn": 428,
      "Th": 429,
      "zum": 430,
      "children": 431,
      "ness": 432,
      "lem": 433,
      "ast": 434,
      "before": 435,
      "set": 436,
      "ise": 437,
      "Kinder": 438,
      "ide": 439,
      "ph": 440,
      "went": 441,
      "ac": 442,
      "has": 443,
      "Re": 444,
      "word": 445,
      "Juda": 446,
      "cause": 447,
      "ze": 448,
      "usa": 449,
      "Ab": 450,
      "ves": 451,
      "ity": 452,
      "iel": 453,
      "ien": 454,
      "hö": 455,
      "fü": 456,
      "zen": 457,
      "Jesus": 458,
      "Se": 459,
      "Jerusa": 460,
      "Jerusalem": 461,
      "against": 462,
      "les": 463,
      "she": 464,
      "ken": 465,
      "father": 466,
      "But": 467,
      "gan": 468,
      "under": 469,
      "ear": 470,
      "red": 471,
      "habe": 472,
      "haben": 473,
      "bre": 474,
      "Ich": 475,
      "kommen": 476,
      "spr": 477,
      "ier": 478,
      "con": 479,
      "ho": 480,
      "urch": 481,
      "over": 482,
      "ans": 483,
      "pro": 484,
      "hast": 485,
      "gy": 486,
      "tet": 487,
      "igh": 488,
      "ßen": 489,
      "ia": 490,
      "ater": 491,
      "orn": 492,
      "gel": 493,
      "ru": 494,
      "chen": 495,
      "Be": 496,
      "Sie": 497,
      "hatte": 498,
      "kam": 499,
      "mt": 500,
      "allen": 501,
      "gt": 502,
      "Ges": 503,
      "ga": 504,
      "offer": 505,
      "iah": 506,
      "wel": 507,
      "made": 508,
      "ft": 509,
      "upon": 510,
      "ünd": 511,
      "gl": 512,
      "saying": 513,
      "mand": 514,
      "ret": 515,
      "gre": 516,
      "ung": 517,
      "get": 518,
      "ake": 519,
      "seinen": 520,
      "bei": 521,
      "durch": 522,
      "bt": 523,
      "mer": 524,
      "geben": 525,
      "fo": 526,
      "led": 527,
      "sten": 528,
      "ore": 529,
      "Es": 530,
      "ved": 531,
      "gro": 532,
      "hath": 533,
      "für": 534,
      "ice": 535,
      "even": 536,
      "let": 537,
      "end": 538,
      "waren": 539,
      "ith": 540,
      "other": 541,
      "stand": 542,
      "ought": 543,
      "aul": 544,
      "mel": 545,
      "ba": 546,
      "oun": 547,
      "noch": 548,
      "pla": 549,
      "chte": 550,
      "nen": 551,
      "deine": 552,
      "may": 553,
      "Was": 554,
      "dr": 555,
      "Men": 556,
      "did": 557,
      "Then": 558,
      "gesch": 559,
      "fu": 560,
      "Gottes": 561,
      "serv": 562,
      "ous": 563,
      "bring": 564,
      "ap": 565,
      "rt": 566,
      "als": 567,
      "lei": 568,
      "rei": 569,
      "än": 570,
      "ging": 571,
      "sed": 572,
      "meine": 573,
      "su": 574,
      "Chr": 575,
      "las": 576,
      "seinem": 577,
      "ip": 578,
      "age": 579,
      "Jo": 580,
      "sons": 581,
      "bis": 582,
      "geb": 583,
      "down": 584,
      "nun": 585,
      "things": 586,
      "know": 587,
      "zig": 588,
      "pries": 589,
      "hal": 590,
      "Lord": 591,
      "ass": 592,
      "Aber": 593,
      "As": 594,
      "wei": 595,
      "Hand": 596,
      "ep": 597,
      "They": 598,
      "every": 599,
      "vo": 600,
      "ndern": 601,
      "spricht": 602,
      "bro": 603,
      "phe": 604,
      "bu": 605,
      "alles": 606,
      "Wor": 607,
      "Mensch": 608,
      "iter": 609,
      "its": 610,
      "ßt": 611,
      "ars": 612,
      "alt": 613,
      "thr": 614,
      "ja": 615,
      "because": 616,
      "ct": 617,
      "tre": 618,
      "gr": 619,
      "great": 620,
      "ime": 621,
      "mu": 622,
      "name": 623,
      "after": 624,
      "Wer": 625,
      "par": 626,
      "det": 627,
      "ner": 628,
      "any": 629,
      "offering": 630,
      "make": 631,
      "see": 632,
      "sin": 633,
      "Haus": 634,
      "sondern": 635,
      "ces": 636,
      "Der": 637,
      "tern": 638,
      "hold": 639,
      "Christ": 640,
      "nor": 641,
      "qu": 642,
      "sei": 643,
      "glich": 644,
      "ither": 645,
      "keit": 646,
      "self": 647,
      "ob": 648,
      "An": 649,
      "earth": 650,
      "zer": 651,
      "these": 652,
      "wider": 653,
      "then": 654,
      "sollen": 655,
      "ite": 656,
      "opfer": 657,
      "wenn": 658,
      "je": 659,
      "sh": 660,
      "bes": 661,
      "per": 662,
      "seiner": 663,
      "away": 664,
      "Die": 665,
      "ige": 666,
      "Al": 667,
      "cr": 668,
      "Zeit": 669,
      "llen": 670,
      "tun": 671,
      "che": 672,
      "like": 673,
      "Kne": 674,
      "ile": 675,
      "dom": 676,
      "command": 677,
      "ahr": 678,
      "ju": 679,
      "wä": 680,
      "zo": 681,
      "sand": 682,
      "ihren": 683,
      "sollst": 684,
      "gte": 685,
      "put": 686,
      "give": 687,
      "Ar": 688,
      "igt": 689,
      "zur": 690,
      "acc": 691,
      "those": 692,
      "gh": 693,
      "ue": 694,
      "Vater": 695,
      "Am": 696,
      "lan": 697,
      "oder": 698,
      "gehen": 699,
      "wieder": 700,
      "Un": 701,
      "among": 702,
      "str": 703,
      "oses": 704,
      "Au": 705,
      "hil": 706,
      "vom": 707,
      "ches": 708,
      "bin": 709,
      "öh": 710,
      "You": 711,
      "amen": 712,
      "mo": 713,
      "ites": 714,
      "days": 715,
      "brought": 716,
      "To": 717,
      "bel": 718,
      "bst": 719,
      "city": 720,
      "gef": 721,
      "wis": 722,
      "Moses": 723,
      "There": 724,
      "ire": 725,
      "euer": 726,
      "Mann": 727,
      "ße": 728,
      "adt": 729,
      "ute": 730,
      "chten": 731,
      "len": 732,
      "arum": 733,
      "Saul": 734,
      "Hä": 735,
      "heart": 736,
      "call": 737,
      "gegen": 738,
      "might": 739,
      "two": 740,
      "Judah": 741,
      "ish": 742,
      "Stadt": 743,
      "hol": 744,
      "good": 745,
      "Menschen": 746,
      "Hause": 747,
      "work": 748,
      "Stä": 749,
      "sagen": 750,
      "ording": 751,
      "Ver": 752,
      "hren": 753,
      "off": 754,
      "shalt": 755,
      "Das": 756,
      "lu": 757,
      "tete": 758,
      "wohn": 759,
      "ty": 760,
      "etz": 761,
      "shou": 762,
      "bet": 763,
      "tain": 764,
      "hea": 765,
      "po": 766,
      "na": 767,
      "üt": 768,
      "Now": 769,
      "place": 770,
      "than": 771,
      "well": 772,
      "ment": 773,
      "Pr": 774,
      "har": 775,
      "ants": 776,
      "ough": 777,
      "ub": 778,
      "according": 779,
      "ibe": 780,
      "lassen": 781,
      "Mose": 782,
      "mehr": 783,
      "einem": 784,
      "selbst": 785,
      "forth": 786,
      "take": 787,
      "sam": 788,
      "mon": 789,
      "vil": 790,
      "heil": 791,
      "Him": 792,
      "took": 793,
      "ca": 794,
      "oth": 795,
      "Tag": 796,
      "cken": 797,
      "eat": 798,
      "gypt": 799,
      "itt": 800,
      "Himmel": 801,
      "doch": 802,
      "Du": 803,
      "nie": 804,
      "acht": 805,
      "pass": 806,
      "therefore": 807,
      "Pries": 808,
      "gi": 809,
      "more": 810,
      "iten": 811,
      "Egypt": 812,
      "whom": 813,
      "spe": 814,
      "what": 815,
      "ations": 816,
      "deinen": 817,
      "sal": 818,
      "inde": 819,
      "Je": 820,
      "ance": 821,
      "sol": 822,
      "ied": 823,
      "nde": 824,
      "Lande": 825,
      "Lev": 826,
      "neither": 827,
      "dis": 828,
      "nah": 829,
      "sto": 830,
      "sprachen": 831,
      "gyp": 832,
      "Me": 833,
      "ins": 834,
      "Ägyp": 835,
      "bl": 836,
      "sent": 837,
      "Fre": 838,
      "macht": 839,
      "hor": 840,
      "Herr": 841,
      "ple": 842,
      "Ja": 843,
      "Siehe": 844,
      "Ba": 845,
      "heit": 846,
      "Beh": 847,
      "yr": 848,
      "cher": 849,
      "essen": 850,
      "hrt": 851,
      "pre": 852,
      "aron": 853,
      "gew": 854,
      "Behold": 855,
      "Wasser": 856,
      "antwor": 857,
      "Ne": 858,
      "iden": 859,
      "ister": 860,
      "Aaron": 861,
      "pra": 862,
      "ould": 863,
      "Tage": 864,
      "kein": 865,
      "ree": 866,
      "fir": 867,
      "When": 868,
      "ün": 869,
      "zie": 870,
      "ving": 871,
      "should": 872,
      "burn": 873,
      "dest": 874,
      "It": 875,
      "selves": 876,
      "getan": 877,
      "Wort": 878,
      "leich": 879,
      "Wh": 880,
      "wom": 881,
      "ighte": 882,
      "brother": 883,
      "Sünd": 884,
      "ex": 885,
      "chter": 886,
      "Phil": 887,
      "Namen": 888,
      "seven": 889,
      "through": 890,
      "sou": 891,
      "lä": 892,
      "augh": 893,
      "itten": 894,
      "Priester": 895,
      "answer": 896,
      "woh": 897,
      "viel": 898,
      "deinem": 899,
      "rede": 900,
      "behold": 901,
      "att": 902,
      "Sam": 903,
      "aughter": 904,
      "El": 905,
      "jud": 906,
      "evil": 907,
      "ster": 908,
      "hab": 909,
      "neh": 910,
      "pen": 911,
      "Bl": 912,
      "ure": 913,
      "heard": 914,
      "hund": 915,
      "andern": 916,
      "saith": 917,
      "where": 918,
      "Ha": 919,
      "zwei": 920,
      "eure": 921,
      "undert": 922,
      "hundred": 923,
      "ighteous": 924,
      "Israels": 925,
      "esen": 926,
      "vier": 927,
      "Ein": 928,
      "All": 929,
      "gere": 930,
      "siehe": 931,
      "gra": 932,
      "don": 933,
      "righteous": 934,
      "äu": 935,
      "öt": 936,
      "time": 937,
      "ign": 938,
      "agt": 939,
      "If": 940,
      "Man": 941,
      "rich": 942,
      "sollt": 943,
      "ham": 944,
      "saw": 945,
      "sah": 946,
      "heaven": 947,
      "ink": 948,
      "til": 949,
      "Also": 950,
      "tru": 951,
      "Darum": 952,
      "kommt": 953,
      "called": 954,
      "law": 955,
      "Abra": 956,
      "Ägypten": 957,
      "yes": 958,
      "wand": 959,
      "ic": 960,
      "han": 961,
      "Gesch": 962,
      "jo": 963,
      "nis": 964,
      "turn": 965,
      "orgen": 966,
      "ses": 967,
      "Heil": 968,
      "machen": 969,
      "liver": 970,
      "Mo": 971,
      "Brü": 972,
      "aters": 973,
      "elt": 974,
      "sehen": 975,
      "ihrer": 976,
      "such": 977,
      "med": 978,
      "irit": 979,
      "Wenn": 980,
      "In": 981,
      "bar": 982,
      "wür": 983,
      "utter": 984,
      "Ber": 985,
      "words": 986,
      "first": 987,
      "unser": 988,
      "daughter": 989,
      "deliver": 990,
      "gegeben": 991,
      "thousand": 992,
      "rü": 993,
      "sieben": 994,
      "ful": 995,
      "cked": 996,
      "Königs": 997,
      "einer": 998,
      "si": 999
    },
    "merges": [
      [
        "e",
        "r"
      ],
      [
        "e",
        "n"
      ],
      [
        "t",
        "h"
      ],
      [
        "n",
        "d"
      ],
      [
        "i",
        "n"
      ],
      [
        "c",
        "h"
      ],
      [
        "th",
        "e"
      ],
      [
        "e",
        "s"
      ],
      [
        "a",
        "nd"
      ],
      [
        "i",
        "e"
      ],
      [
        "u",
        "nd"
      ],
      [
        "l",
        "l"
      ],
      [
        "i",
        "s"
      ],
      [
        "o",
        "r"
      ],
      [
        "h",
        "a"
      ],
      [
        "o",
        "f"
      ],
      [
        "o",
        "n"
      ],
      [
        "o",
        "u"
      ],
      [
        "i",
        "ch"
      ],
      [
        "s",
        "e"
      ],
      [
        "a",
        "n"
      ],
      [
        "a",
        "r"
      ],
      [
        "a",
        "s"
      ],
      [
        "i",
        "t"
      ],
      [
        "t",
        "o"
      ],
      [
        "h",
        "e"
      ],
      [
        "t",
        "e"
      ],
      [
        "r",
        "e"
      ],
      [
        "a",
        "u"
      ],
      [
        "d",
        "er"
      ],
      [
        "d",
        "e"
      ],
      [
        "w",
        "i"
      ],
      [
        "b",
        "e"
      ],
      [
        "a",
        "t"
      ],
      [
        "g",
        "e"
      ],
      [
        "m",
        "e"
      ],
      [
        "l",
        "e"
      ],
      [
        "s",
        "t"
      ],
      [
        "d",
        "en"
      ],
      [
        "in",
        "g"
      ],
      [
        "d",
        "a"
      ],
      [
        "r",
        "a"
      ],
      [
        "u",
        "n"
      ],
      [
        "s",
        "a"
      ],
      [
        "i",
        "h"
      ],
      [
        "d",
        "ie"
      ],
      [
        "i",
        "g"
      ],
      [
        "s",
        "o"
      ],
      [
        "z",
        "u"
      ],
      [
        "i",
        "m"
      ],
      [
        "o",
        "m"
      ],
      [
        "e",
        "in"
      ],
      [
        "a",
        "ll"
      ],
      [
        "e",
        "d"
      ],
      [
        "t",
        "en"
      ],
      [
        "f",
        "or"
      ],
      [
        "i",
        "r"
      ],
      [
        "y",
        "ou"
      ],
      [
        "e",
        "l"
      ],
      [
        "b",
        "er"
      ],
      [
        "t",
        "er"
      ],
      [
        "o",
        "t"
      ],
      [
        "w",
        "h"
      ],
      [
        "v",
        "er"
      ],
      [
        "i",
        "l"
      ],
      [
        "s",
        "ie"
      ],
      [
        "a",
        "l"
      ],
      [
        "w",
        "e"
      ],
      [
        "i",
        "d"
      ],
      [
        "th",
        "at"
      ],
      [
        "er",
        "e"
      ],
      [
        "ich",
        "t"
      ],
      [
        "a",
        "h"
      ],
      [
        "a",
        "m"
      ],
      [
        "s",
        "ha"
      ],
      [
        "v",
        "e"
      ],
      [
        "g",
        "en"
      ],
      [
        "s",
        "p"
      ],
      [
        "is",
        "t"
      ],
      [
        "se",
        "in"
      ],
      [
        "b",
        "en"
      ],
      [
        "d",
        "es"
      ],
      [
        "wi",
        "ll"
      ],
      [
        "h",
        "is"
      ],
      [
        "o",
        "l"
      ],
      [
        "sha",
        "ll"
      ],
      [
        "a",
        "ch"
      ],
      [
        "u",
        "t"
      ],
      [
        "d",
        "as"
      ],
      [
        "n",
        "icht"
      ],
      [
        "da",
        "ß"
      ],
      [
        "k",
        "e"
      ],
      [
        "au",
        "f"
      ],
      [
        "o",
        "w"
      ],
      [
        "H",
        "E"
      ],
      [
        "HE",
        "R"
      ],
      [
        "HER",
        "R"
      ],
      [
        "U",
        "nd"
      ],
      [
        "u",
        "r"
      ],
      [
        "i",
        "nd"
      ],
      [
        "o",
        "d"
      ],
      [
        "n",
        "e"
      ],
      [
        "h",
        "im"
      ],
      [
        "de",
        "m"
      ],
      [
        "r",
        "o"
      ],
      [
        "w",
        "as"
      ],
      [
        "wi",
        "th"
      ],
      [
        "w",
        "ar"
      ],
      [
        "m",
        "en"
      ],
      [
        "u",
        "s"
      ],
      [
        "A",
        "nd"
      ],
      [
        "ha",
        "t"
      ],
      [
        "the",
        "m"
      ],
      [
        "c",
        "e"
      ],
      [
        "th",
        "er"
      ],
      [
        "e",
        "m"
      ],
      [
        "r",
        "en"
      ],
      [
        "s",
        "ch"
      ],
      [
        "m",
        "it"
      ],
      [
        "i",
        "es"
      ],
      [
        "the",
        "y"
      ],
      [
        "v",
        "on"
      ],
      [
        "e",
        "u"
      ],
      [
        "w",
        "er"
      ],
      [
        "a",
        "b"
      ],
      [
        "au",
        "s"
      ],
      [
        "h",
        "t"
      ],
      [
        "h",
        "en"
      ],
      [
        "wi",
        "r"
      ],
      [
        "I",
        "s"
      ],
      [
        "h",
        "er"
      ],
      [
        "a",
        "g"
      ],
      [
        "u",
        "m"
      ],
      [
        "ra",
        "ch"
      ],
      [
        "a",
        "ber"
      ],
      [
        "o",
        "h"
      ],
      [
        "ra",
        "el"
      ],
      [
        "ih",
        "r"
      ],
      [
        "Is",
        "rael"
      ],
      [
        "e",
        "t"
      ],
      [
        "so",
        "ll"
      ],
      [
        "n",
        "ot"
      ],
      [
        "f",
        "r"
      ],
      [
        "d",
        "u"
      ],
      [
        "ih",
        "n"
      ],
      [
        "m",
        "a"
      ],
      [
        "c",
        "k"
      ],
      [
        "er",
        "n"
      ],
      [
        "m",
        "an"
      ],
      [
        "s",
        "en"
      ],
      [
        "de",
        "in"
      ],
      [
        "you",
        "r"
      ],
      [
        "a",
        "d"
      ],
      [
        "m",
        "y"
      ],
      [
        "D",
        "a"
      ],
      [
        "w",
        "or"
      ],
      [
        "u",
        "p"
      ],
      [
        "ot",
        "t"
      ],
      [
        "h",
        "r"
      ],
      [
        "l",
        "i"
      ],
      [
        "sp",
        "rach"
      ],
      [
        "me",
        "in"
      ],
      [
        "un",
        "to"
      ],
      [
        "l",
        "a"
      ],
      [
        "G",
        "ott"
      ],
      [
        "o",
        "p"
      ],
      [
        "H",
        "e"
      ],
      [
        "ha",
        "ve"
      ],
      [
        "w",
        "ie"
      ],
      [
        "i",
        "on"
      ],
      [
        "on",
        "e"
      ],
      [
        "ou",
        "t"
      ],
      [
        "G",
        "od"
      ],
      [
        "v",
        "en"
      ],
      [
        "g",
        "es"
      ],
      [
        "ar",
        "e"
      ],
      [
        "T",
        "he"
      ],
      [
        "wh",
        "o"
      ],
      [
        "sa",
        "id"
      ],
      [
        "t",
        "r"
      ],
      [
        "fr",
        "om"
      ],
      [
        "the",
        "ir"
      ],
      [
        "se",
        "l"
      ],
      [
        "en",
        "n"
      ],
      [
        "wh",
        "ich"
      ],
      [
        "ö",
        "n"
      ],
      [
        "a",
        "in"
      ],
      [
        "f",
        "e"
      ],
      [
        "l",
        "o"
      ],
      [
        "v",
        "or"
      ],
      [
        "b",
        "r"
      ],
      [
        "c",
        "o"
      ],
      [
        "S",
        "t"
      ],
      [
        "s",
        "on"
      ],
      [
        "es",
        "t"
      ],
      [
        "es",
        "s"
      ],
      [
        "a",
        "me"
      ],
      [
        "for",
        "e"
      ],
      [
        "en",
        "t"
      ],
      [
        "h",
        "ou"
      ],
      [
        "HERR",
        "N"
      ],
      [
        "p",
        "e"
      ],
      [
        "S",
        "ch"
      ],
      [
        "we",
        "h"
      ],
      [
        "oh",
        "n"
      ],
      [
        "k",
        "ing"
      ],
      [
        "Y",
        "ah"
      ],
      [
        "wir",
        "d"
      ],
      [
        "ih",
        "m"
      ],
      [
        "Yah",
        "weh"
      ],
      [
        "i",
        "f"
      ],
      [
        "s",
        "ich"
      ],
      [
        "G",
        "e"
      ],
      [
        "den",
        "n"
      ],
      [
        "t",
        "s"
      ],
      [
        "th",
        "ou"
      ],
      [
        "R",
        "D"
      ],
      [
        "L",
        "O"
      ],
      [
        "LO",
        "RD"
      ],
      [
        "th",
        "ere"
      ],
      [
        "f",
        "er"
      ],
      [
        "K",
        "ön"
      ],
      [
        "l",
        "ich"
      ],
      [
        "n",
        "o"
      ],
      [
        "ü",
        "r"
      ],
      [
        "s",
        "er"
      ],
      [
        "d",
        "o"
      ],
      [
        "l",
        "d"
      ],
      [
        "eu",
        "ch"
      ],
      [
        "l",
        "t"
      ],
      [
        "y",
        "e"
      ],
      [
        "ü",
        "ber"
      ],
      [
        "ch",
        "t"
      ],
      [
        "Kön",
        "ig"
      ],
      [
        "ou",
        "r"
      ],
      [
        "p",
        "r"
      ],
      [
        "l",
        "ie"
      ],
      [
        "ol",
        "d"
      ],
      [
        "or",
        "d"
      ],
      [
        "E",
        "r"
      ],
      [
        "ig",
        "ht"
      ],
      [
        "g",
        "o"
      ],
      [
        "h",
        "in"
      ],
      [
        "W",
        "e"
      ],
      [
        "sa",
        "y"
      ],
      [
        "f",
        "a"
      ],
      [
        "s",
        "te"
      ],
      [
        "w",
        "ere"
      ],
      [
        "o",
        "se"
      ],
      [
        "da",
        "y"
      ],
      [
        "b",
        "y"
      ],
      [
        "wer",
        "den"
      ],
      [
        "n",
        "ach"
      ],
      [
        "all",
        "e"
      ],
      [
        "w",
        "o"
      ],
      [
        "au",
        "se"
      ],
      [
        "w",
        "a"
      ],
      [
        "K",
        "ind"
      ],
      [
        "m",
        "ir"
      ],
      [
        "o",
        "s"
      ],
      [
        "b",
        "ut"
      ],
      [
        "th",
        "y"
      ],
      [
        "au",
        "ch"
      ],
      [
        "il",
        "d"
      ],
      [
        "p",
        "t"
      ],
      [
        "th",
        "is"
      ],
      [
        "k",
        "om"
      ],
      [
        "an",
        "n"
      ],
      [
        "al",
        "so"
      ],
      [
        "er",
        "s"
      ],
      [
        "l",
        "y"
      ],
      [
        "a",
        "k"
      ],
      [
        "a",
        "f"
      ],
      [
        "d",
        "ar"
      ],
      [
        "d",
        "ir"
      ],
      [
        "e",
        "h"
      ],
      [
        "s",
        "ind"
      ],
      [
        "ihn",
        "en"
      ],
      [
        "m",
        "ach"
      ],
      [
        "J",
        "es"
      ],
      [
        "he",
        "ar"
      ],
      [
        "ol",
        "k"
      ],
      [
        "ow",
        "n"
      ],
      [
        "S",
        "ohn"
      ],
      [
        "at",
        "ion"
      ],
      [
        "J",
        "u"
      ],
      [
        "c",
        "ame"
      ],
      [
        "i",
        "b"
      ],
      [
        "v",
        "id"
      ],
      [
        "Da",
        "vid"
      ],
      [
        "h",
        "and"
      ],
      [
        "ag",
        "ain"
      ],
      [
        "un",
        "ter"
      ],
      [
        "pe",
        "op"
      ],
      [
        "l",
        "and"
      ],
      [
        "in",
        "e"
      ],
      [
        "ha",
        "d"
      ],
      [
        "an",
        "t"
      ],
      [
        "hou",
        "se"
      ],
      [
        "wh",
        "en"
      ],
      [
        "co",
        "me"
      ],
      [
        "ein",
        "e"
      ],
      [
        "V",
        "olk"
      ],
      [
        "H",
        "er"
      ],
      [
        "un",
        "s"
      ],
      [
        "th",
        "ing"
      ],
      [
        "J",
        "er"
      ],
      [
        ".",
        "\""
      ],
      [
        "wa",
        "y"
      ],
      [
        "sein",
        "e"
      ],
      [
        "ou",
        "g"
      ],
      [
        "c",
        "om"
      ],
      [
        "u",
        "ch"
      ],
      [
        "on",
        "g"
      ],
      [
        "r",
        "ie"
      ],
      [
        "peop",
        "le"
      ],
      [
        "te",
        "d"
      ],
      [
        "L",
        "e"
      ],
      [
        "ch",
        "ild"
      ],
      [
        "ein",
        "en"
      ],
      [
        "m",
        "ich"
      ],
      [
        "d",
        "ies"
      ],
      [
        "ig",
        "en"
      ],
      [
        "i",
        "ve"
      ],
      [
        "in",
        "to"
      ],
      [
        "war",
        "d"
      ],
      [
        "a",
        "th"
      ],
      [
        "i",
        "ll"
      ],
      [
        "g",
        "er"
      ],
      [
        "d",
        "ich"
      ],
      [
        "the",
        "e"
      ],
      [
        "o",
        "k"
      ],
      [
        "e",
        "ver"
      ],
      [
        "D",
        "enn"
      ],
      [
        "B",
        "r"
      ],
      [
        "L",
        "and"
      ],
      [
        "Z",
        "e"
      ],
      [
        "f",
        "en"
      ],
      [
        "ih",
        "re"
      ],
      [
        "S",
        "o"
      ],
      [
        "F",
        "or"
      ],
      [
        "n",
        "ow"
      ],
      [
        "b",
        "o"
      ],
      [
        "ur",
        "n"
      ],
      [
        "T",
        "h"
      ],
      [
        "zu",
        "m"
      ],
      [
        "child",
        "ren"
      ],
      [
        "n",
        "ess"
      ],
      [
        "le",
        "m"
      ],
      [
        "as",
        "t"
      ],
      [
        "be",
        "fore"
      ],
      [
        "se",
        "t"
      ],
      [
        "is",
        "e"
      ],
      [
        "Kind",
        "er"
      ],
      [
        "i",
        "de"
      ],
      [
        "p",
        "h"
      ],
      [
        "w",
        "ent"
      ],
      [
        "a",
        "c"
      ],
      [
        "ha",
        "s"
      ],
      [
        "R",
        "e"
      ],
      [
        "wor",
        "d"
      ],
      [
        "Ju",
        "da"
      ],
      [
        "c",
        "ause"
      ],
      [
        "z",
        "e"
      ],
      [
        "u",
        "sa"
      ],
      [
        "A",
        "b"
      ],
      [
        "v",
        "es"
      ],
      [
        "it",
        "y"
      ],
      [
        "ie",
        "l"
      ],
      [
        "i",
        "en"
      ],
      [
        "h",
        "ö"
      ],
      [
        "f",
        "ü"
      ],
      [
        "z",
        "en"
      ],
      [
        "Jes",
        "us"
      ],
      [
        "S",
        "e"
      ],
      [
        "Jer",
        "usa"
      ],
      [
        "Jerusa",
        "lem"
      ],
      [
        "again",
        "st"
      ],
      [
        "l",
        "es"
      ],
      [
        "s",
        "he"
      ],
      [
        "k",
        "en"
      ],
      [
        "fa",
        "ther"
      ],
      [
        "B",
        "ut"
      ],
      [
        "g",
        "an"
      ],
      [
        "und",
        "er"
      ],
      [
        "e",
        "ar"
      ],
      [
        "re",
        "d"
      ],
      [
        "ha",
        "be"
      ],
      [
        "ha",
        "ben"
      ],
      [
        "b",
        "re"
      ],
      [
        "I",
        "ch"
      ],
      [
        "kom",
        "men"
      ],
      [
        "sp",
        "r"
      ],
      [
        "i",
        "er"
      ],
      [
        "c",
        "on"
      ],
      [
        "h",
        "o"
      ],
      [
        "ur",
        "ch"
      ],
      [
        "o",
        "ver"
      ],
      [
        "an",
        "s"
      ],
      [
        "p",
        "ro"
      ],
      [
        "ha",
        "st"
      ],
      [
        "g",
        "y"
      ],
      [
        "te",
        "t"
      ],
      [
        "ig",
        "h"
      ],
      [
        "ß",
        "en"
      ],
      [
        "i",
        "a"
      ],
      [
        "at",
        "er"
      ],
      [
        "or",
        "n"
      ],
      [
        "ge",
        "l"
      ],
      [
        "r",
        "u"
      ],
      [
        "ch",
        "en"
      ],
      [
        "B",
        "e"
      ],
      [
        "S",
        "ie"
      ],
      [
        "hat",
        "te"
      ],
      [
        "k",
        "am"
      ],
      [
        "m",
        "t"
      ],
      [
        "all",
        "en"
      ],
      [
        "g",
        "t"
      ],
      [
        "G",
        "es"
      ],
      [
        "g",
        "a"
      ],
      [
        "of",
        "fer"
      ],
      [
        "i",
        "ah"
      ],
      [
        "w",
        "el"
      ],
      [
        "ma",
        "de"
      ],
      [
        "f",
        "t"
      ],
      [
        "up",
        "on"
      ],
      [
        "ü",
        "nd"
      ],
      [
        "g",
        "l"
      ],
      [
        "say",
        "ing"
      ],
      [
        "m",
        "and"
      ],
      [
        "re",
        "t"
      ],
      [
        "g",
        "re"
      ],
      [
        "un",
        "g"
      ],
      [
        "ge",
        "t"
      ],
      [
        "a",
        "ke"
      ],
      [
        "sein",
        "en"
      ],
      [
        "be",
        "i"
      ],
      [
        "d",
        "urch"
      ],
      [
        "b",
        "t"
      ],
      [
        "m",
        "er"
      ],
      [
        "ge",
        "ben"
      ],
      [
        "f",
        "o"
      ],
      [
        "le",
        "d"
      ],
      [
        "st",
        "en"
      ],
      [
        "or",
        "e"
      ],
      [
        "E",
        "s"
      ],
      [
        "v",
        "ed"
      ],
      [
        "g",
        "ro"
      ],
      [
        "ha",
        "th"
      ],
      [
        "f",
        "ür"
      ],
      [
        "i",
        "ce"
      ],
      [
        "e",
        "ven"
      ],
      [
        "le",
        "t"
      ],
      [
        "en",
        "d"
      ],
      [
        "war",
        "en"
      ],
      [
        "i",
        "th"
      ],
      [
        "o",
        "ther"
      ],
      [
        "st",
        "and"
      ],
      [
        "oug",
        "ht"
      ],
      [
        "au",
        "l"
      ],
      [
        "me",
        "l"
      ],
      [
        "b",
        "a"
      ],
      [
        "ou",
        "n"
      ],
      [
        "no",
        "ch"
      ],
      [
        "p",
        "la"
      ],
      [
        "ch",
        "te"
      ],
      [
        "n",
        "en"
      ],
      [
        "dein",
        "e"
      ],
      [
        "ma",
        "y"
      ],
      [
        "W",
        "as"
      ],
      [
        "d",
        "r"
      ],
      [
        "M",
        "en"
      ],
      [
        "d",
        "id"
      ],
      [
        "T",
        "hen"
      ],
      [
        "ges",
        "ch"
      ],
      [
        "f",
        "u"
      ],
      [
        "Gott",
        "es"
      ],
      [
        "ser",
        "v"
      ],
      [
        "ou",
        "s"
      ],
      [
        "br",
        "ing"
      ],
      [
        "a",
        "p"
      ],
      [
        "r",
        "t"
      ],
      [
        "al",
        "s"
      ],
      [
        "le",
        "i"
      ],
      [
        "re",
        "i"
      ],
      [
        "ä",
        "n"
      ],
      [
        "g",
        "ing"
      ],
      [
        "se",
        "d"
      ],
      [
        "mein",
        "e"
      ],
      [
        "s",
        "u"
      ],
      [
        "C",
        "hr"
      ],
      [
        "l",
        "as"
      ],
      [
        "sein",
        "em"
      ],
      [
        "i",
        "p"
      ],
      [
        "a",
        "ge"
      ],
      [
        "J",
        "o"
      ],
      [
        "son",
        "s"
      ],
      [
        "b",
        "is"
      ],
      [
        "ge",
        "b"
      ],
      [
        "d",
        "own"
      ],
      [
        "n",
        "un"
      ],
      [
        "thing",
        "s"
      ],
      [
        "k",
        "now"
      ],
      [
        "z",
        "ig"
      ],
      [
        "pr",
        "ies"
      ],
      [
        "ha",
        "l"
      ],
      [
        "L",
        "ord"
      ],
      [
        "as",
        "s"
      ],
      [
        "A",
        "ber"
      ],
      [
        "A",
        "s"
      ],
      [
        "we",
        "i"
      ],
      [
        "H",
        "and"
      ],
      [
        "e",
        "p"
      ],
      [
        "The",
        "y"
      ],
      [
        "ever",
        "y"
      ],
      [
        "v",
        "o"
      ],
      [
        "nd",
        "ern"
      ],
      [
        "spr",
        "icht"
      ],
      [
        "b",
        "ro"
      ],
      [
        "p",
        "he"
      ],
      [
        "b",
        "u"
      ],
      [
        "all",
        "es"
      ],
      [
        "W",
        "or"
      ],
      [
        "Men",
        "sch"
      ],
      [
        "it",
        "er"
      ],
      [
        "it",
        "s"
      ],
      [
        "ß",
        "t"
      ],
      [
        "ar",
        "s"
      ],
      [
        "al",
        "t"
      ],
      [
        "th",
        "r"
      ],
      [
        "j",
        "a"
      ],
      [
        "be",
        "cause"
      ],
      [
        "c",
        "t"
      ],
      [
        "t",
        "re"
      ],
      [
        "g",
        "r"
      ],
      [
        "gre",
        "at"
      ],
      [
        "i",
        "me"
      ],
      [
        "m",
        "u"
      ],
      [
        "n",
        "ame"
      ],
      [
        "af",
        "ter"
      ],
      [
        "W",
        "er"
      ],
      [
        "p",
        "ar"
      ],
      [
        "de",
        "t"
      ],
      [
        "n",
        "er"
      ],
      [
        "an",
        "y"
      ],
      [
        "offer",
        "ing"
      ],
      [
        "ma",
        "ke"
      ],
      [
        "se",
        "e"
      ],
      [
        "s",
        "in"
      ],
      [
        "H",
        "aus"
      ],
      [
        "so",
        "ndern"
      ],
      [
        "c",
        "es"
      ],
      [
        "D",
        "er"
      ],
      [
        "ter",
        "n"
      ],
      [
        "h",
        "old"
      ],
      [
        "Chr",
        "ist"
      ],
      [
        "n",
        "or"
      ],
      [
        "q",
        "u"
      ],
      [
        "se",
        "i"
      ],
      [
        "g",
        "lich"
      ],
      [
        "i",
        "ther"
      ],
      [
        "ke",
        "it"
      ],
      [
        "sel",
        "f"
      ],
      [
        "o",
        "b"
      ],
      [
        "A",
        "n"
      ],
      [
        "ear",
        "th"
      ],
      [
        "z",
        "er"
      ],
      [
        "the",
        "se"
      ],
      [
        "wi",
        "der"
      ],
      [
        "th",
        "en"
      ],
      [
        "soll",
        "en"
      ],
      [
        "it",
        "e"
      ],
      [
        "op",
        "fer"
      ],
      [
        "w",
        "enn"
      ],
      [
        "j",
        "e"
      ],
      [
        "s",
        "h"
      ],
      [
        "b",
        "es"
      ],
      [
        "p",
        "er"
      ],
      [
        "sein",
        "er"
      ],
      [
        "a",
        "way"
      ],
      [
        "D",
        "ie"
      ],
      [
        "i",
        "ge"
      ],
      [
        "A",
        "l"
      ],
      [
        "c",
        "r"
      ],
      [
        "Ze",
        "it"
      ],
      [
        "ll",
        "en"
      ],
      [
        "t",
        "un"
      ],
      [
        "ch",
        "e"
      ],
      [
        "li",
        "ke"
      ],
      [
        "K",
        "ne"
      ],
      [
        "i",
        "le"
      ],
      [
        "d",
        "om"
      ],
      [
        "com",
        "mand"
      ],
      [
        "ah",
        "r"
      ],
      [
        "j",
        "u"
      ],
      [
        "w",
        "ä"
      ],
      [
        "z",
        "o"
      ],
      [
        "s",
        "and"
      ],
      [
        "ih",
        "ren"
      ],
      [
        "soll",
        "st"
      ],
      [
        "g",
        "te"
      ],
      [
        "p",
        "ut"
      ],
      [
        "g",
        "ive"
      ],
      [
        "A",
        "r"
      ],
      [
        "ig",
        "t"
      ],
      [
        "zu",
        "r"
      ],
      [
        "ac",
        "c"
      ],
      [
        "th",
        "ose"
      ],
      [
        "g",
        "h"
      ],
      [
        "u",
        "e"
      ],
      [
        "V",
        "ater"
      ],
      [
        "A",
        "m"
      ],
      [
        "l",
        "an"
      ],
      [
        "o",
        "der"
      ],
      [
        "ge",
        "hen"
      ],
      [
        "wie",
        "der"
      ],
      [
        "U",
        "n"
      ],
      [
        "am",
        "ong"
      ],
      [
        "st",
        "r"
      ],
      [
        "os",
        "es"
      ],
      [
        "A",
        "u"
      ],
      [
        "h",
        "il"
      ],
      [
        "v",
        "om"
      ],
      [
        "ch",
        "es"
      ],
      [
        "b",
        "in"
      ],
      [
        "ö",
        "h"
      ],
      [
        "Y",
        "ou"
      ],
      [
        "am",
        "en"
      ],
      [
        "m",
        "o"
      ],
      [
        "it",
        "es"
      ],
      [
        "day",
        "s"
      ],
      [
        "br",
        "ought"
      ],
      [
        "T",
        "o"
      ],
      [
        "be",
        "l"
      ],
      [
        "b",
        "st"
      ],
      [
        "c",
        "ity"
      ],
      [
        "ge",
        "f"
      ],
      [
        "w",
        "is"
      ],
      [
        "M",
        "oses"
      ],
      [
        "Th",
        "ere"
      ],
      [
        "i",
        "re"
      ],
      [
        "eu",
        "er"
      ],
      [
        "M",
        "ann"
      ],
      [
        "ß",
        "e"
      ],
      [
        "ad",
        "t"
      ],
      [
        "u",
        "te"
      ],
      [
        "ch",
        "ten"
      ],
      [
        "l",
        "en"
      ],
      [
        "ar",
        "um"
      ],
      [
        "S",
        "aul"
      ],
      [
        "H",
        "ä"
      ],
      [
        "hear",
        "t"
      ],
      [
        "c",
        "all"
      ],
      [
        "ge",
        "gen"
      ],
      [
        "m",
        "ight"
      ],
      [
        "t",
        "wo"
      ],
      [
        "Juda",
        "h"
      ],
      [
        "is",
        "h"
      ],
      [
        "St",
        "adt"
      ],
      [
        "h",
        "ol"
      ],
      [
        "go",
        "od"
      ],
      [
        "Mensch",
        "en"
      ],
      [
        "H",
        "ause"
      ],
      [
        "wor",
        "k"
      ],
      [
        "St",
        "ä"
      ],
      [
        "sa",
        "gen"
      ],
      [
        "ord",
        "ing"
      ],
      [
        "V",
        "er"
      ],
      [
        "h",
        "ren"
      ],
      [
        "of",
        "f"
      ],
      [
        "sha",
        "lt"
      ],
      [
        "D",
        "as"
      ],
      [
        "l",
        "u"
      ],
      [
        "te",
        "te"
      ],
      [
        "w",
        "ohn"
      ],
      [
        "t",
        "y"
      ],
      [
        "et",
        "z"
      ],
      [
        "s",
        "hou"
      ],
      [
        "be",
        "t"
      ],
      [
        "t",
        "ain"
      ],
      [
        "he",
        "a"
      ],
      [
        "p",
        "o"
      ],
      [
        "n",
        "a"
      ],
      [
        "ü",
        "t"
      ],
      [
        "N",
        "ow"
      ],
      [
        "pla",
        "ce"
      ],
      [
        "th",
        "an"
      ],
      [
        "we",
        "ll"
      ],
      [
        "men",
        "t"
      ],
      [
        "P",
        "r"
      ],
      [
        "ha",
        "r"
      ],
      [
        "an",
        "ts"
      ],
      [
        "oug",
        "h"
      ],
      [
        "u",
        "b"
      ],
      [
        "acc",
        "ording"
      ],
      [
        "i",
        "be"
      ],
      [
        "las",
        "sen"
      ],
      [
        "M",
        "ose"
      ],
      [
        "me",
        "hr"
      ],
      [
        "ein",
        "em"
      ],
      [
        "sel",
        "bst"
      ],
      [
        "for",
        "th"
      ],
      [
        "t",
        "ake"
      ],
      [
        "sa",
        "m"
      ],
      [
        "m",
        "on"
      ],
      [
        "v",
        "il"
      ],
      [
        "he",
        "il"
      ],
      [
        "H",
        "im"
      ],
      [
        "to",
        "ok"
      ],
      [
        "c",
        "a"
      ],
      [
        "o",
        "th"
      ],
      [
        "T",
        "ag"
      ],
      [
        "ck",
        "en"
      ],
      [
        "e",
        "at"
      ],
      [
        "gy",
        "pt"
      ],
      [
        "it",
        "t"
      ],
      [
        "Him",
        "mel"
      ],
      [
        "do",
        "ch"
      ],
      [
        "D",
        "u"
      ],
      [
        "n",
        "ie"
      ],
      [
        "ach",
        "t"
      ],
      [
        "p",
        "ass"
      ],
      [
        "there",
        "fore"
      ],
      [
        "Pr",
        "ies"
      ],
      [
        "g",
        "i"
      ],
      [
        "m",
        "ore"
      ],
      [
        "it",
        "en"
      ],
      [
        "E",
        "gypt"
      ],
      [
        "wh",
        "om"
      ],
      [
        "sp",
        "e"
      ],
      [
        "w",
        "hat"
      ],
      [
        "ation",
        "s"
      ],
      [
        "dein",
        "en"
      ],
      [
        "sa",
        "l"
      ],
      [
        "ind",
        "e"
      ],
      [
        "J",
        "e"
      ],
      [
        "an",
        "ce"
      ],
      [
        "so",
        "l"
      ],
      [
        "ie",
        "d"
      ],
      [
        "nd",
        "e"
      ],
      [
        "Land",
        "e"
      ],
      [
        "Le",
        "v"
      ],
      [
        "ne",
        "ither"
      ],
      [
        "d",
        "is"
      ],
      [
        "n",
        "ah"
      ],
      [
        "s",
        "to"
      ],
      [
        "sprach",
        "en"
      ],
      [
        "gy",
        "p"
      ],
      [
        "M",
        "e"
      ],
      [
        "in",
        "s"
      ],
      [
        "Ä",
        "gyp"
      ],
      [
        "b",
        "l"
      ],
      [
        "sen",
        "t"
      ],
      [
        "F",
        "re"
      ],
      [
        "mach",
        "t"
      ],
      [
        "h",
        "or"
      ],
      [
        "Her",
        "r"
      ],
      [
        "p",
        "le"
      ],
      [
        "J",
        "a"
      ],
      [
        "Sie",
        "he"
      ],
      [
        "B",
        "a"
      ],
      [
        "he",
        "it"
      ],
      [
        "B",
        "eh"
      ],
      [
        "y",
        "r"
      ],
      [
        "ch",
        "er"
      ],
      [
        "es",
        "sen"
      ],
      [
        "hr",
        "t"
      ],
      [
        "p",
        "re"
      ],
      [
        "ar",
        "on"
      ],
      [
        "ge",
        "w"
      ],
      [
        "Beh",
        "old"
      ],
      [
        "Was",
        "ser"
      ],
      [
        "ant",
        "wor"
      ],
      [
        "N",
        "e"
      ],
      [
        "i",
        "den"
      ],
      [
        "is",
        "ter"
      ],
      [
        "A",
        "aron"
      ],
      [
        "p",
        "ra"
      ],
      [
        "ou",
        "ld"
      ],
      [
        "T",
        "age"
      ],
      [
        "k",
        "ein"
      ],
      [
        "re",
        "e"
      ],
      [
        "f",
        "ir"
      ],
      [
        "W",
        "hen"
      ],
      [
        "ü",
        "n"
      ],
      [
        "z",
        "ie"
      ],
      [
        "v",
        "ing"
      ],
      [
        "shou",
        "ld"
      ],
      [
        "b",
        "urn"
      ],
      [
        "des",
        "t"
      ],
      [
        "I",
        "t"
      ],
      [
        "sel",
        "ves"
      ],
      [
        "get",
        "an"
      ],
      [
        "Wor",
        "t"
      ],
      [
        "le",
        "ich"
      ],
      [
        "W",
        "h"
      ],
      [
        "w",
        "om"
      ],
      [
        "igh",
        "te"
      ],
      [
        "bro",
        "ther"
      ],
      [
        "S",
        "ünd"
      ],
      [
        "e",
        "x"
      ],
      [
        "ch",
        "ter"
      ],
      [
        "P",
        "hil"
      ],
      [
        "N",
        "amen"
      ],
      [
        "se",
        "ven"
      ],
      [
        "thr",
        "ough"
      ],
      [
        "s",
        "ou"
      ],
      [
        "l",
        "ä"
      ],
      [
        "au",
        "gh"
      ],
      [
        "it",
        "ten"
      ],
      [
        "Pries",
        "ter"
      ],
      [
        "ans",
        "wer"
      ],
      [
        "w",
        "oh"
      ],
      [
        "v",
        "iel"
      ],
      [
        "dein",
        "em"
      ],
      [
        "re",
        "de"
      ],
      [
        "be",
        "hold"
      ],
      [
        "at",
        "t"
      ],
      [
        "S",
        "am"
      ],
      [
        "augh",
        "ter"
      ],
      [
        "E",
        "l"
      ],
      [
        "ju",
        "d"
      ],
      [
        "e",
        "vil"
      ],
      [
        "st",
        "er"
      ],
      [
        "ha",
        "b"
      ],
      [
        "ne",
        "h"
      ],
      [
        "p",
        "en"
      ],
      [
        "B",
        "l"
      ],
      [
        "u",
        "re"
      ],
      [
        "hear",
        "d"
      ],
      [
        "h",
        "und"
      ],
      [
        "and",
        "ern"
      ],
      [
        "sa",
        "ith"
      ],
      [
        "wh",
        "ere"
      ],
      [
        "H",
        "a"
      ],
      [
        "z",
        "wei"
      ],
      [
        "eu",
        "re"
      ],
      [
        "under",
        "t"
      ],
      [
        "hund",
        "red"
      ],
      [
        "ighte",
        "ous"
      ],
      [
        "Israel",
        "s"
      ],
      [
        "es",
        "en"
      ],
      [
        "v",
        "ier"
      ],
      [
        "E",
        "in"
      ],
      [
        "A",
        "ll"
      ],
      [
        "g",
        "ere"
      ],
      [
        "sie",
        "he"
      ],
      [
        "g",
        "ra"
      ],
      [
        "d",
        "on"
      ],
      [
        "r",
        "ighteous"
      ],
      [
        "ä",
        "u"
      ],
      [
        "ö",
        "t"
      ],
      [
        "t",
        "ime"
      ],
      [
        "ig",
        "n"
      ],
      [
        "ag",
        "t"
      ],
      [
        "I",
        "f"
      ],
      [
        "M",
        "an"
      ],
      [
        "r",
        "ich"
      ],
      [
        "soll",
        "t"
      ],
      [
        "ha",
        "m"
      ],
      [
        "sa",
        "w"
      ],
      [
        "sa",
        "h"
      ],
      [
        "hea",
        "ven"
      ],
      [
        "in",
        "k"
      ],
      [
        "t",
        "il"
      ],
      [
        "Al",
        "so"
      ],
      [
        "tr",
        "u"
      ],
      [
        "D",
        "arum"
      ],
      [
        "kom",
        "mt"
      ],
      [
        "call",
        "ed"
      ],
      [
        "la",
        "w"
      ],
      [
        "Ab",
        "ra"
      ],
      [
        "Ägyp",
        "ten"
      ],
      [
        "y",
        "es"
      ],
      [
        "w",
        "and"
      ],
      [
        "i",
        "c"
      ],
      [
        "ha",
        "n"
      ],
      [
        "Ges",
        "ch"
      ],
      [
        "j",
        "o"
      ],
      [
        "n",
        "is"
      ],
      [
        "t",
        "urn"
      ],
      [
        "or",
        "gen"
      ],
      [
        "s",
        "es"
      ],
      [
        "He",
        "il"
      ],
      [
        "mach",
        "en"
      ],
      [
        "li",
        "ver"
      ],
      [
        "M",
        "o"
      ],
      [
        "Br",
        "ü"
      ],
      [
        "at",
        "ers"
      ],
      [
        "el",
        "t"
      ],
      [
        "se",
        "hen"
      ],
      [
        "ihr",
        "er"
      ],
      [
        "s",
        "uch"
      ],
      [
        "me",
        "d"
      ],
      [
        "ir",
        "it"
      ],
      [
        "W",
        "enn"
      ],
      [
        "I",
        "n"
      ],
      [
        "b",
        "ar"
      ],
      [
        "w",
        "ür"
      ],
      [
        "ut",
        "ter"
      ],
      [
        "B",
        "er"
      ],
      [
        "word",
        "s"
      ],
      [
        "fir",
        "st"
      ],
      [
        "un",
        "ser"
      ],
      [
        "d",
        "aughter"
      ],
      [
        "de",
        "liver"
      ],
      [
        "ge",
        "geben"
      ],
      [
        "thou",
        "sand"
      ],
      [
        "r",
        "ü"
      ],
      [
        "sie",
        "ben"
      ],
      [
        "fu",
        "l"
      ],
      [
        "ck",
        "ed"
      ],
      [
        "König",
        "s"
      ],
      [
        "ein",
        "er"
      ],
      [
        "s",
        "i"
      ]
    ]
  }
}