{
  "version": "1.0",
  "truncation": null,
  "padding": null,
  "added_tokens": [
    {
      "id": 0,
      "content": "[UNK]",
      "single_word": false,
      "lstrip": false,
      "rstrip": false,
      "normalized": false,
      "special": true
    }
  ],
  "normalizer": null,
  "pre_tokenizer": {
    "type": "Whitespace"
  },
  "post_processor": null,
  "decoder": null,
  "model": {
    "type": "BPE",
    "dropout": null,
    "unk_token": "[UNK]",
    "continuing_subword_prefix": null,
    "end_of_word_suffix": null,
    "fuse_unk": false,
    "byte_fallback": false,
    "ignore_merges": false,
    "vocab": {
      "[UNK]": 0,
      "!": 1,
      "\"": 2,
      "'": 3,
      "(": 4,
      ")": 5,
      ",": 6,
      "-": 7,
      ".": 8,
      "0": 9,
      "1": 10,
      "2": 11,
      "3": 12,
      "4": 13,
      "5": 14,
      "6": 15,
      "7": 16,
      "8": 17,
      "9": 18,
      ":": 19,
      ";": 20,
      "?": 21,
      "A": 22,
      "B": 23,
      "C": 24,
      "D": 25,
      "E": 26,
      "F": 27,
      "G": 28,
      "H": 29,
      "I": 30,
      "J": 31,
      "K": 32,
      "L": 33,
      "M": 34,
      "N": 35,
      "O": 36,
      "P": 37,
      "Q": 38,
      "R": 39,
      "S": 40,
      "T": 41,
      "U": 42,
      "V": 43,
      "W": 44,
      "Z": 45,
      "a": 46,
      "b": 47,
      "c": 48,
      "d": 49,
      "e": 50,
      "f": 51,
      "g": 52,
      "h": 53,
      "i": 54,
      "j": 55,
      "k": 56,
      "l": 57,
      "m": 58,
      "n": 59,
      "o": 60,
      "p": 61,
      "q": 62,
      "r": 63,
      "s": 64,
      "t": 65,
      "u": 66,
      "v": 67,
      "w": 68,
      "x": 69,
      "y": 70,
      "z": 71,
      "{": 72,
      "}": 73,
      "Ä": 74,
      "Ö": 75,
      "Ü": 76,
      "ß": 77,
      "ä": 78,
      "ö": 79,
      "ü": 80,
      "en": 81,
      "er": 82,
      "ch": 83,
      "nd": 84,
      "ei": 85,
      "ie": 86,
      "und": 87,
      "ein": 88,
      "es": 89,
      "ich": 90,
      "da": 91,
      "st": 92,
      "der": 93,
      "au": 94,
      "ge": 95,
      "den": 96,
      "te": 97,
      "ll": 98,
      "die": 99,
      "in": 100,
      "an": 101,
      "ih": 102,
      "em": 103,
      "zu": 104,
      "ha": 105,
      "ten": 106,
      "el": 107,
      "ach": 108,
      "so": 109,
      "gen": 110,
      "ir": 111,
      "ber": 112,
      "vo": 113,
      "ar": 114,
      "sie": 115,
      "un": 116,
      "icht": 117,
      "sein": 118,
      "re": 119,
      "it": 120,
      "ig": 121,
      "ben": 122,
      "das": 123,
      "and": 124,
      "nicht": 125,
      "auf": 126,
      "daß": 127,
      "ist": 128,
      "ER": 129,
      "HER": 130,
      "HERR": 131,
      "sch": 132,
      "ter": 133,
      "Und": 134,
      "eu": 135,
      "des": 136,
      "et": 137,
      "eh": 138,
      "dem": 139,
      "as": 140,
      "am": 141,
      "aus": 142,
      "ihr": 143,
      "ot": 144,
      "or": 145,
      "pr": 146,
      "all": 147,
      "du": 148,
      "von": 149,
      "al": 150,
      "mit": 151,
      "be": 152,
      "spr": 153,
      "ind": 154,
      "mm": 155,
      "wir": 156,
      "oh": 157,
      "war": 158,
      "ver": 159,
      "ern": 160,
      "ra": 161,
      "soll": 162,
      "hat": 163,
      "wer": 164,
      "ihn": 165,
      "aber": 166,
      "wi": 167,
      "dein": 168,
      "ah": 169,
      "ott": 170,
      "sprach": 171,
      "de": 172,
      "mein": 173,
      "um": 174,
      "Gott": 175,
      "wie": 176,
      "sen": 177,
      "ges": 178,
      "St": 179,
      "enn": 180,
      "ön": 181,
      "ol": 182,
      "ohn": 183,
      "vor": 184,
      "Da": 185,
      "HERRN": 186,
      "eit": 187,
      "Sch": 188,
      "se": 189,
      "wird": 190,
      "ihm": 191,
      "sich": 192,
      "denn": 193,
      "ür": 194,
      "Kön": 195,
      "on": 196,
      "lich": 197,
      "cht": 198,
      "euch": 199,
      "us": 200,
      "is": 201,
      "will": 202,
      "ko": 203,
      "im": 204,
      "le": 205,
      "über": 206,
      "och": 207,
      "ren": 208,
      "ag": 209,
      "König": 210,
      "ck": 211,
      "he": 212,
      "Er": 213,
      "Is": 214,
      "ab": 215,
      "lei": 216,
      "hin": 217,
      "at": 218,
      "ne": 219,
      "her": 220,
      "uns": 221,
      "br": 222,
      "werden": 223,
      "rael": 224,
      "Israel": 225,
      "Kind": 226,
      "nach": 227,
      "eil": 228,
      "ann": 229,
      "mir": 230,
      "rei": 231,
      "auch": 232,
      "komm": 233,
      "lie": 234,
      "rie": 235,
      "geh": 236,
      "alle": 237,
      "eine": 238,
      "dir": 239,
      "sind": 240,
      "ro": 241,
      "ihnen": 242,
      "olk": 243,
      "mach": 244,
      "Sohn": 245,
      "hr": 246,
      "pf": 247,
      "einen": 248,
      "unter": 249,
      "wei": 250,
      "ut": 251,
      "Ge": 252,
      "ger": 253,
      "il": 254,
      "Volk": 255,
      "was": 256,
      "dar": 257,
      "seine": 258,
      "vi": 259,
      "imm": 260,
      "mich": 261,
      "Her": 262,
      "dich": 263,
      "Denn": 264,
      "Land": 265,
      "Haus": 266,
      "Br": 267,
      "zum": 268,
      "fen": 269,
      "bei": 270,
      "ur": 271,
      "Kinder": 272,
      "bt": 273,
      "ehr": 274,
      "tet": 275,
      "igen": 276,
      "agen": 277,
      "anz": 278,
      "fü": 279,
      "Wei": 280,
      "sei": 281,
      "gel": 282,
      "ser": 283,
      "ster": 284,
      "haben": 285,
      "Ich": 286,
      "kommen": 287,
      "habe": 288,
      "schen": 289,
      "ehen": 290,
      "nde": 291,
      "iel": 292,
      "chen": 293,
      "Ges": 294,
      "ft": 295,
      "ßen": 296,
      "ad": 297,
      "eg": 298,
      "sten": 299,
      "Sie": 300,
      "hatte": 301,
      "men": 302,
      "etz": 303,
      "ihre": 304,
      "age": 305,
      "kam": 306,
      "sel": 307,
      "dur": 308,
      "ing": 309,
      "wor": 310,
      "est": 311,
      "seinen": 312,
      "durch": 313,
      "os": 314,
      "geben": 315,
      "hö": 316,
      "allen": 317,
      "nun": 318,
      "get": 319,
      "Die": 320,
      "für": 321,
      "chte": 322,
      "rt": 323,
      "wo": 324,
      "geb": 325,
      "waren": 326,
      "So": 327,
      "Ju": 328,
      "noch": 329,
      "deine": 330,
      "gesch": 331,
      "Gottes": 332,
      "ste": 333,
      "pfer": 334,
      "ien": 335,
      "ater": 336,
      "än": 337,
      "Was": 338,
      "hal": 339,
      "Men": 340,
      "Al": 341,
      "Vater": 342,
      "bis": 343,
      "man": 344,
      "nen": 345,
      "meine": 346,
      "Jer": 347,
      "ere": 348,
      "seinem": 349,
      "zen": 350,
      "Jes": 351,
      "sam": 352,
      "rü": 353,
      "Aber": 354,
      "ndern": 355,
      "Hand": 356,
      "det": 357,
      "gt": 358,
      "ert": 359,
      "spricht": 360,
      "alles": 361,
      "ose": 362,
      "Wor": 363,
      "ward": 364,
      "ßt": 365,
      "las": 366,
      "schl": 367,
      "Davi": 368,
      "David": 369,
      "Es": 370,
      "ph": 371,
      "tun": 372,
      "wel": 373,
      "ja": 374,
      "Wer": 375,
      "ingen": 376,
      "acht": 377,
      "Au": 378,
      "sondern": 379,
      "gro": 380,
      "ganz": 381,
      "llen": 382,
      "Der": 383,
      "ünd": 384,
      "keit": 385,
      "igt": 386,
      "ken": 387,
      "Re": 388,
      "als": 389,
      "wider": 390,
      "sollen": 391,
      "wenn": 392,
      "tr": 393,
      "ieh": 394,
      "seiner": 395,
      "öh": 396,
      "Le": 397,
      "ung": 398,
      "Kne": 399,
      "hast": 400,
      "bes": 401,
      "gef": 402,
      "ahr": 403,
      "wä": 404,
      "ihren": 405,
      "zo": 406,
      "sollst": 407,
      "Se": 408,
      "reu": 409,
      "oder": 410,
      "gehen": 411,
      "wieder": 412,
      "chten": 413,
      "amen": 414,
      "Zeit": 415,
      "euer": 416,
      "ige": 417,
      "äu": 418,
      "bst": 419,
      "bin": 420,
      "iter": 421,
      "vom": 422,
      "wohn": 423,
      "angen": 424,
      "fe": 425,
      "ße": 426,
      "tete": 427,
      "Mann": 428,
      "also": 429,
      "adt": 430,
      "An": 431,
      "ohl": 432,
      "arum": 433,
      "ia": 434,
      "zur": 435,
      "Geb": 436,
      "Juda": 437,
      "zwei": 438,
      "Un": 439,
      "gegen": 440,
      "agt": 441,
      "Das": 442,
      "Stadt": 443,
      "welch": 444,
      "usal": 445,
      "Menschen": 446,
      "Hause": 447,
      "Ver": 448,
      "usalem": 449,
      "sagen": 450,
      "Stä": 451,
      "Jerusalem": 452,
      "lau": 453,
      "zer": 454,
      "eer": 455,
      "tern": 456,
      "ging": 457,
      "einem": 458,
      "nah": 459,
      "hl": 460,
      "sah": 461,
      "üt": 462,
      "ob": 463,
      "lassen": 464,
      "Mose": 465,
      "mehr": 466,
      "end": 467,
      "sol": 468,
      "igkeit": 469,
      "Ab": 470,
      "ru": 471,
      "aß": 472,
      "Himm": 473,
      "doch": 474,
      "ner": 475,
      "Himmel": 476,
      "dies": 477,
      "gte": 478,
      "yp": 479,
      "Du": 480,
      "Prie": 481,
      "elt": 482,
      "deinen": 483,
      "Hä": 484,
      "gew": 485,
      "gyp": 486,
      "cken": 487,
      "twor": 488,
      "Lande": 489,
      "sprachen": 490,
      "opfer": 491,
      "Ägyp": 492,
      "heil": 493,
      "macht": 494,
      "aul": 495,
      "Herr": 496,
      "heit": 497,
      "Siehe": 498,
      "nie": 499,
      "eute": 500,
      "eb": 501,
      "antwor": 502,
      "Wasser": 503,
      "hei": 504,
      "Tage": 505,
      "kein": 506,
      "ier": 507,
      "El": 508,
      "Wort": 509,
      "getan": 510,
      "dan": 511,
      "Namen": 512,
      "drei": 513,
      "Ein": 514,
      "viel": 515,
      "Bl": 516,
      "Priester": 517,
      "solch": 518,
      "Jesus": 519,
      "deinem": 520,
      "Ja": 521,
      "om": 522,
      "ke": 523,
      "neh": 524,
      "andern": 525,
      "undert": 526,
      "ün": 527,
      "Israels": 528,
      "ent": 529,
      "siehe": 530,
      "öt": 531,
      "ele": 532,
      "Chr": 533,
      "hundert": 534,
      "sollt": 535,
      "Gei": 536,
      "To": 537,
      "Darum": 538,
      "kommt": 539,
      "ret": 540,
      "vier": 541,
      "Ägypten": 542,
      "ri": 543,
      "amm": 544,
      "ffen": 545,
      "Gesch": 546,
      "eiden": 547,
      "gere": 548,
      "machen": 549,
      "Heil": 550,
      "essen": 551,
      "Brü": 552,
      "einer": 553,
      "Sp": 554,
      "sehen": 555,
      "ihrer": 556,
      "Wenn": 557,
      "uß": 558,
      "zieh": 559,
      "wür": 560,
      "Königs": 561,
      "we": 562,
      "unser": 563,
      "gegeben": 564,
      "zw": 565,
      "sieben": 566,
      "orgen": 567,
      "nis": 568,
      "Christ": 569,
      "stand": 570,
      "oth": 571,
      "glei": 572,
      "wohl": 573,
      "fün": 574,
      "hren": 575,
      "zig": 576,
      "ehn": 577,
      "uch": 578,
      "ät": 579,
      "meinem": 580,
      "meinen": 581,
      "wand": 582,
      "Für": 583,
      "werde": 584,
      "set": 585,
      "Brüder": 586,
      "Augen": 587,
      "Ar": 588,
      "Ber": 589,
      "führ": 590,
      "ausend": 591,
      "kann": 592,
      "na": 593,
      "esen": 594,
      "Am": 595,
      "fünf": 596,
      "ander": 597,
      "aller": 598,
      "Kindern": 599,
      "öl": 600,
      "diese": 601,
      "deiner": 602,
      "darum": 603,
      "Hau": 604,
      "alt": 605,
      "Erde": 606,
      "Leben": 607,
      "ssen": 608,
      "ang": 609,
      "rede": 610,
      "Tag": 611,
      "eln": 612,
      "blei": 613,
      "willen": 614,
      "eglich": 615,
      "Also": 616,
      "woll": 617,
      "Gere": 618,
      "Män": 619,
      "bar": 620,
      "Jah": 621,
      "nichts": 622,
      "halten": 623,
      "Geist": 624,
      "jeglich": 625,
      "lt": 626,
      "tra": 627,
      "As": 628,
      "pt": 629,
      "einde": 630,
      "Ger": 631,
      "ließ": 632,
      "orn": 633,
      "Weib": 634,
      "Herz": 635,
      "dr": 636,
      "Lei": 637,
      "eure": 638,
      "Heiden": 639,
      "eth": 640,
      "ath": 641,
      "fr": 642,
      "Söh": 643,
      "wert": 644,
      "gab": 645,
      "bist": 646,
      "kamen": 647,
      "seines": 648,
      "zogen": 649,
      "Pro": 650,
      "gesagt": 651,
      "bau": 652,
      "ehe": 653,
      "setz": 654,
      "sp": 655,
      "groß": 656,
      "dien": 657,
      "wur": 658,
      "wen": 659,
      "denen": 660,
      "nahm": 661,
      "fl": 662,
      "hil": 663,
      "machte": 664,
      "habt": 665,
      "sag": 666,
      "gekommen": 667,
      "darin": 668,
      "mü": 669,
      "inge": 670,
      "Sohnes": 671,
      "Gesetz": 672,
      "Knecht": 673,
      "rein": 674,
      "zehn": 675,
      "Feuer": 676,
      "Herzen": 677,
      "weg": 678,
      "gemacht": 679,
      "Fel": 680,
      "Rei": 681,
      "Seele": 682,
      "ihrem": 683,
      "Ha": 684,
      "dig": 685,
      "gleich": 686,
      "mand": 687,
      "Städ": 688,
      "Blut": 689,
      "nehmen": 690,
      "Haupt": 691,
      "elbst": 692,
      "verk": 693,
      "lü": 694,
      "ul": 695,
      "liche": 696,
      "scha": 697,
      "ins": 698,
      "geht": 699,
      "Vä": 700,
      "seid": 701,
      "zog": 702,
      "lle": 703,
      "lä": 704,
      "oten": 705,
      "ze": 706,
      "Jo": 707,
      "ug": 708,
      "antwortete": 709,
      "Sal": 710,
      "selben": 711,
      "hatten": 712,
      "Jahre": 713,
      "ckt": 714,
      "Ihr": 715,
      "lo": 716,
      "recht": 717,
      "Gef": 718,
      "rich": 719,
      "ff": 720,
      "Männer": 721,
      "Gem": 722,
      "brach": 723,
      "hör": 724,
      "Schwert": 725,
      "Saul": 726,
      "daselbst": 727,
      "La": 728,
      "Wi": 729,
      "fah": 730,
      "Hände": 731,
      "Gr": 732,
      "niemand": 733,
      "ziehen": 734,
      "Mit": 735,
      "tat": 736,
      "gewor": 737,
      "rieben": 738,
      "Mut": 739,
      "geg": 740,
      "Scha": 741,
      "Hö": 742,
      "kob": 743,
      "We": 744,
      "Jakob": 745,
      "Sünd": 746,
      "hören": 747,
      "Alt": 748,
      "Flei": 749,
      "Wein": 750,
      "Göt": 751,
      "Bru": 752,
      "ganze": 753,
      "sage": 754,
      "nden": 755,
      "mmen": 756,
      "Fü": 757,
      "Vor": 758,
      "tut": 759,
      "wurden": 760,
      "ib": 761,
      "ange": 762,
      "kenn": 763,
      "isch": 764,
      "phe": 765,
      "su": 766,
      "sal": 767,
      "solches": 768,
      "Meer": 769,
      "Geschle": 770,
      "ai": 771,
      "star": 772,
      "Jün": 773,
      "itten": 774,
      "deines": 775,
      "üste": 776,
      "chter": 777,
      "Bruder": 778,
      "wirst": 779,
      "Man": 780,
      "unde": 781,
      "steh": 782,
      "zeu": 783,
      "stehen": 784,
      "imme": 785,
      "Hüt": 786,
      "Pha": 787,
      "bringen": 788,
      "Jos": 789,
      "nä": 790,
      "llt": 791,
      "voll": 792,
      "eur": 793,
      "yr": 794,
      "samm": 795,
      "Söhne": 796,
      "Tr": 797,
      "Klei": 798,
      "En": 799,
      "Morgen": 800,
      "gingen": 801,
      "Stimme": 802,
      "leben": 803,
      "reich": 804,
      "Prophe": 805,
      "Propheten": 806,
      "Tor": 807,
      "Knechte": 808,
      "redete": 809,
      "tu": 810,
      "Fleisch": 811,
      "Sam": 812,
      "meiner": 813,
      "Fürsten": 814,
      "Wüste": 815,
      "ham": 816,
      "samt": 817,
      "eines": 818,
      "aron": 819,
      "me": 820,
      "cke": 821,
      "Mutter": 822,
      "ew": 823,
      "len": 824,
      "ieß": 825,
      "unden": 826,
      "Ta": 827,
      "werdet": 828,
      "muß": 829,
      "wollen": 830,
      "Altar": 831,
      "Aaron": 832,
      "Sei": 833,
      "teten": 834,
      "geredet": 835,
      "hre": 836,
      "bel": 837,
      "kl": 838,
      "Phil": 839,
      "ache": 840,
      "lieb": 841,
      "ewig": 842,
      "Welt": 843,
      "att": 844,
      "geworden": 845,
      "Ru": 846,
      "mal": 847,
      "ehren": 848,
      "etzt": 849,
      "Wie": 850,
      "allem": 851,
      "selbst": 852,
      "chtigkeit": 853,
      "Wir": 854,
      "stern": 855,
      "ilber": 856,
      "zwanz": 857,
      "sand": 858,
      "sech": 859,
      "meines": 860,
      "jem": 861,
      "ört": 862,
      "Spei": 863,
      "Lie": 864,
      "eigen": 865,
      "dieser": 866,
      "abel": 867,
      "Levi": 868,
      "andere": 869,
      "Dan": 870,
      "Bund": 871,
      "Ort": 872,
      "hinein": 873,
      "Brand": 874,
      "Anges": 875,
      "ächt": 876,
      "ager": 877,
      "Erden": 878,
      "jemand": 879,
      "Gol": 880,
      "Zorn": 881,
      "gehor": 882,
      "Hütte": 883,
      "Nacht": 884,
      "große": 885,
      "gewesen": 886,
      "einander": 887,
      "ho": 888,
      "kön": 889,
      "sehr": 890,
      "aufen": 891,
      "Worte": 892,
      "Angesicht": 893,
      "keine": 894,
      "reden": 895,
      "lauben": 896,
      "übr": 897,
      "euren": 898,
      "ochter": 899,
      "Heer": 900,
      "Mo": 901,
      "ohne": 902,
      "Brot": 903,
      "lö": 904,
      "dazu": 905,
      "Gerechtigkeit": 906,
      "fer": 907,
      "ünde": 908,
      "Engel": 909,
      "Gi": 910,
      "He": 911,
      "diesen": 912,
      "fahren": 913,
      "net": 914,
      "hä": 915,
      "nimm": 916,
      "fra": 917,
      "ölk": 918,
      "Städte": 919,
      "mer": 920,
      "davon": 921,
      "hinauf": 922,
      "Salom": 923,
      "Bar": 924,
      "Völk": 925,
      "Zeb": 926,
      "mö": 927,
      "bleiben": 928,
      "Wahr": 929,
      "ht": 930,
      "Gemeinde": 931,
      "Fr": 932,
      "oren": 933,
      "Vaters": 934,
      "welche": 935,
      "Gna": 936,
      "fiel": 937,
      "Gel": 938,
      "aoth": 939,
      "gest": 940,
      "gnis": 941,
      "hen": 942,
      "wohnen": 943,
      "Tö": 944,
      "Tochter": 945,
      "Babel": 946,
      "Frie": 947,
      "stä": 948,
      "sollte": 949,
      "Zebaoth": 950,
      "Wo": 951,
      "gr": 952,
      "vie": 953,
      "tel": 954,
      "Jahr": 955,
      "land": 956,
      "Philist": 957,
      "geschrieben": 958,
      "Tür": 959,
      "bet": 960,
      "weil": 961,
      "ganzen": 962,
      "Zeu": 963,
      "esten": 964,
      "Brandopfer": 965,
      "Weg": 966,
      "pp": 967,
      "sterben": 968,
      "dahin": 969,
      "heim": 970,
      "erne": 971,
      "Mensch": 972,
      "jeglicher": 973,
      "sandte": 974,
      "mann": 975,
      "weiß": 976,
      "geboten": 977,
      "Davids": 978,
      "Zu": 979,
      "laß": 980,
      "steht": 981,
      "ewiglich": 982,
      "ungen": 983,
      "aum": 984,
      "Weiber": 985,
      "ohen": 986,
      "sto": 987,
      "gehe": 988,
      "lichen": 989,
      "Juden": 990,
      "besch": 991,
      "diesem": 992,
      "Väter": 993,
      ".\"": 994,
      "heraus": 995,
      "darauf": 996,
      "emp": 997,
      "gesehen": 998,
      "Jesu": 999
    },
    "merges": [
      [
        "e",
        "n"
      ],
      [
        "e",
        "r"
      ],
      [
        "c",
        "h"
      ],
      [
        "n",
        "d"
      ],
      [
        "e",
        "i"
      ],
      [
        "i",
        "e"
      ],
      [
        "u",
        "nd"
      ],
      [
        "ei",
        "n"
      ],
      [
        "e",
        "s"
      ],
      [
        "i",
        "ch"
      ],
      [
        "d",
        "a"
      ],
      [
        "s",
        "t"
      ],
      [
        "d",
        "er"
      ],
      [
        "a",
        "u"
      ],
      [
        "g",
        "e"
      ],
      [
        "d",
        "en"
      ],
      [
        "t",
        "e"
      ],
      [
        "l",
        "l"
      ],
      [
        "d",
        "ie"
      ],
      [
        "i",
        "n"
      ],
      [
        "a",
        "n"
      ],
      [
        "i",
        "h"
      ],
      [
        "e",
        "m"
      ],
      [
        "z",
        "u"
      ],
      [
        "h",
        "a"
      ],
      [
        "t",
        "en"
      ],
      [
        "e",
        "l"
      ],
      [
        "a",
        "ch"
      ],
      [
        "s",
        "o"
      ],
      [
        "g",
        "en"
      ],
      [
        "i",
        "r"
      ],
      [
        "b",
        "er"
      ],
      [
        "v",
        "o"
      ],
      [
        "a",
        "r"
      ],
      [
        "s",
        "ie"
      ],
      [
        "u",
        "n"
      ],
      [
        "ich",
        "t"
      ],
      [
        "s",
        "ein"
      ],
      [
        "r",
        "e"
      ],
      [
        "i",
        "t"
      ],
      [
        "i",
        "g"
      ],
      [
        "b",
        "en"
      ],
      [
        "da",
        "s"
      ],
      [
        "a",
        "nd"
      ],
      [
        "n",
        "icht"
      ],
      [
        "au",
        "f"
      ],
      [
        "da",
        "ß"
      ],
      [
        "i",
        "st"
      ],
      [
        "E",
        "R"
      ],
      [
        "H",
        "ER"
      ],
      [
        "HER",
        "R"
      ],
      [
        "s",
        "ch"
      ],
      [
        "t",
        "er"
      ],
      [
        "U",
        "nd"
      ],
      [
        "e",
        "u"
      ],
      [
        "d",
        "es"
      ],
      [
        "e",
        "t"
      ],
      [
        "e",
        "h"
      ],
      [
        "d",
        "em"
      ],
      [
        "a",
        "s"
      ],
      [
        "a",
        "m"
      ],
      [
        "au",
        "s"
      ],
      [
        "ih",
        "r"
      ],
      [
        "o",
        "t"
      ],
      [
        "o",
        "r"
      ],
      [
        "p",
        "r"
      ],
      [
        "a",
        "ll"
      ],
      [
        "d",
        "u"
      ],
      [
        "vo",
        "n"
      ],
      [
        "a",
        "l"
      ],
      [
        "m",
        "it"
      ],
      [
        "b",
        "e"
      ],
      [
        "s",
        "pr"
      ],
      [
        "i",
        "nd"
      ],
      [
        "m",
        "m"
      ],
      [
        "w",
        "ir"
      ],
      [
        "o",
        "h"
      ],
      [
        "w",
        "ar"
      ],
      [
        "v",
        "er"
      ],
      [
        "er",
        "n"
      ],
      [
        "r",
        "a"
      ],
      [
        "so",
        "ll"
      ],
      [
        "ha",
        "t"
      ],
      [
        "w",
        "er"
      ],
      [
        "ih",
        "n"
      ],
      [
        "a",
        "ber"
      ],
      [
        "w",
        "i"
      ],
      [
        "d",
        "ein"
      ],
      [
        "a",
        "h"
      ],
      [
        "ot",
        "t"
      ],
      [
        "spr",
        "ach"
      ],
      [
        "d",
        "e"
      ],
      [
        "m",
        "ein"
      ],
      [
        "u",
        "m"
      ],
      [
        "G",
        "ott"
      ],
      [
        "w",
        "ie"
      ],
      [
        "s",
        "en"
      ],
      [
        "g",
        "es"
      ],
      [
        "S",
        "t"
      ],
      [
        "en",
        "n"
      ],
      [
        "ö",
        "n"
      ],
      [
        "o",
        "l"
      ],
      [
        "oh",
        "n"
      ],
      [
        "vo",
        "r"
      ],
      [
        "D",
        "a"
      ],
      [
        "HERR",
        "N"
      ],
      [
        "ei",
        "t"
      ],
      [
        "S",
        "ch"
      ],
      [
        "s",
        "e"
      ],
      [
        "wir",
        "d"
      ],
      [
        "ih",
        "m"
      ],
      [
        "s",
        "ich"
      ],
      [
        "den",
        "n"
      ],
      [
        "ü",
        "r"
      ],
      [
        "K",
        "ön"
      ],
      [
        "o",
        "n"
      ],
      [
        "l",
        "ich"
      ],
      [
        "ch",
        "t"
      ],
      [
        "eu",
        "ch"
      ],
      [
        "u",
        "s"
      ],
      [
        "i",
        "s"
      ],
      [
        "wi",
        "ll"
      ],
      [
        "k",
        "o"
      ],
      [
        "i",
        "m"
      ],
      [
        "l",
        "e"
      ],
      [
        "ü",
        "ber"
      ],
      [
        "o",
        "ch"
      ],
      [
        "r",
        "en"
      ],
      [
        "a",
        "g"
      ],
      [
        "Kön",
        "ig"
      ],
      [
        "c",
        "k"
      ],
      [
        "h",
        "e"
      ],
      [
        "E",
        "r"
      ],
      [
        "I",
        "s"
      ],
      [
        "a",
        "b"
      ],
      [
        "l",
        "ei"
      ],
      [
        "h",
        "in"
      ],
      [
        "a",
        "t"
      ],
      [
        "n",
        "e"
      ],
      [
        "h",
        "er"
      ],
      [
        "un",
        "s"
      ],
      [
        "b",
        "r"
      ],
      [
        "wer",
        "den"
      ],
      [
        "ra",
        "el"
      ],
      [
        "Is",
        "rael"
      ],
      [
        "K",
        "ind"
      ],
      [
        "n",
        "ach"
      ],
      [
        "ei",
        "l"
      ],
      [
        "an",
        "n"
      ],
      [
        "m",
        "ir"
      ],
      [
        "r",
        "ei"
      ],
      [
        "au",
        "ch"
      ],
      [
        "ko",
        "mm"
      ],
      [
        "l",
        "ie"
      ],
      [
        "r",
        "ie"
      ],
      [
        "ge",
        "h"
      ],
      [
        "all",
        "e"
      ],
      [
        "ein",
        "e"
      ],
      [
        "d",
        "ir"
      ],
      [
        "s",
        "ind"
      ],
      [
        "r",
        "o"
      ],
      [
        "ihn",
        "en"
      ],
      [
        "ol",
        "k"
      ],
      [
        "m",
        "ach"
      ],
      [
        "S",
        "ohn"
      ],
      [
        "h",
        "r"
      ],
      [
        "p",
        "f"
      ],
      [
        "ein",
        "en"
      ],
      [
        "un",
        "ter"
      ],
      [
        "w",
        "ei"
      ],
      [
        "u",
        "t"
      ],
      [
        "G",
        "e"
      ],
      [
        "g",
        "er"
      ],
      [
        "i",
        "l"
      ],
      [
        "V",
        "olk"
      ],
      [
        "w",
        "as"
      ],
      [
        "da",
        "r"
      ],
      [
        "sein",
        "e"
      ],
      [
        "v",
        "i"
      ],
      [
        "i",
        "mm"
      ],
      [
        "m",
        "ich"
      ],
      [
        "H",
        "er"
      ],
      [
        "d",
        "ich"
      ],
      [
        "D",
        "enn"
      ],
      [
        "L",
        "and"
      ],
      [
        "H",
        "aus"
      ],
      [
        "B",
        "r"
      ],
      [
        "zu",
        "m"
      ],
      [
        "f",
        "en"
      ],
      [
        "b",
        "ei"
      ],
      [
        "u",
        "r"
      ],
      [
        "Kind",
        "er"
      ],
      [
        "b",
        "t"
      ],
      [
        "eh",
        "r"
      ],
      [
        "te",
        "t"
      ],
      [
        "i",
        "gen"
      ],
      [
        "a",
        "gen"
      ],
      [
        "an",
        "z"
      ],
      [
        "f",
        "ü"
      ],
      [
        "W",
        "ei"
      ],
      [
        "s",
        "ei"
      ],
      [
        "ge",
        "l"
      ],
      [
        "s",
        "er"
      ],
      [
        "st",
        "er"
      ],
      [
        "ha",
        "ben"
      ],
      [
        "I",
        "ch"
      ],
      [
        "komm",
        "en"
      ],
      [
        "ha",
        "be"
      ],
      [
        "sch",
        "en"
      ],
      [
        "eh",
        "en"
      ],
      [
        "nd",
        "e"
      ],
      [
        "ie",
        "l"
      ],
      [
        "ch",
        "en"
      ],
      [
        "G",
        "es"
      ],
      [
        "f",
        "t"
      ],
      [
        "ß",
        "en"
      ],
      [
        "a",
        "d"
      ],
      [
        "e",
        "g"
      ],
      [
        "st",
        "en"
      ],
      [
        "S",
        "ie"
      ],
      [
        "hat",
        "te"
      ],
      [
        "m",
        "en"
      ],
      [
        "et",
        "z"
      ],
      [
        "ih",
        "re"
      ],
      [
        "a",
        "ge"
      ],
      [
        "k",
        "am"
      ],
      [
        "s",
        "el"
      ],
      [
        "du",
        "r"
      ],
      [
        "in",
        "g"
      ],
      [
        "w",
        "or"
      ],
      [
        "es",
        "t"
      ],
      [
        "sein",
        "en"
      ],
      [
        "dur",
        "ch"
      ],
      [
        "o",
        "s"
      ],
      [
        "ge",
        "ben"
      ],
      [
        "h",
        "ö"
      ],
      [
        "all",
        "en"
      ],
      [
        "n",
        "un"
      ],
      [
        "ge",
        "t"
      ],
      [
        "D",
        "ie"
      ],
      [
        "f",
        "ür"
      ],
      [
        "ch",
        "te"
      ],
      [
        "r",
        "t"
      ],
      [
        "w",
        "o"
      ],
      [
        "ge",
        "b"
      ],
      [
        "war",
        "en"
      ],
      [
        "S",
        "o"
      ],
      [
        "J",
        "u"
      ],
      [
        "n",
        "och"
      ],
      [
        "dein",
        "e"
      ],
      [
        "ges",
        "ch"
      ],
      [
        "Gott",
        "es"
      ],
      [
        "st",
        "e"
      ],
      [
        "pf",
        "er"
      ],
      [
        "i",
        "en"
      ],
      [
        "a",
        "ter"
      ],
      [
        "ä",
        "n"
      ],
      [
        "W",
        "as"
      ],
      [
        "ha",
        "l"
      ],
      [
        "M",
        "en"
      ],
      [
        "A",
        "l"
      ],
      [
        "V",
        "ater"
      ],
      [
        "b",
        "is"
      ],
      [
        "m",
        "an"
      ],
      [
        "n",
        "en"
      ],
      [
        "mein",
        "e"
      ],
      [
        "J",
        "er"
      ],
      [
        "er",
        "e"
      ],
      [
        "sein",
        "em"
      ],
      [
        "z",
        "en"
      ],
      [
        "J",
        "es"
      ],
      [
        "s",
        "am"
      ],
      [
        "r",
        "ü"
      ],
      [
        "A",
        "ber"
      ],
      [
        "nd",
        "ern"
      ],
      [
        "H",
        "and"
      ],
      [
        "d",
        "et"
      ],
      [
        "g",
        "t"
      ],
      [
        "er",
        "t"
      ],
      [
        "spr",
        "icht"
      ],
      [
        "all",
        "es"
      ],
      [
        "o",
        "se"
      ],
      [
        "W",
        "or"
      ],
      [
        "war",
        "d"
      ],
      [
        "ß",
        "t"
      ],
      [
        "l",
        "as"
      ],
      [
        "sch",
        "l"
      ],
      [
        "Da",
        "vi"
      ],
      [
        "Davi",
        "d"
      ],
      [
        "E",
        "s"
      ],
      [
        "p",
        "h"
      ],
      [
        "t",
        "un"
      ],
      [
        "w",
        "el"
      ],
      [
        "j",
        "a"
      ],
      [
        "W",
        "er"
      ],
      [
        "in",
        "gen"
      ],
      [
        "ach",
        "t"
      ],
      [
        "A",
        "u"
      ],
      [
        "so",
        "ndern"
      ],
      [
        "g",
        "ro"
      ],
      [
        "g",
        "anz"
      ],
      [
        "ll",
        "en"
      ],
      [
        "D",
        "er"
      ],
      [
        "ü",
        "nd"
      ],
      [
        "k",
        "eit"
      ],
      [
        "ig",
        "t"
      ],
      [
        "k",
        "en"
      ],
      [
        "R",
        "e"
      ],
      [
        "al",
        "s"
      ],
      [
        "wi",
        "der"
      ],
      [
        "soll",
        "en"
      ],
      [
        "w",
        "enn"
      ],
      [
        "t",
        "r"
      ],
      [
        "ie",
        "h"
      ],
      [
        "sein",
        "er"
      ],
      [
        "ö",
        "h"
      ],
      [
        "L",
        "e"
      ],
      [
        "un",
        "g"
      ],
      [
        "K",
        "ne"
      ],
      [
        "ha",
        "st"
      ],
      [
        "b",
        "es"
      ],
      [
        "ge",
        "f"
      ],
      [
        "ah",
        "r"
      ],
      [
        "w",
        "ä"
      ],
      [
        "ihr",
        "en"
      ],
      [
        "z",
        "o"
      ],
      [
        "soll",
        "st"
      ],
      [
        "S",
        "e"
      ],
      [
        "re",
        "u"
      ],
      [
        "o",
        "der"
      ],
      [
        "geh",
        "en"
      ],
      [
        "wie",
        "der"
      ],
      [
        "ch",
        "ten"
      ],
      [
        "am",
        "en"
      ],
      [
        "Z",
        "eit"
      ],
      [
        "eu",
        "er"
      ],
      [
        "i",
        "ge"
      ],
      [
        "ä",
        "u"
      ],
      [
        "b",
        "st"
      ],
      [
        "b",
        "in"
      ],
      [
        "it",
        "er"
      ],
      [
        "vo",
        "m"
      ],
      [
        "w",
        "ohn"
      ],
      [
        "an",
        "gen"
      ],
      [
        "f",
        "e"
      ],
      [
        "ß",
        "e"
      ],
      [
        "te",
        "te"
      ],
      [
        "M",
        "ann"
      ],
      [
        "al",
        "so"
      ],
      [
        "ad",
        "t"
      ],
      [
        "A",
        "n"
      ],
      [
        "oh",
        "l"
      ],
      [
        "ar",
        "um"
      ],
      [
        "i",
        "a"
      ],
      [
        "zu",
        "r"
      ],
      [
        "Ge",
        "b"
      ],
      [
        "Ju",
        "da"
      ],
      [
        "z",
        "wei"
      ],
      [
        "U",
        "n"
      ],
      [
        "ge",
        "gen"
      ],
      [
        "ag",
        "t"
      ],
      [
        "D",
        "as"
      ],
      [
        "St",
        "adt"
      ],
      [
        "wel",
        "ch"
      ],
      [
        "us",
        "al"
      ],
      [
        "Men",
        "schen"
      ],
      [
        "Haus",
        "e"
      ],
      [
        "V",
        "er"
      ],
      [
        "usal",
        "em"
      ],
      [
        "s",
        "agen"
      ],
      [
        "St",
        "ä"
      ],
      [
        "Jer",
        "usalem"
      ],
      [
        "l",
        "au"
      ],
      [
        "z",
        "er"
      ],
      [
        "e",
        "er"
      ],
      [
        "ter",
        "n"
      ],
      [
        "g",
        "ing"
      ],
      [
        "ein",
        "em"
      ],
      [
        "n",
        "ah"
      ],
      [
        "h",
        "l"
      ],
      [
        "s",
        "ah"
      ],
      [
        "ü",
        "t"
      ],
      [
        "o",
        "b"
      ],
      [
        "las",
        "sen"
      ],
      [
        "M",
        "ose"
      ],
      [
        "m",
        "ehr"
      ],
      [
        "en",
        "d"
      ],
      [
        "so",
        "l"
      ],
      [
        "ig",
        "keit"
      ],
      [
        "A",
        "b"
      ],
      [
        "r",
        "u"
      ],
      [
        "a",
        "ß"
      ],
      [
        "H",
        "imm"
      ],
      [
        "d",
        "och"
      ],
      [
        "n",
        "er"
      ],
      [
        "Himm",
        "el"
      ],
      [
        "die",
        "s"
      ],
      [
        "g",
        "te"
      ],
      [
        "y",
        "p"
      ],
      [
        "D",
        "u"
      ],
      [
        "P",
        "rie"
      ],
      [
        "el",
        "t"
      ],
      [
        "dein",
        "en"
      ],
      [
        "H",
        "ä"
      ],
      [
        "ge",
        "w"
      ],
      [
        "g",
        "yp"
      ],
      [
        "ck",
        "en"
      ],
      [
        "t",
        "wor"
      ],
      [
        "Land",
        "e"
      ],
      [
        "sprach",
        "en"
      ],
      [
        "o",
        "pfer"
      ],
      [
        "Ä",
        "gyp"
      ],
      [
        "h",
        "eil"
      ],
      [
        "mach",
        "t"
      ],
      [
        "au",
        "l"
      ],
      [
        "Her",
        "r"
      ],
      [
        "h",
        "eit"
      ],
      [
        "Sie",
        "he"
      ],
      [
        "n",
        "ie"
      ],
      [
        "eu",
        "te"
      ],
      [
        "e",
        "b"
      ],
      [
        "an",
        "twor"
      ],
      [
        "Was",
        "ser"
      ],
      [
        "h",
        "ei"
      ],
      [
        "T",
        "age"
      ],
      [
        "k",
        "ein"
      ],
      [
        "i",
        "er"
      ],
      [
        "E",
        "l"
      ],
      [
        "Wor",
        "t"
      ],
      [
        "get",
        "an"
      ],
      [
        "da",
        "n"
      ],
      [
        "N",
        "amen"
      ],
      [
        "d",
        "rei"
      ],
      [
        "E",
        "in"
      ],
      [
        "v",
        "iel"
      ],
      [
        "B",
        "l"
      ],
      [
        "Prie",
        "ster"
      ],
      [
        "sol",
        "ch"
      ],
      [
        "Jes",
        "us"
      ],
      [
        "dein",
        "em"
      ],
      [
        "J",
        "a"
      ],
      [
        "o",
        "m"
      ],
      [
        "k",
        "e"
      ],
      [
        "n",
        "eh"
      ],
      [
        "and",
        "ern"
      ],
      [
        "und",
        "ert"
      ],
      [
        "ü",
        "n"
      ],
      [
        "Israel",
        "s"
      ],
      [
        "en",
        "t"
      ],
      [
        "sie",
        "he"
      ],
      [
        "ö",
        "t"
      ],
      [
        "el",
        "e"
      ],
      [
        "C",
        "hr"
      ],
      [
        "h",
        "undert"
      ],
      [
        "soll",
        "t"
      ],
      [
        "G",
        "ei"
      ],
      [
        "T",
        "o"
      ],
      [
        "D",
        "arum"
      ],
      [
        "komm",
        "t"
      ],
      [
        "re",
        "t"
      ],
      [
        "vi",
        "er"
      ],
      [
        "Ägyp",
        "ten"
      ],
      [
        "r",
        "i"
      ],
      [
        "am",
        "m"
      ],
      [
        "f",
        "fen"
      ],
      [
        "Ges",
        "ch"
      ],
      [
        "ei",
        "den"
      ],
      [
        "ger",
        "e"
      ],
      [
        "mach",
        "en"
      ],
      [
        "H",
        "eil"
      ],
      [
        "es",
        "sen"
      ],
      [
        "Br",
        "ü"
      ],
      [
        "ein",
        "er"
      ],
      [
        "S",
        "p"
      ],
      [
        "s",
        "ehen"
      ],
      [
        "ihr",
        "er"
      ],
      [
        "W",
        "enn"
      ],
      [
        "u",
        "ß"
      ],
      [
        "z",
        "ieh"
      ],
      [
        "w",
        "ür"
      ],
      [
        "König",
        "s"
      ],
      [
        "w",
        "e"
      ],
      [
        "uns",
        "er"
      ],
      [
        "ge",
        "geben"
      ],
      [
        "z",
        "w"
      ],
      [
        "sie",
        "ben"
      ],
      [
        "or",
        "gen"
      ],
      [
        "n",
        "is"
      ],
      [
        "Chr",
        "ist"
      ],
      [
        "st",
        "and"
      ],
      [
        "ot",
        "h"
      ],
      [
        "g",
        "lei"
      ],
      [
        "w",
        "ohl"
      ],
      [
        "fü",
        "n"
      ],
      [
        "h",
        "ren"
      ],
      [
        "z",
        "ig"
      ],
      [
        "eh",
        "n"
      ],
      [
        "u",
        "ch"
      ],
      [
        "ä",
        "t"
      ],
      [
        "mein",
        "em"
      ],
      [
        "mein",
        "en"
      ],
      [
        "w",
        "and"
      ],
      [
        "F",
        "ür"
      ],
      [
        "wer",
        "de"
      ],
      [
        "s",
        "et"
      ],
      [
        "Brü",
        "der"
      ],
      [
        "Au",
        "gen"
      ],
      [
        "A",
        "r"
      ],
      [
        "B",
        "er"
      ],
      [
        "fü",
        "hr"
      ],
      [
        "aus",
        "end"
      ],
      [
        "k",
        "ann"
      ],
      [
        "n",
        "a"
      ],
      [
        "es",
        "en"
      ],
      [
        "A",
        "m"
      ],
      [
        "fün",
        "f"
      ],
      [
        "and",
        "er"
      ],
      [
        "all",
        "er"
      ],
      [
        "Kind",
        "ern"
      ],
      [
        "ö",
        "l"
      ],
      [
        "die",
        "se"
      ],
      [
        "dein",
        "er"
      ],
      [
        "dar",
        "um"
      ],
      [
        "H",
        "au"
      ],
      [
        "al",
        "t"
      ],
      [
        "Er",
        "de"
      ],
      [
        "Le",
        "ben"
      ],
      [
        "s",
        "sen"
      ],
      [
        "an",
        "g"
      ],
      [
        "re",
        "de"
      ],
      [
        "T",
        "ag"
      ],
      [
        "el",
        "n"
      ],
      [
        "b",
        "lei"
      ],
      [
        "will",
        "en"
      ],
      [
        "eg",
        "lich"
      ],
      [
        "Al",
        "so"
      ],
      [
        "wo",
        "ll"
      ],
      [
        "G",
        "ere"
      ],
      [
        "M",
        "än"
      ],
      [
        "b",
        "ar"
      ],
      [
        "J",
        "ah"
      ],
      [
        "nicht",
        "s"
      ],
      [
        "hal",
        "ten"
      ],
      [
        "Gei",
        "st"
      ],
      [
        "j",
        "eglich"
      ],
      [
        "l",
        "t"
      ],
      [
        "t",
        "ra"
      ],
      [
        "A",
        "s"
      ],
      [
        "p",
        "t"
      ],
      [
        "ei",
        "nde"
      ],
      [
        "G",
        "er"
      ],
      [
        "lie",
        "ß"
      ],
      [
        "or",
        "n"
      ],
      [
        "Wei",
        "b"
      ],
      [
        "Her",
        "z"
      ],
      [
        "d",
        "r"
      ],
      [
        "L",
        "ei"
      ],
      [
        "eu",
        "re"
      ],
      [
        "H",
        "eiden"
      ],
      [
        "et",
        "h"
      ],
      [
        "at",
        "h"
      ],
      [
        "f",
        "r"
      ],
      [
        "S",
        "öh"
      ],
      [
        "wer",
        "t"
      ],
      [
        "g",
        "ab"
      ],
      [
        "b",
        "ist"
      ],
      [
        "kam",
        "en"
      ],
      [
        "sein",
        "es"
      ],
      [
        "zo",
        "gen"
      ],
      [
        "P",
        "ro"
      ],
      [
        "ges",
        "agt"
      ],
      [
        "b",
        "au"
      ],
      [
        "eh",
        "e"
      ],
      [
        "s",
        "etz"
      ],
      [
        "s",
        "p"
      ],
      [
        "gro",
        "ß"
      ],
      [
        "d",
        "ien"
      ],
      [
        "w",
        "ur"
      ],
      [
        "w",
        "en"
      ],
      [
        "den",
        "en"
      ],
      [
        "nah",
        "m"
      ],
      [
        "f",
        "l"
      ],
      [
        "h",
        "il"
      ],
      [
        "mach",
        "te"
      ],
      [
        "ha",
        "bt"
      ],
      [
        "s",
        "ag"
      ],
      [
        "ge",
        "kommen"
      ],
      [
        "dar",
        "in"
      ],
      [
        "m",
        "ü"
      ],
      [
        "in",
        "ge"
      ],
      [
        "Sohn",
        "es"
      ],
      [
        "Ges",
        "etz"
      ],
      [
        "Kne",
        "cht"
      ],
      [
        "r",
        "ein"
      ],
      [
        "z",
        "ehn"
      ],
      [
        "F",
        "euer"
      ],
      [
        "Her",
        "zen"
      ],
      [
        "w",
        "eg"
      ],
      [
        "ge",
        "macht"
      ],
      [
        "F",
        "el"
      ],
      [
        "R",
        "ei"
      ],
      [
        "Se",
        "ele"
      ],
      [
        "ihr",
        "em"
      ],
      [
        "H",
        "a"
      ],
      [
        "d",
        "ig"
      ],
      [
        "glei",
        "ch"
      ],
      [
        "m",
        "and"
      ],
      [
        "Stä",
        "d"
      ],
      [
        "Bl",
        "ut"
      ],
      [
        "neh",
        "men"
      ],
      [
        "Hau",
        "pt"
      ],
      [
        "el",
        "bst"
      ],
      [
        "ver",
        "k"
      ],
      [
        "l",
        "ü"
      ],
      [
        "u",
        "l"
      ],
      [
        "lich",
        "e"
      ],
      [
        "sch",
        "a"
      ],
      [
        "in",
        "s"
      ],
      [
        "geh",
        "t"
      ],
      [
        "V",
        "ä"
      ],
      [
        "sei",
        "d"
      ],
      [
        "zo",
        "g"
      ],
      [
        "ll",
        "e"
      ],
      [
        "l",
        "ä"
      ],
      [
        "o",
        "ten"
      ],
      [
        "z",
        "e"
      ],
      [
        "J",
        "o"
      ],
      [
        "u",
        "g"
      ],
      [
        "antwor",
        "tete"
      ],
      [
        "S",
        "al"
      ],
      [
        "sel",
        "ben"
      ],
      [
        "hat",
        "ten"
      ],
      [
        "Jah",
        "re"
      ],
      [
        "ck",
        "t"
      ],
      [
        "I",
        "hr"
      ],
      [
        "l",
        "o"
      ],
      [
        "re",
        "cht"
      ],
      [
        "Ge",
        "f"
      ],
      [
        "r",
        "ich"
      ],
      [
        "f",
        "f"
      ],
      [
        "Män",
        "ner"
      ],
      [
        "G",
        "em"
      ],
      [
        "br",
        "ach"
      ],
      [
        "hö",
        "r"
      ],
      [
        "Sch",
        "wert"
      ],
      [
        "S",
        "aul"
      ],
      [
        "das",
        "elbst"
      ],
      [
        "L",
        "a"
      ],
      [
        "W",
        "i"
      ],
      [
        "f",
        "ah"
      ],
      [
        "Hä",
        "nde"
      ],
      [
        "G",
        "r"
      ],
      [
        "nie",
        "mand"
      ],
      [
        "zieh",
        "en"
      ],
      [
        "M",
        "it"
      ],
      [
        "t",
        "at"
      ],
      [
        "ge",
        "wor"
      ],
      [
        "rie",
        "ben"
      ],
      [
        "M",
        "ut"
      ],
      [
        "ge",
        "g"
      ],
      [
        "Sch",
        "a"
      ],
      [
        "H",
        "ö"
      ],
      [
        "ko",
        "b"
      ],
      [
        "W",
        "e"
      ],
      [
        "Ja",
        "kob"
      ],
      [
        "S",
        "ünd"
      ],
      [
        "hö",
        "ren"
      ],
      [
        "Al",
        "t"
      ],
      [
        "F",
        "lei"
      ],
      [
        "W",
        "ein"
      ],
      [
        "G",
        "öt"
      ],
      [
        "Br",
        "u"
      ],
      [
        "ganz",
        "e"
      ],
      [
        "s",
        "age"
      ],
      [
        "nd",
        "en"
      ],
      [
        "mm",
        "en"
      ],
      [
        "F",
        "ü"
      ],
      [
        "V",
        "or"
      ],
      [
        "t",
        "ut"
      ],
      [
        "wur",
        "den"
      ],
      [
        "i",
        "b"
      ],
      [
        "an",
        "ge"
      ],
      [
        "k",
        "enn"
      ],
      [
        "i",
        "sch"
      ],
      [
        "p",
        "he"
      ],
      [
        "s",
        "u"
      ],
      [
        "s",
        "al"
      ],
      [
        "solch",
        "es"
      ],
      [
        "M",
        "eer"
      ],
      [
        "Gesch",
        "le"
      ],
      [
        "a",
        "i"
      ],
      [
        "st",
        "ar"
      ],
      [
        "J",
        "ün"
      ],
      [
        "it",
        "ten"
      ],
      [
        "dein",
        "es"
      ],
      [
        "ü",
        "ste"
      ],
      [
        "ch",
        "ter"
      ],
      [
        "Bru",
        "der"
      ],
      [
        "wir",
        "st"
      ],
      [
        "M",
        "an"
      ],
      [
        "und",
        "e"
      ],
      [
        "st",
        "eh"
      ],
      [
        "z",
        "eu"
      ],
      [
        "st",
        "ehen"
      ],
      [
        "imm",
        "e"
      ],
      [
        "H",
        "üt"
      ],
      [
        "P",
        "ha"
      ],
      [
        "br",
        "ingen"
      ],
      [
        "J",
        "os"
      ],
      [
        "n",
        "ä"
      ],
      [
        "ll",
        "t"
      ],
      [
        "vo",
        "ll"
      ],
      [
        "eu",
        "r"
      ],
      [
        "y",
        "r"
      ],
      [
        "sam",
        "m"
      ],
      [
        "Söh",
        "ne"
      ],
      [
        "T",
        "r"
      ],
      [
        "K",
        "lei"
      ],
      [
        "E",
        "n"
      ],
      [
        "M",
        "orgen"
      ],
      [
        "g",
        "ingen"
      ],
      [
        "St",
        "imme"
      ],
      [
        "le",
        "ben"
      ],
      [
        "rei",
        "ch"
      ],
      [
        "Pro",
        "phe"
      ],
      [
        "Prophe",
        "ten"
      ],
      [
        "T",
        "or"
      ],
      [
        "Kne",
        "chte"
      ],
      [
        "rede",
        "te"
      ],
      [
        "t",
        "u"
      ],
      [
        "Flei",
        "sch"
      ],
      [
        "S",
        "am"
      ],
      [
        "mein",
        "er"
      ],
      [
        "Für",
        "sten"
      ],
      [
        "W",
        "üste"
      ],
      [
        "ha",
        "m"
      ],
      [
        "sam",
        "t"
      ],
      [
        "ein",
        "es"
      ],
      [
        "ar",
        "on"
      ],
      [
        "m",
        "e"
      ],
      [
        "ck",
        "e"
      ],
      [
        "Mut",
        "ter"
      ],
      [
        "e",
        "w"
      ],
      [
        "l",
        "en"
      ],
      [
        "ie",
        "ß"
      ],
      [
        "und",
        "en"
      ],
      [
        "T",
        "a"
      ],
      [
        "wer",
        "det"
      ],
      [
        "m",
        "uß"
      ],
      [
        "wo",
        "llen"
      ],
      [
        "Alt",
        "ar"
      ],
      [
        "A",
        "aron"
      ],
      [
        "S",
        "ei"
      ],
      [
        "te",
        "ten"
      ],
      [
        "gere",
        "det"
      ],
      [
        "h",
        "re"
      ],
      [
        "b",
        "el"
      ],
      [
        "k",
        "l"
      ],
      [
        "P",
        "hil"
      ],
      [
        "ach",
        "e"
      ],
      [
        "lie",
        "b"
      ],
      [
        "ew",
        "ig"
      ],
      [
        "W",
        "elt"
      ],
      [
        "at",
        "t"
      ],
      [
        "gewor",
        "den"
      ],
      [
        "R",
        "u"
      ],
      [
        "m",
        "al"
      ],
      [
        "eh",
        "ren"
      ],
      [
        "etz",
        "t"
      ],
      [
        "W",
        "ie"
      ],
      [
        "all",
        "em"
      ],
      [
        "sel",
        "bst"
      ],
      [
        "cht",
        "igkeit"
      ],
      [
        "W",
        "ir"
      ],
      [
        "st",
        "ern"
      ],
      [
        "il",
        "ber"
      ],
      [
        "zw",
        "anz"
      ],
      [
        "s",
        "and"
      ],
      [
        "se",
        "ch"
      ],
      [
        "mein",
        "es"
      ],
      [
        "j",
        "em"
      ],
      [
        "ö",
        "rt"
      ],
      [
        "Sp",
        "ei"
      ],
      [
        "L",
        "ie"
      ],
      [
        "ei",
        "gen"
      ],
      [
        "die",
        "ser"
      ],
      [
        "ab",
        "el"
      ],
      [
        "Le",
        "vi"
      ],
      [
        "and",
        "ere"
      ],
      [
        "D",
        "an"
      ],
      [
        "B",
        "und"
      ],
      [
        "O",
        "rt"
      ],
      [
        "hin",
        "ein"
      ],
      [
        "Br",
        "and"
      ],
      [
        "An",
        "ges"
      ],
      [
        "ä",
        "cht"
      ],
      [
        "ag",
        "er"
      ],
      [
        "Er",
        "den"
      ],
      [
        "jem",
        "and"
      ],
      [
        "G",
        "ol"
      ],
      [
        "Z",
        "orn"
      ],
      [
        "geh",
        "or"
      ],
      [
        "Hüt",
        "te"
      ],
      [
        "N",
        "acht"
      ],
      [
        "gro",
        "ße"
      ],
      [
        "gew",
        "esen"
      ],
      [
        "ein",
        "ander"
      ],
      [
        "h",
        "o"
      ],
      [
        "k",
        "ön"
      ],
      [
        "s",
        "ehr"
      ],
      [
        "auf",
        "en"
      ],
      [
        "Wor",
        "te"
      ],
      [
        "Anges",
        "icht"
      ],
      [
        "k",
        "eine"
      ],
      [
        "re",
        "den"
      ],
      [
        "lau",
        "ben"
      ],
      [
        "ü",
        "br"
      ],
      [
        "eu",
        "ren"
      ],
      [
        "och",
        "ter"
      ],
      [
        "H",
        "eer"
      ],
      [
        "M",
        "o"
      ],
      [
        "ohn",
        "e"
      ],
      [
        "Br",
        "ot"
      ],
      [
        "l",
        "ö"
      ],
      [
        "da",
        "zu"
      ],
      [
        "Gere",
        "chtigkeit"
      ],
      [
        "f",
        "er"
      ],
      [
        "ü",
        "nde"
      ],
      [
        "En",
        "gel"
      ],
      [
        "G",
        "i"
      ],
      [
        "H",
        "e"
      ],
      [
        "die",
        "sen"
      ],
      [
        "fah",
        "ren"
      ],
      [
        "n",
        "et"
      ],
      [
        "h",
        "ä"
      ],
      [
        "n",
        "imm"
      ],
      [
        "f",
        "ra"
      ],
      [
        "öl",
        "k"
      ],
      [
        "Städ",
        "te"
      ],
      [
        "m",
        "er"
      ],
      [
        "da",
        "von"
      ],
      [
        "hin",
        "auf"
      ],
      [
        "Sal",
        "om"
      ],
      [
        "B",
        "ar"
      ],
      [
        "V",
        "ölk"
      ],
      [
        "Z",
        "eb"
      ],
      [
        "m",
        "ö"
      ],
      [
        "blei",
        "ben"
      ],
      [
        "W",
        "ahr"
      ],
      [
        "h",
        "t"
      ],
      [
        "Gem",
        "einde"
      ],
      [
        "F",
        "r"
      ],
      [
        "or",
        "en"
      ],
      [
        "Vater",
        "s"
      ],
      [
        "welch",
        "e"
      ],
      [
        "G",
        "na"
      ],
      [
        "f",
        "iel"
      ],
      [
        "G",
        "el"
      ],
      [
        "a",
        "oth"
      ],
      [
        "ges",
        "t"
      ],
      [
        "g",
        "nis"
      ],
      [
        "h",
        "en"
      ],
      [
        "wohn",
        "en"
      ],
      [
        "T",
        "ö"
      ],
      [
        "T",
        "ochter"
      ],
      [
        "B",
        "abel"
      ],
      [
        "F",
        "rie"
      ],
      [
        "st",
        "ä"
      ],
      [
        "soll",
        "te"
      ],
      [
        "Zeb",
        "aoth"
      ],
      [
        "W",
        "o"
      ],
      [
        "g",
        "r"
      ],
      [
        "v",
        "ie"
      ],
      [
        "te",
        "l"
      ],
      [
        "J",
        "ahr"
      ],
      [
        "l",
        "and"
      ],
      [
        "Phil",
        "ist"
      ],
      [
        "gesch",
        "rieben"
      ],
      [
        "T",
        "ür"
      ],
      [
        "b",
        "et"
      ],
      [
        "w",
        "eil"
      ],
      [
        "ganz",
        "en"
      ],
      [
        "Z",
        "eu"
      ],
      [
        "es",
        "ten"
      ],
      [
        "Brand",
        "opfer"
      ],
      [
        "W",
        "eg"
      ],
      [
        "p",
        "p"
      ],
      [
        "ster",
        "ben"
      ],
      [
        "da",
        "hin"
      ],
      [
        "hei",
        "m"
      ],
      [
        "ern",
        "e"
      ],
      [
        "Men",
        "sch"
      ],
      [
        "jeglich",
        "er"
      ],
      [
        "sand",
        "te"
      ],
      [
        "m",
        "ann"
      ],
      [
        "wei",
        "ß"
      ],
      [
        "geb",
        "oten"
      ],
      [
        "David",
        "s"
      ],
      [
        "Z",
        "u"
      ],
      [
        "l",
        "aß"
      ],
      [
        "steh",
        "t"
      ],
      [
        "ewig",
        "lich"
      ],
      [
        "un",
        "gen"
      ],
      [
        "au",
        "m"
      ],
      [
        "Wei",
        "ber"
      ],
      [
        "oh",
        "en"
      ],
      [
        "st",
        "o"
      ],
      [
        "ge",
        "he"
      ],
      [
        "lich",
        "en"
      ],
      [
        "Ju",
        "den"
      ],
      [
        "bes",
        "ch"
      ],
      [
        "dies",
        "em"
      ],
      [
        "Vä",
        "ter"
      ],
      [
        ".",
        "\""
      ],
      [
        "her",
        "aus"
      ],
      [
        "dar",
        "auf"
      ],
      [
        "em",
        "p"
      ],
      [
        "ges",
        "ehen"
      ],
      [
        "Jes",
        "u"
      ]
    ]
  }
}