{
  "version": "1.0",
  "truncation": null,
  "padding": null,
  "added_tokens": [
    {
      "id": 0,
      "content": "[UNK]",
      "single_word": false,
      "lstrip": false,
      "rstrip": false,
      "normalized": false,
      "special": true
    }
  ],
  "normalizer": null,
  "pre_tokenizer": {
    "type": "Whitespace"
  },
  "post_processor": null,
  "decoder": null,
  "model": {
    "type": "BPE",
    "dropout": null,
    "unk_token": "[UNK]",
    "continuing_subword_prefix": null,
    "end_of_word_suffix": null,
    "fuse_unk": false,
    "byte_fallback": false,
    "ignore_merges": false,
    "vocab": {
      "[UNK]": 0,
      "!": 1,
      "\"": 2,
      "&": 3,
      "'": 4,
      "(": 5,
      ")": 6,
      ",": 7,
      "-": 8,
      ".": 9,
      "0": 10,
      "1": 11,
      "2": 12,
      "3": 13,
      "4": 14,
      "5": 15,
      "6": 16,
      "7": 17,
      "8": 18,
      "9": 19,
      ":": 20,
      ";": 21,
      "?": 22,
      "A": 23,
      "B": 24,
      "C": 25,
      "D": 26,
      "E": 27,
      "F": 28,
      "G": 29,
      "H": 30,
      "I": 31,
      "J": 32,
      "K": 33,
      "L": 34,
      "M": 35,
      "N": 36,
      "O": 37,
      "P": 38,
      "Q": 39,
      "R": 40,
      "S": 41,
      "T": 42,
      "U": 43,
      "V": 44,
      "W": 45,
      "Y": 46,
      "Z": 47,
      "[": 48,
      "]": 49,
      "a": 50,
      "b": 51,
      "c": 52,
      "d": 53,
      "e": 54,
      "f": 55,
      "g": 56,
      "h": 57,
      "i": 58,
      "j": 59,
      "k": 60,
      "l": 61,
      "m": 62,
      "n": 63,
      "o": 64,
      "p": 65,
      "q": 66,
      "r": 67,
      "s": 68,
      "t": 69,
      "u": 70,
      "v": 71,
      "w": 72,
      "x": 73,
      "y": 74,
      "z": 75,
      "{": 76,
      "}": 77,
      "Ä": 78,
      "Ö": 79,
      "Ü": 80,
      "ß": 81,
      "ä": 82,
      "ö": 83,
      "ü": 84,
      "er": 85,
      "en": 86,
      "th": 87,
      "nd": 88,
      "in": 89,
      "ch": 90,
      "the": 91,
      "es": 92,
      "and": 93,
      "ie": 94,
      "und": 95,
      "ll": 96,
      "is": 97,
      "or": 98,
      "ha": 99,
      "of": 100,
      "on": 101,
      "ou": 102,
      "ich": 103,
      "se": 104,
      "an": 105,
      "ar": 106,
      "as": 107,
      "it": 108,
      "to": 109,
      "he": 110,
      "te": 111,
      "re": 112,
      "au": 113,
      "der": 114,
      "de": 115,
      "wi": 116,
      "be": 117,
      "at": 118,
      "ge": 119,
      "me": 120,
      "le": 121,
      "st": 122,
      "den": 123,
      "ing": 124,
      "da": 125,
      "ra": 126,
      "un": 127,
      "sa": 128,
      "ih": 129,
      "die": 130,
      "ig": 131,
      "so": 132,
      "zu": 133,
      "im": 134,
      "om": 135,
      "ein": 136,
      "all": 137,
      "ed": 138,
      "ten": 139,
      "for": 140,
      "ir": 141,
      "you": 142,
      "el": 143,
      "ber": 144,
      "ter": 145,
      "ot": 146,
      "wh": 147,
      "ver": 148,
      "il": 149,
      "sie": 150,
      "al": 151,
      "we": 152,
      "id": 153,
      "that": 154,
      "ere": 155,
      "icht": 156,
      "ah": 157,
      "am": 158,
      "sha": 159,
      "ve": 160,
      "gen": 161,
      "sp": 162,
      "ist": 163,
      "sein": 164,
      "ben": 165,
      "des": 166,
      "will": 167,
      "his": 168,
      "ol": 169,
      "shall": 170,
      "ach": 171,
      "ut": 172,
      "das": 173,
      "nicht": 174,
      "daß": 175,
      "ke": 176,
      "auf": 177,
      "ow": 178,
      "HE": 179,
      "HER": 180,
      "HERR": 181,
      "Und": 182,
      "ur": 183,
      "ind": 184,
      "od": 185,
      "ne": 186,
      "him": 187,
      "dem": 188,
      "ro": 189,
      "was": 190,
      "with": 191,
      "war": 192,
      "men": 193,
      "us": 194,
      "And": 195,
      "hat": 196,
      "them": 197,
      "ce": 198,
      "ther": 199,
      "em": 200,
      "ren": 201,
      "sch": 202,
      "mit": 203,
      "ies": 204,
      "they": 205,
      "von": 206,
      "eu": 207,
      "wer": 208,
      "ab": 209,
      "aus": 210,
      "ht": 211,
      "hen": 212,
      "wir": 213,
      "Is": 214,
      "her": 215,
      "ag": 216,
      "um": 217,
      "rach": 218,
      "aber": 219,
      "oh": 220,
      "rael": 221,
      "ihr": 222,
      "Israel": 223,
      "et": 224,
      "soll": 225,
      "not": 226,
      "fr": 227,
      "du": 228,
      "ihn": 229,
      "ma": 230,
      "ck": 231,
      "ern": 232,
      "man": 233,
      "sen": 234,
      "dein": 235,
      "your": 236,
      "ad": 237,
      "my": 238,
      "Da": 239,
      "wor": 240,
      "up": 241,
      "ott": 242,
      "hr": 243,
      "li": 244,
      "sprach": 245,
      "mein": 246,
      "unto": 247,
      "la": 248,
      "Gott": 249,
      "op": 250,
      "He": 251,
      "have": 252,
      "wie": 253,
      "ion": 254,
      "one": 255,
      "out": 256,
      "God": 257,
      "ven": 258,
      "ges": 259,
      "are": 260,
      "The": 261,
      "who": 262,
      "said": 263,
      "tr": 264,
      "from": 265,
      "their": 266,
      "sel": 267,
      "enn": 268,
      "which": 269,
      "ön": 270,
      "ain": 271,
      "fe": 272,
      "lo": 273,
      "vor": 274,
      "br": 275,
      "co": 276,
      "St": 277,
      "son": 278,
      "est": 279,
      "ess": 280,
      "ame": 281,
      "fore": 282,
      "ent": 283,
      "hou": 284,
      "HERRN": 285,
      "pe": 286,
      "Sch": 287,
      "weh": 288,
      "ohn": 289,
      "king": 290,
      "Yah": 291,
      "wird": 292,
      "ihm": 293,
      "Yahweh": 294,
      "if": 295,
      "sich": 296,
      "Ge": 297,
      "denn": 298,
      "ts": 299,
      "thou": 300,
      "RD": 301,
      "LO": 302,
      "LORD": 303,
      "there": 304,
      "fer": 305,
      "Kön": 306,
      "lich": 307,
      "no": 308,
      "ür": 309,
      "ser": 310,
      "do": 311,
      "ld": 312,
      "euch": 313,
      "lt": 314,
      "ye": 315,
      "über": 316,
      "cht": 317,
      "König": 318,
      "our": 319,
      "pr": 320,
      "lie": 321,
      "old": 322,
      "ord": 323,
      "Er": 324,
      "ight": 325,
      "go": 326,
      "hin": 327,
      "We": 328,
      "say": 329,
      "fa": 330,
      "ste": 331,
      "were": 332,
      "ose": 333,
      "day": 334,
      "by": 335,
      "werden": 336,
      "nach": 337,
      "alle": 338,
      "wo": 339,
      "ause": 340,
      "wa": 341,
      "Kind": 342,
      "mir": 343,
      "os": 344,
      "but": 345,
      "thy": 346,
      "auch": 347,
      "ild": 348,
      "pt": 349,
      "this": 350,
      "kom": 351,
      "ann": 352,
      "also": 353,
      "ers": 354,
      "ly": 355,
      "ak": 356,
      "af": 357,
      "dar": 358,
      "dir": 359,
      "eh": 360,
      "sind": 361,
      "ihnen": 362,
      "mach": 363,
      "Jes": 364,
      "hear": 365,
      "olk": 366,
      "own": 367,
      "Sohn": 368,
      "ation": 369,
      "Ju": 370,
      "came": 371,
      "ib": 372,
      "vid": 373,
      "David": 374,
      "hand": 375,
      "again": 376,
      "unter": 377,
      "peop": 378,
      "land": 379,
      "ine": 380,
      "had": 381,
      "ant": 382,
      "house": 383,
      "when": 384,
      "come": 385,
      "eine": 386,
      "Volk": 387,
      "Her": 388,
      "uns": 389,
      "thing": 390,
      "Jer": 391,
      ".\"": 392,
      "way": 393,
      "seine": 394,
      "oug": 395,
      "com": 396,
      "uch": 397,
      "ong": 398,
      "rie": 399,
      "people": 400,
      "ted": 401,
      "Le": 402,
      "child": 403,
      "einen": 404,
      "mich": 405,
      "dies": 406,
      "igen": 407,
      "ive": 408,
      "into": 409,
      "ward": 410,
      "ath": 411,
      "ill": 412,
      "ger": 413,
      "dich": 414,
      "thee": 415,
      "ok": 416,
      "ever": 417,
      "Denn": 418,
      "Br": 419,
      "Land": 420,
      "Ze": 421,
      "fen": 422,
      "ihre": 423,
      "So": 424,
      "For": 425,
      "now": 426,
      "bo": 427,
      "urn": 428,
      "Th": 429,
      "zum": 430,
      "children": 431,
      "ness": 432,
      "lem": 433,
      "ast": 434,
      "before": 435,
      "set": 436,
      "ise": 437,
      "Kinder": 438,
      "ide": 439,
      "ph": 440,
      "went": 441,
      "ac": 442,
      "has": 443,
      "Re": 444,
      "word": 445,
      "Juda": 446,
      "cause": 447,
      "ze": 448,
      "usa": 449,
      "Ab": 450,
      "ves": 451,
      "ity": 452,
      "iel": 453,
      "ien": 454,
      "hö": 455,
      "fü": 456,
      "zen": 457,
      "Jesus": 458,
      "Se": 459,
      "Jerusa": 460,
      "Jerusalem": 461,
      "against": 462,
      "les": 463,
      "she": 464,
      "ken": 465,
      "father": 466,
      "But": 467,
      "gan": 468,
      "under": 469,
      "ear": 470,
      "red": 471,
      "habe": 472,
      "haben": 473,
      "bre": 474,
      "Ich": 475,
      "kommen": 476,
      "spr": 477,
      "ier": 478,
      "con": 479,
      "ho": 480,
      "urch": 481,
      "over": 482,
      "ans": 483,
      "pro": 484,
      "hast": 485,
      "gy": 486,
      "tet": 487,
      "igh": 488,
      "ßen": 489,
      "ia": 490,
      "ater": 491,
      "orn": 492,
      "gel": 493,
      "ru": 494,
      "chen": 495,
      "Be": 496,
      "Sie": 497,
      "hatte": 498,
      "kam": 499,
      "mt": 500,
      "allen": 501,
      "gt": 502,
      "Ges": 503,
      "ga": 504,
      "offer": 505,
      "iah": 506,
      "wel": 507,
      "made": 508,
      "ft": 509,
      "upon": 510,
      "ünd": 511,
      "gl": 512,
      "saying": 513,
      "mand": 514,
      "ret": 515,
      "gre": 516,
      "ung": 517,
      "get": 518,
      "ake": 519,
      "seinen": 520,
      "bei": 521,
      "durch": 522,
      "bt": 523,
      "mer": 524,
      "geben": 525,
      "fo": 526,
      "led": 527,
      "sten": 528,
      "ore": 529,
      "Es": 530,
      "ved": 531,
      "gro": 532,
      "hath": 533,
      "für": 534,
      "ice": 535,
      "even": 536,
      "let": 537,
      "end": 538,
      "waren": 539,
      "ith": 540,
      "other": 541,
      "stand": 542,
      "ought": 543,
      "aul": 544,
      "mel": 545,
      "ba": 546,
      "oun": 547,
      "noch": 548,
      "pla": 549,
      "chte": 550,
      "nen": 551,
      "deine": 552,
      "may": 553,
      "Was": 554,
      "dr": 555,
      "Men": 556,
      "did": 557,
      "Then": 558,
      "gesch": 559,
      "fu": 560,
      "Gottes": 561,
      "serv": 562,
      "ous": 563,
      "bring": 564,
      "ap": 565,
      "rt": 566,
      "als": 567,
      "lei": 568,
      "rei": 569,
      "än": 570,
      "ging": 571,
      "sed": 572,
      "meine": 573,
      "su": 574,
      "Chr": 575,
      "las": 576,
      "seinem": 577,
      "ip": 578,
      "age": 579,
      "Jo": 580,
      "sons": 581,
      "bis": 582,
      "geb": 583,
      "down": 584,
      "nun": 585,
      "things": 586,
      "know": 587,
      "zig": 588,
      "pries": 589,
      "hal": 590,
      "Lord": 591,
      "ass": 592,
      "Aber": 593,
      "As": 594,
      "wei": 595,
      "Hand": 596,
      "ep": 597,
      "They": 598,
      "every": 599,
      "vo": 600,
      "ndern": 601,
      "spricht": 602,
      "bro": 603,
      "phe": 604,
      "bu": 605,
      "alles": 606,
      "Wor": 607,
      "Mensch": 608,
      "iter": 609,
      "its": 610,
      "ßt": 611,
      "ars": 612,
      "alt": 613,
      "thr": 614,
      "ja": 615,
      "because": 616,
      "ct": 617,
      "tre": 618,
      "gr": 619,
      "great": 620,
      "ime": 621,
      "mu": 622,
      "name": 623,
      "after": 624,
      "Wer": 625,
      "par": 626,
      "det": 627,
      "ner": 628,
      "any": 629,
      "offering": 630,
      "make": 631,
      "see": 632,
      "sin": 633,
      "Haus": 634,
      "sondern": 635,
      "ces": 636,
      "Der": 637,
      "tern": 638,
      "hold": 639,
      "Christ": 640,
      "nor": 641,
      "qu": 642,
      "sei": 643,
      "glich": 644,
      "ither": 645,
      "keit": 646,
      "self": 647,
      "ob": 648,
      "An": 649,
      "earth": 650,
      "zer": 651,
      "these": 652,
      "wider": 653,
      "then": 654,
      "sollen": 655,
      "ite": 656,
      "opfer": 657,
      "wenn": 658,
      "je": 659,
      "sh": 660,
      "bes": 661,
      "per": 662,
      "seiner": 663,
      "away": 664,
      "Die": 665,
      "ige": 666,
      "Al": 667,
      "cr": 668,
      "Zeit": 669,
      "llen": 670,
      "tun": 671,
      "che": 672,
      "like": 673,
      "Kne": 674,
      "ile": 675,
      "dom": 676,
      "command": 677,
      "ahr": 678,
      "ju": 679,
      "wä": 680,
      "zo": 681,
      "sand": 682,
      "ihren": 683,
      "sollst": 684,
      "gte": 685,
      "put": 686,
      "give": 687,
      "Ar": 688,
      "igt": 689,
      "zur": 690,
      "acc": 691,
      "those": 692,
      "gh": 693,
      "ue": 694,
      "Vater": 695,
      "Am": 696,
      "lan": 697,
      "oder": 698,
      "gehen": 699,
      "wieder": 700,
      "Un": 701,
      "among": 702,
      "str": 703,
      "oses": 704,
      "Au": 705,
      "hil": 706,
      "vom": 707,
      "ches": 708,
      "bin": 709,
      "öh": 710,
      "You": 711,
      "amen": 712,
      "mo": 713,
      "ites": 714,
      "days": 715,
      "brought": 716,
      "To": 717,
      "bel": 718,
      "bst": 719,
      "city": 720,
      "gef": 721,
      "wis": 722,
      "Moses": 723,
      "There": 724,
      "ire": 725,
      "euer": 726,
      "Mann": 727,
      "ße": 728,
      "adt": 729,
      "ute": 730,
      "chten": 731,
      "len": 732,
      "arum": 733,
      "Saul": 734,
      "Hä": 735,
      "heart": 736,
      "call": 737,
      "gegen": 738,
      "might": 739,
      "two": 740,
      "Judah": 741,
      "ish": 742,
      "Stadt": 743,
      "hol": 744,
      "good": 745,
      "Menschen": 746,
      "Hause": 747,
      "work": 748,
      "Stä": 749,
      "sagen": 750,
      "ording": 751,
      "Ver": 752,
      "hren": 753,
      "off": 754,
      "shalt": 755,
      "Das": 756,
      "lu": 757,
      "tete": 758,
      "wohn": 759,
      "ty": 760,
      "etz": 761,
      "shou": 762,
      "bet": 763,
      "tain": 764,
      "hea": 765,
      "po": 766,
      "na": 767,
      "üt": 768,
      "Now": 769,
      "place": 770,
      "than": 771,
      "well": 772,
      "ment": 773,
      "Pr": 774,
      "har": 775,
      "ants": 776,
      "ough": 777,
      "ub": 778,
      "according": 779,
      "ibe": 780,
      "lassen": 781,
      "Mose": 782,
      "mehr": 783,
      "einem": 784,
      "selbst": 785,
      "forth": 786,
      "take": 787,
      "sam": 788,
      "mon": 789,
      "vil": 790,
      "heil": 791,
      "Him": 792,
      "took": 793,
      "ca": 794,
      "oth": 795,
      "Tag": 796,
      "cken": 797,
      "eat": 798,
      "gypt": 799,
      "itt": 800,
      "Himmel": 801,
      "doch": 802,
      "Du": 803,
      "nie": 804,
      "acht": 805,
      "pass": 806,
      "therefore": 807,
      "Pries": 808,
      "gi": 809,
      "more": 810,
      "iten": 811,
      "Egypt": 812,
      "whom": 813,
      "spe": 814,
      "what": 815,
      "ations": 816,
      "deinen": 817,
      "sal": 818,
      "inde": 819,
      "Je": 820,
      "ance": 821,
      "sol": 822,
      "ied": 823,
      "nde": 824,
      "Lande": 825,
      "Lev": 826,
      "neither": 827,
      "dis": 828,
      "nah": 829,
      "sto": 830,
      "sprachen": 831,
      "gyp": 832,
      "Me": 833,
      "ins": 834,
      "Ägyp": 835,
      "bl": 836,
      "sent": 837,
      "Fre": 838,
      "macht": 839,
      "hor": 840,
      "Herr": 841,
      "ple": 842,
      "Ja": 843,
      "Siehe": 844,
      "Ba": 845,
      "heit": 846,
      "Beh": 847,
      "yr": 848,
      "cher": 849,
      "essen": 850,
      "hrt": 851,
      "pre": 852,
      "aron": 853,
      "gew": 854,
      "Behold": 855,
      "Wasser": 856,
      "antwor": 857,
      "Ne": 858,
      "iden": 859,
      "ister": 860,
      "Aaron": 861,
      "pra": 862,
      "ould": 863,
      "Tage": 864,
      "kein": 865,
      "ree": 866,
      "fir": 867,
      "When": 868,
      "ün": 869,
      "zie": 870,
      "ving": 871,
      "should": 872,
      "burn": 873,
      "dest": 874,
      "It": 875,
      "selves": 876,
      "getan": 877,
      "Wort": 878,
      "leich": 879,
      "Wh": 880,
      "wom": 881,
      "ighte": 882,
      "brother": 883,
      "Sünd": 884,
      "ex": 885,
      "chter": 886,
      "Phil": 887,
      "Namen": 888,
      "seven": 889,
      "through": 890,
      "sou": 891,
      "lä": 892,
      "augh": 893,
      "itten": 894,
      "Priester": 895,
      "answer": 896,
      "woh": 897,
      "viel": 898,
      "deinem": 899,
      "rede": 900,
      "behold": 901,
      "att": 902,
      "Sam": 903,
      "aughter": 904,
      "El": 905,
      "jud": 906,
      "evil": 907,
      "ster": 908,
      "hab": 909,
      "neh": 910,
      "pen": 911,
      "Bl": 912,
      "ure": 913,
      "heard": 914,
      "hund": 915,
      "andern": 916,
      "saith": 917,
      "where": 918,
      "Ha": 919,
      "zwei": 920,
      "eure": 921,
      "undert": 922,
      "hundred": 923,
      "ighteous": 924,
      "Israels": 925,
      "esen": 926,
      "vier": 927,
      "Ein": 928,
      "All": 929,
      "gere": 930,
      "siehe": 931,
      "gra": 932,
      "don": 933,
      "righteous": 934,
      "äu": 935,
      "öt": 936,
      "time": 937,
      "ign": 938,
      "agt": 939,
      "If": 940,
      "Man": 941,
      "rich": 942,
      "sollt": 943,
      "ham": 944,
      "saw": 945,
      "sah": 946,
      "heaven": 947,
      "ink": 948,
      "til": 949,
      "Also": 950,
      "tru": 951,
      "Darum": 952,
      "kommt": 953,
      "called": 954,
      "law": 955,
      "Abra": 956,
      "Ägypten": 957,
      "yes": 958,
      "wand": 959,
      "ic": 960,
      "han": 961,
      "Gesch": 962,
      "jo": 963,
      "nis": 964,
      "turn": 965,
      "orgen": 966,
      "ses": 967,
      "Heil": 968,
      "machen": 969,
      "liver": 970,
      "Mo": 971,
      "Brü": 972,
      "aters": 973,
      "elt": 974,
      "sehen": 975,
      "ihrer": 976,
      "such": 977,
      "med": 978,
      "irit": 979,
      "Wenn": 980,
      "In": 981,
      "bar": 982,
      "wür": 983,
      "utter": 984,
      "Ber": 985,
      "words": 986,
      "first": 987,
      "unser": 988,
      "daughter": 989,
      "deliver": 990,
      "gegeben": 991,
      "thousand": 992,
      "rü": 993,
      "sieben": 994,
      "ful": 995,
      "cked": 996,
      "Königs": 997,
      "einer": 998,
      "si": 999,
      "hara": 1000,
      "fün": 1001,
      "La": 1002,
      "meinem": 1003,
      "meinen": 1004,
      "coun": 1005,
      "fathers": 1006,
      "done": 1007,
      "head": 1008,
      "Für": 1009,
      "gleich": 1010,
      "werde": 1011,
      "servant": 1012,
      "wohl": 1013,
      "Brüder": 1014,
      "Hau": 1015,
      "isch": 1016,
      "drei": 1017,
      "Augen": 1018,
      "See": 1019,
      "cle": 1020,
      "found": 1021,
      "aller": 1022,
      "tat": 1023,
      "fire": 1024,
      "ausend": 1025,
      "Weib": 1026,
      "kann": 1027,
      "fünf": 1028,
      "kind": 1029,
      "priest": 1030,
      "Fe": 1031,
      "Jos": 1032,
      "uel": 1033,
      "zw": 1034,
      "ble": 1035,
      "Kindern": 1036,
      "given": 1037,
      "öl": 1038,
      "years": 1039,
      "She": 1040,
      "angen": 1041,
      "Phara": 1042,
      "ua": 1043,
      "ät": 1044,
      "deiner": 1045,
      "darum": 1046,
      "diese": 1047,
      "asse": 1048,
      "says": 1049,
      "himself": 1050,
      "ities": 1051,
      "many": 1052,
      "chtig": 1053,
      "blo": 1054,
      "ehn": 1055,
      "ace": 1056,
      "rein": 1057,
      "Erde": 1058,
      "Leben": 1059,
      "Therefore": 1060,
      "about": 1061,
      "Ben": 1062,
      "Jah": 1063,
      "Ger": 1064,
      "Sp": 1065,
      "eyes": 1066,
      "willen": 1067,
      "ank": 1068,
      "soul": 1069,
      "wr": 1070,
      "ings": 1071,
      "ander": 1072,
      "inge": 1073,
      "woll": 1074,
      "glor": 1075,
      "Gere": 1076,
      "Let": 1077,
      "Män": 1078,
      "stre": 1079,
      "hl": 1080,
      "nichts": 1081,
      "jeglich": 1082,
      "servants": 1083,
      "prophe": 1084,
      "eur": 1085,
      "would": 1086,
      "gave": 1087,
      "gu": 1088,
      "Pro": 1089,
      "fl": 1090,
      "Geist": 1091,
      "gether": 1092,
      "ließ": 1093,
      "together": 1094,
      "roy": 1095,
      "ri": 1096,
      "halten": 1097,
      "voice": 1098,
      "urden": 1099,
      "beg": 1100,
      "hel": 1101,
      "moun": 1102,
      "ds": 1103,
      "Heiden": 1104,
      "four": 1105,
      "side": 1106,
      "holy": 1107,
      "Hö": 1108,
      "Söh": 1109,
      "tell": 1110,
      "answered": 1111,
      "bist": 1112,
      "kamen": 1113,
      "seines": 1114,
      "zogen": 1115,
      "ehen": 1116,
      "di": 1117,
      "three": 1118,
      "Herz": 1119,
      "lau": 1120,
      "?\"": 1121,
      "Prophe": 1122,
      "yet": 1123,
      "hed": 1124,
      "Abraham": 1125,
      "pl": 1126,
      "reg": 1127,
      "ase": 1128,
      "gesagt": 1129,
      "speak": 1130,
      "Jose": 1131,
      "Son": 1132,
      "able": 1133,
      "bau": 1134,
      "ai": 1135,
      "fre": 1136,
      "vers": 1137,
      "sil": 1138,
      "wicked": 1139,
      "life": 1140,
      "bread": 1141,
      "groß": 1142,
      "dwell": 1143,
      "wen": 1144,
      "alk": 1145,
      "Joseph": 1146,
      "üste": 1147,
      "ield": 1148,
      "denen": 1149,
      "ate": 1150,
      "machte": 1151,
      "ewi": 1152,
      "habt": 1153,
      "gekommen": 1154,
      "car": 1155,
      "mü": 1156,
      "darin": 1157,
      "Beth": 1158,
      "Eli": 1159,
      "capt": 1160,
      "right": 1161,
      "commanded": 1162,
      "blood": 1163,
      "nahm": 1164,
      "lagen": 1165,
      "wert": 1166,
      "Fel": 1167,
      "can": 1168,
      "Sal": 1169,
      "thir": 1170,
      "imm": 1171,
      "thine": 1172,
      "outh": 1173,
      "spo": 1174,
      "Sohnes": 1175,
      "tra": 1176,
      "zehn": 1177,
      "thereof": 1178,
      "destroy": 1179,
      "Herzen": 1180,
      "char": 1181,
      "Knecht": 1182,
      "gemacht": 1183,
      "Seele": 1184,
      "Jeh": 1185,
      "ihrem": 1186,
      "pf": 1187,
      "cities": 1188,
      "hands": 1189,
      "Gr": 1190,
      "ments": 1191,
      "Städ": 1192,
      "hör": 1193,
      "ried": 1194,
      "hie": 1195,
      "return": 1196,
      "zar": 1197,
      "until": 1198,
      "another": 1199,
      "Blut": 1200,
      "Eph": 1201,
      "fam": 1202,
      "mouth": 1203,
      "geht": 1204,
      "Vä": 1205,
      "seid": 1206,
      "Gesetz": 1207,
      "zog": 1208,
      "anger": 1209,
      "hap": 1210,
      "mid": 1211,
      "Haupt": 1212,
      "Feuer": 1213,
      "ziehen": 1214,
      "face": 1215,
      "gar": 1216,
      "water": 1217,
      "tem": 1218,
      "antwortete": 1219,
      "eth": 1220,
      "Fle": 1221,
      "net": 1222,
      "hatten": 1223,
      "ckt": 1224,
      "hören": 1225,
      "Jahre": 1226,
      "brach": 1227,
      "Ihr": 1228,
      "been": 1229,
      "gather": 1230,
      "En": 1231,
      "sword": 1232,
      "hre": 1233,
      "nations": 1234,
      "cast": 1235,
      "Männer": 1236,
      "gold": 1237,
      "ark": 1238,
      "illed": 1239,
      "This": 1240,
      "nehmen": 1241,
      "keep": 1242,
      "Ste": 1243,
      "Thus": 1244,
      "liche": 1245,
      "daselbst": 1246,
      "Spe": 1247,
      "sea": 1248,
      "recht": 1249,
      "jam": 1250,
      "Gef": 1251,
      "dien": 1252,
      "fah": 1253,
      "arm": 1254,
      "wife": 1255,
      "Geb": 1256,
      "lesh": 1257,
      "ssen": 1258,
      "clo": 1259,
      "Hände": 1260,
      "pray": 1261,
      "peace": 1262,
      "rest": 1263,
      "Jak": 1264,
      "reich": 1265,
      "niemand": 1266,
      "bend": 1267,
      "fru": 1268,
      "prin": 1269,
      "flesh": 1270,
      "gewor": 1271,
      "ana": 1272,
      "raim": 1273,
      "tausend": 1274,
      "themselves": 1275,
      "schaf": 1276,
      "clean": 1277,
      "ged": 1278,
      "fear": 1279,
      "ilt": 1280,
      "priests": 1281,
      "Jakob": 1282,
      "Alt": 1283,
      "high": 1284,
      "ones": 1285,
      "altar": 1286,
      "Wo": 1287,
      "uder": 1288,
      "Sol": 1289,
      "find": 1290,
      "sage": 1291,
      "Göt": 1292,
      "weg": 1293,
      "ganze": 1294,
      "tak": 1295,
      "hrte": 1296,
      "light": 1297,
      "Fü": 1298,
      "Jord": 1299,
      "Vor": 1300,
      "hei": 1301,
      "glory": 1302,
      "wurden": 1303,
      "hört": 1304,
      "Moab": 1305,
      "Ma": 1306,
      "bor": 1307,
      "gab": 1308,
      "lay": 1309,
      "tut": 1310,
      "What": 1311,
      "amm": 1312,
      "ws": 1313,
      "verk": 1314,
      "Schwert": 1315,
      "lon": 1316,
      "ief": 1317,
      "solches": 1318,
      "unde": 1319,
      "llow": 1320,
      "mult": 1321,
      "hundert": 1322,
      "Geschle": 1323,
      "ude": 1324,
      "cut": 1325,
      "Jün": 1326,
      "deines": 1327,
      "cob": 1328,
      "Bruder": 1329,
      "Who": 1330,
      "death": 1331,
      "year": 1332,
      "blei": 1333,
      "wirst": 1334,
      "didn": 1335,
      "Jacob": 1336,
      "Na": 1337,
      "how": 1338,
      "selben": 1339,
      "voll": 1340,
      "cl": 1341,
      "flo": 1342,
      "äm": 1343,
      "Wein": 1344,
      "zeu": 1345,
      "imme": 1346,
      "youn": 1347,
      "Hüt": 1348,
      "faith": 1349,
      "Meer": 1350,
      "cke": 1351,
      "enem": 1352,
      "isen": 1353,
      "bringen": 1354,
      "stehen": 1355,
      "dre": 1356,
      "itter": 1357,
      "very": 1358,
      "Söhne": 1359,
      "midst": 1360,
      "lder": 1361,
      "Bo": 1362,
      "test": 1363,
      "Tr": 1364,
      "Ephraim": 1365,
      "rece": 1366,
      "Morgen": 1367,
      "dead": 1368,
      "Stimme": 1369,
      "drink": 1370,
      "woman": 1371,
      "Propheten": 1372,
      "Tor": 1373,
      "Benjam": 1374,
      "without": 1375,
      "field": 1376,
      "part": 1377,
      "art": 1378,
      "love": 1379,
      "Dies": 1380,
      "ingen": 1381,
      "ction": 1382,
      "burnt": 1383,
      "pur": 1384,
      "Knechte": 1385,
      "redete": 1386,
      "lein": 1387,
      "toward": 1388,
      "left": 1389,
      "Wei": 1390,
      "sk": 1391,
      "full": 1392,
      "lea": 1393,
      "meiner": 1394,
      "ised": 1395,
      "walk": 1396,
      "Go": 1397,
      "ask": 1398,
      "mountain": 1399,
      "amp": 1400,
      "Te": 1401,
      "habit": 1402,
      "happen": 1403,
      "Thou": 1404,
      "Wüste": 1405,
      "samt": 1406,
      "inn": 1407,
      "cre": 1408,
      "god": 1409,
      "gingen": 1410,
      "mine": 1411,
      "conc": 1412,
      "same": 1413,
      "pos": 1414,
      "both": 1415,
      "cover": 1416,
      "Leu": 1417,
      "Mutter": 1418,
      "read": 1419,
      "live": 1420,
      "unden": 1421,
      "Isa": 1422,
      "five": 1423,
      "fallen": 1424,
      "ück": 1425,
      "werdet": 1426,
      "bs": 1427,
      "ram": 1428,
      "mighty": 1429,
      "reign": 1430,
      "wollen": 1431,
      "muß": 1432,
      "mem": 1433,
      "Dan": 1434,
      "herit": 1435,
      "ship": 1436,
      "Fürsten": 1437,
      "spirit": 1438,
      "fra": 1439,
      "gten": 1440,
      "ersch": 1441,
      "ichen": 1442,
      "geredet": 1443,
      "het": 1444,
      "disc": 1445,
      "My": 1446,
      "belie": 1447,
      "ager": 1448,
      "night": 1449,
      "eln": 1450,
      "Jon": 1451,
      "mother": 1452,
      "sight": 1453,
      "geworden": 1454,
      "Welt": 1455,
      "Benjamin": 1456,
      "och": 1457,
      "righteousness": 1458,
      ".'": 1459,
      "wise": 1460,
      "Jordan": 1461,
      "Geme": 1462,
      "ange": 1463,
      "kings": 1464,
      "Sil": 1465,
      "Wie": 1466,
      "agen": 1467,
      "allem": 1468,
      "chtigkeit": 1469,
      "Paul": 1470,
      "aten": 1471,
      "kingdom": 1472,
      "athan": 1473,
      "por": 1474,
      "sacr": 1475,
      "zwan": 1476,
      "sacrif": 1477,
      "taken": 1478,
      "Wir": 1479,
      "twent": 1480,
      "boten": 1481,
      "stood": 1482,
      "young": 1483,
      "ary": 1484,
      "wall": 1485,
      "His": 1486,
      "lle": 1487,
      "umber": 1488,
      "meines": 1489,
      "iz": 1490,
      "sech": 1491,
      "ibt": 1492,
      "zwanzig": 1493,
      "jem": 1494,
      "ished": 1495,
      "Ru": 1496,
      "ust": 1497,
      "aby": 1498,
      "dieser": 1499,
      "silver": 1500,
      "famil": 1501,
      "ini": 1502,
      "andere": 1503,
      "judg": 1504,
      "Zion": 1505,
      "Pe": 1506,
      "enter": 1507,
      "ungen": 1508,
      "ower": 1509,
      "ohne": 1510,
      "obe": 1511,
      "Brand": 1512,
      "ganz": 1513,
      "Bund": 1514,
      "some": 1515,
      "Anges": 1516,
      "month": 1517,
      "anaan": 1518,
      "Jere": 1519,
      "kenn": 1520,
      "sat": 1521,
      "eines": 1522,
      "utes": 1523,
      "lieb": 1524,
      "Erden": 1525,
      "jemand": 1526,
      "san": 1527,
      "teil": 1528,
      "ats": 1529,
      "Zorn": 1530,
      "gehor": 1531,
      "Hütte": 1532,
      "iniqu": 1533,
      "sit": 1534,
      "teten": 1535,
      "stru": 1536,
      "große": 1537,
      "Fa": 1538,
      "gewesen": 1539,
      "abb": 1540,
      "ded": 1541,
      "gele": 1542,
      "Worte": 1543,
      "Fleisch": 1544,
      "abylon": 1545,
      "reng": 1546,
      "Ort": 1547,
      "keine": 1548,
      "inherit": 1549,
      "hinein": 1550,
      "coven": 1551,
      "Ass": 1552,
      "übr": 1553,
      "sehr": 1554,
      "reden": 1555,
      "verb": 1556,
      "opf": 1557,
      "euren": 1558,
      "row": 1559,
      "heim": 1560,
      "six": 1561,
      "atter": 1562,
      "host": 1563,
      "star": 1564,
      "Babylon": 1565,
      "wilder": 1566,
      "omon": 1567,
      "number": 1568,
      "sc": 1569,
      "kön": 1570,
      "ul": 1571,
      "rieben": 1572,
      "Brot": 1573,
      "Solomon": 1574,
      "vie": 1575,
      "ift": 1576,
      "lessed": 1577,
      "Gerechtigkeit": 1578,
      "fall": 1579,
      "ommen": 1580,
      "laid": 1581,
      "Engel": 1582,
      "ick": 1583,
      "dazu": 1584,
      "wilderness": 1585,
      "diesen": 1586,
      "fahren": 1587,
      "covenant": 1588,
      "bur": 1589,
      "much": 1590,
      "born": 1591,
      "ines": 1592,
      "Heer": 1593,
      "res": 1594,
      "llt": 1595,
      "angel": 1596,
      "!\"": 1597,
      "schlu": 1598,
      "ay": 1599,
      "ölk": 1600,
      "Städte": 1601,
      "ry": 1602,
      "sle": 1603,
      "är": 1604,
      "open": 1605,
      "Syr": 1606,
      "new": 1607,
      "ons": 1608,
      "ified": 1609,
      "bear": 1610,
      "davon": 1611,
      "hinauf": 1612,
      "twenty": 1613,
      "Jerem": 1614,
      "Völk": 1615,
      "mö": 1616,
      "offen": 1617,
      "Salom": 1618,
      "baoth": 1619,
      "etzt": 1620,
      "Philist": 1621,
      "cy": 1622,
      "streng": 1623,
      "Wahr": 1624,
      "lord": 1625,
      "bed": 1626,
      "look": 1627,
      "Scha": 1628,
      "setz": 1629,
      "bleiben": 1630,
      "Gemeinde": 1631,
      "told": 1632,
      "spake": 1633,
      "Vaters": 1634,
      "uld": 1635,
      "oren": 1636,
      "einander": 1637,
      "ways": 1638,
      "Angesicht": 1639,
      "welche": 1640,
      "Gna": 1641,
      "spoke": 1642,
      "Altar": 1643,
      "fiel": 1644,
      "ilead": 1645,
      "Tö": 1646,
      "cer": 1647,
      "gnis": 1648,
      "wohnen": 1649,
      "Babel": 1650,
      "Hol": 1651,
      "wind": 1652,
      "Don": 1653,
      "Gel": 1654,
      "erning": 1655,
      "Tochter": 1656,
      "ese": 1657,
      "Joab": 1658,
      "aufen": 1659,
      "strong": 1660,
      "multit": 1661,
      "lö": 1662,
      "sollte": 1663,
      "Zebaoth": 1664,
      "attle": 1665,
      "Zu": 1666,
      "none": 1667,
      "waters": 1668,
      "spok": 1669,
      "Frie": 1670,
      "mä": 1671,
      "els": 1672,
      "leider": 1673,
      "discip": 1674,
      "Jahr": 1675,
      "ders": 1676,
      "back": 1677,
      "turned": 1678,
      "spoken": 1679,
      "Nach": 1680,
      "long": 1681,
      "thren": 1682,
      "geschrieben": 1683,
      "lange": 1684,
      "glau": 1685,
      "mal": 1686,
      "weil": 1687,
      "ganzen": 1688,
      "Samuel": 1689,
      "Zeu": 1690,
      "esten": 1691,
      "near": 1692,
      "whose": 1693,
      "hä": 1694,
      "chief": 1695,
      "Brandopfer": 1696,
      "Ham": 1697,
      "Weg": 1698,
      "sterben": 1699,
      "gol": 1700,
      "being": 1701,
      "Father": 1702,
      "inhabit": 1703,
      "brethren": 1704,
      "Pharaoh": 1705,
      "world": 1706,
      "Ah": 1707,
      "does": 1708,
      "gate": 1709,
      "Gilead": 1710,
      "delivered": 1711,
      "imon": 1712,
      "abo": 1713,
      "written": 1714,
      "sanct": 1715,
      "bal": 1716,
      "ived": 1717,
      "serve": 1718,
      "rief": 1719,
      "offerings": 1720,
      "sandte": 1721,
      "jeglicher": 1722,
      "seen": 1723,
      "mann": 1724,
      "inted": 1725,
      "dahin": 1726,
      "Davids": 1727,
      "weiß": 1728,
      "bow": 1729,
      "Glau": 1730,
      "laß": 1731,
      "ewiglich": 1732,
      "seed": 1733,
      "steht": 1734,
      "aria": 1735,
      "gehe": 1736,
      "geboten": 1737,
      "Weiber": 1738,
      "Lie": 1739,
      "aum": 1740,
      "versch": 1741,
      "concerning": 1742,
      "ieh": 1743,
      "Ach": 1744,
      "ined": 1745,
      "Juden": 1746,
      "diesem": 1747,
      "ions": 1748,
      "bod": 1749,
      "uen": 1750,
      "ched": 1751,
      "Gottlo": 1752,
      "brothers": 1753,
      "Väter": 1754,
      "less": 1755,
      "understand": 1756,
      "poss": 1757,
      "door": 1758,
      "ious": 1759,
      "heraus": 1760,
      "darauf": 1761,
      "Levites": 1762,
      "cub": 1763,
      "member": 1764,
      "still": 1765,
      "gesehen": 1766,
      "führt": 1767,
      "princes": 1768,
      "Manasse": 1769,
      "Sünde": 1770,
      "iniquity": 1771,
      "ang": 1772,
      "Ober": 1773,
      "hieß": 1774,
      "fol": 1775,
      "cond": 1776,
      "wine": 1777,
      "rath": 1778,
      "feet": 1779,
      "Könige": 1780,
      "Leviten": 1781,
      "Where": 1782,
      "gathered": 1783,
      "ght": 1784,
      "power": 1785,
      "kn": 1786,
      "vis": 1787,
      "Weis": 1788,
      "besch": 1789,
      "hörte": 1790,
      "pas": 1791,
      "Kleider": 1792,
      "oud": 1793,
      "Mon": 1794,
      "eit": 1795,
      "heilig": 1796,
      "Berge": 1797,
      "ians": 1798,
      "Gold": 1799,
      "ps": 1800,
      "fruit": 1801,
      "fif": 1802,
      "andt": 1803,
      "hinaus": 1804,
      "just": 1805,
      "certain": 1806,
      "hua": 1807,
      "mb": 1808,
      "Wege": 1809,
      "Leute": 1810,
      "Philistines": 1811,
      "works": 1812,
      "enemies": 1813,
      "Assyr": 1814,
      "Gnade": 1815,
      "ler": 1816,
      "ard": 1817,
      "seek": 1818,
      "happened": 1819,
      "band": 1820,
      "tö": 1821,
      "cong": 1822,
      "daughters": 1823,
      "congreg": 1824,
      "rejo": 1825,
      "These": 1826,
      "acle": 1827,
      "Jews": 1828,
      "Jeho": 1829,
      "Or": 1830,
      "emp": 1831,
      "prophet": 1832,
      "lam": 1833,
      "cur": 1834,
      "follow": 1835,
      "congregation": 1836,
      "ash": 1837,
      "fell": 1838,
      "Ammon": 1839,
      "camp": 1840,
      "allein": 1841,
      "Dien": 1842,
      "Edom": 1843,
      "thus": 1844,
      "unrein": 1845,
      "immer": 1846,
      "ify": 1847,
      "pres": 1848,
      "inken": 1849,
      "Philister": 1850,
      "disciples": 1851,
      "hier": 1852,
      "änd": 1853,
      "tribe": 1854,
      "Spirit": 1855,
      "multitude": 1856,
      "Nacht": 1857,
      "Salomo": 1858,
      "filled": 1859,
      "aff": 1860,
      "zt": 1861,
      "ache": 1862,
      "schen": 1863,
      "gangen": 1864,
      "countr": 1865,
      "whe": 1866,
      "abern": 1867,
      "äd": 1868,
      "würde": 1869,
      "Ende": 1870,
      "aut": 1871,
      "cks": 1872,
      "whole": 1873,
      "Asa": 1874,
      "Mein": 1875,
      "possess": 1876,
      "ian": 1877,
      "Gew": 1878,
      "ibes": 1879,
      "ittle": 1880,
      "exce": 1881,
      "Ho": 1882,
      "bö": 1883,
      "nothing": 1884,
      "Sel": 1885,
      "Jesu": 1886,
      "Warum": 1887,
      "tabern": 1888,
      "ert": 1889,
      "sagte": 1890,
      "lichen": 1891,
      "großen": 1892,
      "sure": 1893,
      "sammel": 1894,
      "viele": 1895,
      "How": 1896,
      "Why": 1897,
      "prophets": 1898,
      "gods": 1899,
      "Baal": 1900,
      "inheritance": 1901,
      "Macht": 1902,
      "anden": 1903,
      "stra": 1904,
      "dann": 1905,
      "wissen": 1906,
      "ween": 1907,
      "judgment": 1908,
      "zwe": 1909,
      "gener": 1910,
      "Arm": 1911,
      "Silber": 1912,
      "pfer": 1913,
      "wahr": 1914,
      "Öl": 1915,
      "cho": 1916,
      "heiligen": 1917,
      "Mis": 1918,
      "kiah": 1919,
      "between": 1920,
      "wollte": 1921,
      "Fr": 1922,
      "little": 1923,
      "ense": 1924,
      "ages": 1925,
      "No": 1926,
      "male": 1927,
      "Tages": 1928,
      "captain": 1929,
      "gest": 1930,
      "orning": 1931,
      "Kr": 1932,
      "Vieh": 1933,
      "mar": 1934,
      "became": 1935,
      "Tür": 1936,
      "gehört": 1937,
      "Mund": 1938,
      "müssen": 1939,
      "Ist": 1940,
      "morning": 1941,
      "raid": 1942,
      "hon": 1943,
      "isten": 1944,
      "send": 1945,
      "gesandt": 1946,
      "geboren": 1947,
      "wäre": 1948,
      "Ga": 1949,
      "chem": 1950,
      "erret": 1951,
      "etliche": 1952,
      "hrten": 1953,
      "Königreich": 1954,
      "Herrn": 1955,
      "fal": 1956,
      "Bö": 1957,
      "Temp": 1958,
      "truth": 1959,
      "tabernacle": 1960,
      "lech": 1961,
      "nur": 1962,
      "here": 1963,
      "Will": 1964,
      "inden": 1965,
      "ates": 1966,
      "afraid": 1967,
      "Jonathan": 1968,
      "Bar": 1969,
      "Sa": 1970,
      "zeugte": 1971,
      "known": 1972,
      "Sabb": 1973,
      "fä": 1974,
      "ned": 1975,
      "wrath": 1976,
      "welcher": 1977,
      "Samaria": 1978,
      "Gre": 1979,
      "Stamm": 1980,
      "wisdom": 1981,
      "only": 1982,
      "Joshua": 1983,
      "Ellen": 1984,
      "Schw": 1985,
      "strength": 1986,
      "tin": 1987,
      "ahl": 1988,
      "äh": 1989,
      "schw": 1990,
      "wischen": 1991,
      "Phar": 1992,
      "places": 1993,
      "lang": 1994,
      "joy": 1995,
      "hü": 1996,
      "erwä": 1997,
      "stone": 1998,
      "sagt": 1999,
      "genommen": 2000,
      "lichkeit": 2001,
      "That": 2002,
      "appo": 2003,
      "jas": 2004,
      "ledge": 2005,
      "Of": 2006,
      "tue": 2007,
      "Glauben": 2008,
      "cubits": 2009,
      "far": 2010,
      "ks": 2011,
      "uhl": 2012,
      "herr": 2013,
      "lieben": 2014,
      "died": 2015,
      "Absal": 2016,
      "body": 2017,
      "Absalom": 2018,
      "fle": 2019,
      "zwischen": 2020,
      "führen": 2021,
      "ters": 2022,
      "esh": 2023,
      "stern": 2024,
      "zusam": 2025,
      "min": 2026,
      "rema": 2027,
      "sake": 2028,
      "cour": 2029,
      "gone": 2030,
      "arren": 2031,
      "Reich": 2032,
      "met": 2033,
      "yourselves": 2034,
      "mercy": 2035,
      "Abend": 2036,
      "Dar": 2037,
      "Sünden": 2038,
      "allerlei": 2039,
      "Jünger": 2040,
      "zusammen": 2041,
      "lest": 2042,
      "kill": 2043,
      "vi": 2044,
      "verder": 2045,
      "gend": 2046,
      "welchen": 2047,
      "nieder": 2048,
      "Feinde": 2049,
      "verkünd": 2050,
      "Töchter": 2051,
      "build": 2052,
      "ias": 2053,
      "twel": 2054,
      "uß": 2055,
      "become": 2056,
      "oney": 2057,
      "darnach": 2058,
      "Har": 2059,
      "stat": 2060,
      "kt": 2061,
      "oil": 2062,
      "int": 2063,
      "reit": 2064,
      "passed": 2065,
      "ots": 2066,
      "ground": 2067,
      "having": 2068,
      "vine": 2069,
      "ßer": 2070,
      "ures": 2071,
      "forever": 2072,
      "sheep": 2073,
      "Nun": 2074,
      "soever": 2075,
      "bald": 2076,
      "ßig": 2077,
      "loved": 2078,
      "dark": 2079,
      "sprich": 2080,
      "flie": 2081,
      "fort": 2082,
      "Christus": 2083,
      "sacrifice": 2084,
      "tim": 2085,
      "beit": 2086,
      "cry": 2087,
      "schlug": 2088,
      "above": 2089,
      "nte": 2090,
      "round": 2091,
      "built": 2092,
      "gern": 2093,
      "Recht": 2094,
      "Frem": 2095,
      "Ägyptenland": 2096,
      "Gottlosen": 2097,
      "surely": 2098,
      "half": 2099,
      "fel": 2100,
      "geschehen": 2101,
      "temple": 2102,
      "unclean": 2103,
      "while": 2104,
      "cker": 2105,
      "inhabitants": 2106,
      "sing": 2107,
      "racht": 2108,
      "ifts": 2109,
      "heute": 2110,
      "weis": 2111,
      "Because": 2112,
      "tree": 2113,
      "Wohn": 2114,
      "ced": 2115,
      "jah": 2116,
      "Pharao": 2117,
      "phat": 2118,
      "teach": 2119,
      "üh": 2120,
      "geschah": 2121,
      "Misset": 2122,
      "kia": 2123,
      "geführt": 2124,
      "shew": 2125,
      "übrig": 2126,
      "opfern": 2127,
      "aro": 2128,
      "Lö": 2129,
      "Ält": 2130,
      "save": 2131,
      "Ka": 2132,
      "lag": 2133,
      "rus": 2134,
      "dev": 2135,
      "raft": 2136,
      "Johan": 2137,
      "Lade": 2138,
      "Josua": 2139,
      "schaft": 2140,
      "Weisheit": 2141,
      "Ye": 2142,
      "poor": 2143,
      "around": 2144,
      "Aus": 2145,
      "Mau": 2146,
      "Wagen": 2147,
      "bless": 2148,
      "Herrlichkeit": 2149,
      "läßt": 2150,
      "clothe": 2151,
      "country": 2152,
      "Gad": 2153,
      "east": 2154,
      "pred": 2155,
      "desol": 2156,
      "trou": 2157,
      "appe": 2158,
      "hät": 2159,
      "damit": 2160,
      "lived": 2161,
      "fool": 2162,
      "standen": 2163,
      "Völker": 2164,
      "Tempel": 2165,
      "hate": 2166,
      "book": 2167,
      "Ged": 2168,
      "Licht": 2169,
      "ör": 2170,
      "etwas": 2171,
      "vessel": 2172,
      "contin": 2173,
      "Laß": 2174,
      "On": 2175,
      "pa": 2176,
      "rock": 2177,
      "Krie": 2178,
      "ersten": 2179,
      "thal": 2180,
      "gegangen": 2181,
      "igte": 2182,
      "judge": 2183,
      "tel": 2184,
      "worship": 2185,
      "lach": 2186,
      "mas": 2187,
      "most": 2188,
      "Frieden": 2189,
      "Bal": 2190,
      "ased": 2191,
      "Opfer": 2192,
      "pie": 2193,
      "leben": 2194,
      "suchen": 2195,
      "Gibe": 2196,
      "nden": 2197,
      "sins": 2198,
      "dern": 2199,
      "schlagen": 2200,
      "herzig": 2201,
      "receive": 2202,
      "Ältesten": 2203,
      "Ehre": 2204,
      "parted": 2205,
      "aub": 2206,
      "tent": 2207,
      "Christi": 2208,
      "dienen": 2209,
      "Geschlecht": 2210,
      "though": 2211,
      "Rede": 2212,
      "Gü": 2213,
      "äer": 2214,
      "igkeit": 2215,
      "umher": 2216,
      "Ungl": 2217,
      "third": 2218,
      "returned": 2219,
      "twelve": 2220,
      "asts": 2221,
      "elders": 2222,
      "otten": 2223,
      "Hebr": 2224,
      "führte": 2225,
      "Ahab": 2226,
      "De": 2227,
      "aja": 2228,
      "iger": 2229,
      "richten": 2230,
      "Obersten": 2231,
      "blessed": 2232,
      "stones": 2233,
      "women": 2234,
      "Ohren": 2235,
      "gst": 2236,
      "unge": 2237,
      "broken": 2238,
      "Liebe": 2239,
      "sor": 2240,
      "swe": 2241,
      "Schr": 2242,
      "Gewalt": 2243,
      "Fl": 2244,
      "sla": 2245,
      "äch": 2246,
      "sche": 2247,
      "praise": 2248,
      "zwöl": 2249,
      "Teil": 2250,
      "Schafe": 2251,
      "cried": 2252,
      "hus": 2253,
      "iv": 2254,
      "wit": 2255,
      "Stät": 2256,
      "Elis": 2257,
      "ors": 2258,
      "began": 2259,
      "nung": 2260,
      "ome": 2261,
      "legen": 2262,
      "legte": 2263,
      "ihres": 2264,
      "Leib": 2265,
      "Brüdern": 2266,
      "dam": 2267,
      "ily": 2268,
      "border": 2269,
      "inc": 2270,
      "undzwanzig": 2271,
      "ano": 2272,
      "urt": 2273,
      "Zeichen": 2274,
      "sun": 2275,
      "bir": 2276,
      "ped": 2277,
      "pet": 2278,
      "second": 2279,
      "therein": 2280,
      "throne": 2281,
      "Lot": 2282,
      "dra": 2283,
      "ris": 2284,
      "trie": 2285,
      "mountains": 2286,
      "Gal": 2287,
      "tä": 2288,
      "herauf": 2289,
      "liegt": 2290,
      "hinab": 2291,
      "alley": 2292,
      "kon": 2293,
      "kr": 2294,
      "za": 2295,
      "lebend": 2296,
      "omin": 2297,
      "within": 2298,
      "welches": 2299,
      "Mich": 2300,
      "pit": 2301,
      "departed": 2302,
      "Felde": 2303,
      "thirty": 2304,
      "King": 2305,
      "bus": 2306,
      "zuvor": 2307,
      "Missetat": 2308,
      "smo": 2309,
      "affli": 2310,
      "Mitt": 2311,
      "sec": 2312,
      "anken": 2313,
      "lif": 2314,
      "Streit": 2315,
      "hob": 2316,
      "Heiligt": 2317,
      "families": 2318,
      "nes": 2319,
      "port": 2320,
      "battle": 2321,
      "valley": 2322,
      "ason": 2323,
      "Stuhl": 2324,
      "gebracht": 2325,
      "Amor": 2326,
      "Sonne": 2327,
      "chari": 2328,
      "hill": 2329,
      "asure": 2330,
      "rejoice": 2331,
      "best": 2332,
      "Stein": 2333,
      "Zeugnis": 2334,
      "times": 2335,
      "Stätte": 2336,
      "Ur": 2337,
      "remember": 2338,
      "living": 2339,
      "golden": 2340,
      "appear": 2341,
      "abomin": 2342,
      "machten": 2343,
      "Esau": 2344,
      "Heiligen": 2345,
      "Greuel": 2346,
      "commit": 2347,
      "last": 2348,
      "oured": 2349,
      "sahen": 2350,
      "weder": 2351,
      "houses": 2352,
      "believe": 2353,
      "Wohnung": 2354,
      "Schrift": 2355,
      "Your": 2356,
      "knowledge": 2357,
      "commandment": 2358,
      "reigned": 2359,
      "Des": 2360,
      "esser": 2361,
      "ließen": 2362,
      "comes": 2363,
      "bull": 2364,
      "Werk": 2365,
      "Ant": 2366,
      "gefunden": 2367,
      "Vätern": 2368,
      "ämlich": 2369,
      "nation": 2370,
      "assemb": 2371,
      "struck": 2372,
      "Sh": 2373,
      "Str": 2374,
      "nt": 2375,
      "setzte": 2376,
      "appointed": 2377,
      "bte": 2378,
      "Mer": 2379,
      "Woh": 2380,
      "nämlich": 2381,
      "gebe": 2382,
      "gefallen": 2383,
      "destroyed": 2384,
      "Wahrheit": 2385,
      "Unglück": 2386,
      "),": 2387,
      "could": 2388,
      "killed": 2389,
      "itte": 2390,
      "kept": 2391,
      "adne": 2392,
      "komme": 2393,
      "annt": 2394,
      "fürchte": 2395,
      "Füße": 2396,
      "Paulus": 2397,
      "gs": 2398,
      "ond": 2399,
      "ence": 2400,
      "imelech": 2401,
      "Rat": 2402,
      "hid": 2403,
      "sign": 2404,
      "Daniel": 2405,
      "arose": 2406,
      "mitten": 2407,
      "lives": 2408,
      "asked": 2409,
      "Canaan": 2410,
      "Kraft": 2411,
      "vation": 2412,
      "beide": 2413,
      "schrie": 2414,
      "Werke": 2415,
      "haz": 2416,
      "understanding": 2417,
      "Hur": 2418,
      "Samen": 2419,
      "seg": 2420,
      "army": 2421,
      "neigh": 2422,
      "tragen": 2423,
      "Speis": 2424,
      "darkness": 2425,
      "teen": 2426,
      "Pet": 2427,
      "Sime": 2428,
      "hop": 2429,
      "mals": 2430,
      "ügel": 2431,
      "bote": 2432,
      "Toten": 2433,
      "Mittag": 2434,
      "Heiligtum": 2435,
      "Petrus": 2436,
      "Han": 2437,
      "Sem": 2438,
      "ired": 2439,
      "Peter": 2440,
      "husband": 2441,
      "keinen": 2442,
      "meat": 2443,
      "Gebote": 2444,
      "nacht": 2445,
      "gefangen": 2446,
      "bare": 2447,
      "dow": 2448,
      "consu": 2449,
      "Von": 2450,
      "teth": 2451,
      "suf": 2452,
      "counsel": 2453,
      "taten": 2454,
      "verlassen": 2455,
      "user": 2456,
      "commandments": 2457,
      "Get": 2458,
      "Lager": 2459,
      "pill": 2460,
      "Weibe": 2461,
      "unsre": 2462,
      "ears": 2463,
      "brachte": 2464,
      "zwölf": 2465,
      "GO": 2466,
      "cted": 2467,
      "ling": 2468,
      "hem": 2469,
      "Hil": 2470,
      "az": 2471,
      "bten": 2472,
      "ehe": 2473,
      "listen": 2474,
      "iff": 2475,
      "vierzig": 2476,
      "Kor": 2477,
      "Ram": 2478,
      "ides": 2479,
      "salvation": 2480,
      "slain": 2481,
      "oben": 2482,
      "dece": 2483,
      "irc": 2484,
      "Volks": 2485,
      "north": 2486,
      "dreißig": 2487,
      "fünfzig": 2488,
      "Take": 2489,
      "phes": 2490,
      "fifty": 2491,
      "mag": 2492,
      "obo": 2493,
      "chtern": 2494,
      "ische": 2495,
      "Holy": 2496,
      "oboam": 2497,
      "trees": 2498,
      "GOD": 2499,
      "Barm": 2500,
      "ett": 2501,
      "trat": 2502,
      "doesn": 2503,
      ".)": 2504,
      "Sha": 2505,
      "iled": 2506,
      "lab": 2507,
      "spre": 2508,
      "witness": 2509,
      "Gren": 2510,
      "fat": 2511,
      "wü": 2512,
      "ison": 2513,
      "repro": 2514,
      "schre": 2515,
      "trinken": 2516,
      "ündigt": 2517,
      "brachten": 2518,
      "herzigkeit": 2519,
      "lifted": 2520,
      "forty": 2521,
      "circ": 2522,
      "gut": 2523,
      "erwür": 2524,
      "inter": 2525,
      "continu": 2526,
      "scr": 2527,
      "tou": 2528,
      "comp": 2529,
      "Mitter": 2530,
      "auen": 2531,
      "verst": 2532,
      "Auf": 2533,
      "heißen": 2534,
      "Barmherzigkeit": 2535,
      "Mitternacht": 2536,
      "ices": 2537,
      "assen": 2538,
      "ents": 2539,
      "Hebron": 2540,
      "Auch": 2541,
      "fröh": 2542,
      "höre": 2543,
      "Hauses": 2544,
      "Als": 2545,
      "carried": 2546,
      "Götzen": 2547,
      "incense": 2548,
      "Speisopfer": 2549,
      "ning": 2550,
      "ug": 2551,
      "Psal": 2552,
      "Sin": 2553,
      "Wid": 2554,
      "ail": 2555,
      "ichtet": 2556,
      "empf": 2557,
      "break": 2558,
      "stri": 2559,
      "baute": 2560,
      "uf": 2561,
      "prof": 2562,
      "kindness": 2563,
      "hosts": 2564,
      "One": 2565,
      "hst": 2566,
      "ss": 2567,
      "abl": 2568,
      "nahmen": 2569,
      "throughout": 2570,
      "sanctu": 2571,
      "erwäh": 2572,
      "Mag": 2573,
      "wood": 2574,
      "received": 2575,
      "Jeremiah": 2576,
      "Kanaan": 2577,
      "Sat": 2578,
      "kel": 2579,
      "geden": 2580,
      "ket": 2581,
      "mache": 2582,
      "covered": 2583,
      "presen": 2584,
      "show": 2585,
      "Manasseh": 2586,
      "fte": 2587,
      "gibt": 2588,
      "ihundert": 2589,
      "ferne": 2590,
      "hoch": 2591,
      "Gebir": 2592,
      "Jeremia": 2593,
      "hind": 2594,
      "vessels": 2595,
      "Not": 2596,
      "äuch": 2597,
      "übel": 2598,
      "ray": 2599,
      "cometh": 2600,
      "prophes": 2601,
      "reiben": 2602,
      "Städten": 2603,
      "Speise": 2604,
      "ämmer": 2605,
      "starb": 2606,
      "fled": 2607,
      "lin": 2608,
      "atch": 2609,
      "umc": 2610,
      "wait": 2611,
      "south": 2612,
      "river": 2613,
      "Do": 2614,
      "wn": 2615,
      "Stifts": 2616,
      "Gerechten": 2617,
      "hält": 2618,
      "whether": 2619,
      "trans": 2620,
      "ban": 2621,
      "ls": 2622,
      "lage": 2623,
      "gates": 2624,
      "pher": 2625,
      "ufen": 2626,
      "rep": 2627,
      "ams": 2628,
      "Neb": 2629,
      "heavens": 2630,
      "Armies": 2631,
      "sanctuary": 2632,
      "Amen": 2633,
      "glad": 2634,
      "heads": 2635,
      "Ahas": 2636,
      "Im": 2637,
      "messen": 2638,
      "llte": 2639,
      "immt": 2640,
      "schlä": 2641,
      "fröhlich": 2642,
      "Ser": 2643,
      "Simon": 2644,
      "money": 2645,
      "tong": 2646,
      "incre": 2647,
      "circumc": 2648,
      "itz": 2649,
      "vertil": 2650,
      "ames": 2651,
      "jeglichen": 2652,
      "fter": 2653,
      "decl": 2654,
      "Buch": 2655,
      "Sar": 2656,
      "lebt": 2657,
      "Gehe": 2658,
      "liegen": 2659,
      "setzen": 2660,
      "help": 2661,
      "plag": 2662,
      "Come": 2663,
      "Fin": 2664,
      "statutes": 2665,
      ",\"": 2666,
      "gn": 2667,
      "mind": 2668,
      "schon": 2669,
      "laßt": 2670,
      "Erb": 2671,
      "unsern": 2672,
      "service": 2673,
      "heißt": 2674,
      "vide": 2675,
      "looked": 2676,
      "minister": 2677,
      "Acker": 2678,
      "Esel": 2679,
      "Munde": 2680,
      "mur": 2681,
      "entr": 2682,
      "innen": 2683,
      "bege": 2684,
      "establ": 2685,
      "Rechten": 2686,
      "rufen": 2687,
      "ankopfer": 2688,
      "hörten": 2689,
      "pieces": 2690,
      "More": 2691,
      "top": 2692,
      "grace": 2693,
      "daher": 2694,
      "moved": 2695,
      "wohnten": 2696,
      "Berg": 2697,
      "Lust": 2698,
      "instru": 2699,
      "anim": 2700,
      "desire": 2701,
      "feast": 2702,
      "must": 2703,
      "mount": 2704,
      "Dam": 2705,
      "sister": 2706,
      "geda": 2707,
      "sollten": 2708,
      "durchs": 2709,
      "Knechten": 2710,
      "offenbar": 2711,
      "Mid": 2712,
      "jetzt": 2713,
      "nten": 2714,
      "treten": 2715,
      "ated": 2716,
      "rise": 2717,
      "derer": 2718,
      "Amt": 2719,
      "eigen": 2720,
      "fin": 2721,
      "mour": 2722,
      "bell": 2723,
      "ckte": 2724,
      "Rechte": 2725,
      "eurem": 2726,
      "Fürst": 2727,
      "kennt": 2728,
      "kennen": 2729,
      "hope": 2730,
      "transgr": 2731,
      "ally": 2732,
      "Zer": 2733,
      "hof": 2734,
      "knew": 2735,
      "ox": 2736,
      "wives": 2737,
      "igten": 2738,
      "rose": 2739,
      "gerichtet": 2740,
      "Landes": 2741,
      "Levi": 2742,
      "bauen": 2743,
      "Grimm": 2744,
      "Götter": 2745,
      "Geld": 2746,
      "Moreover": 2747,
      "Fur": 2748,
      "John": 2749,
      "unger": 2750,
      "areth": 2751,
      "coming": 2752,
      "Abimelech": 2753,
      "buk": 2754,
      "Gra": 2755,
      "refu": 2756,
      "bereit": 2757,
      "spread": 2758,
      "preach": 2759,
      "gleichwie": 2760,
      "Isaac": 2761,
      "können": 2762,
      "Johannes": 2763,
      "suffer": 2764,
      "Widder": 2765,
      "Mar": 2766,
      "melt": 2767,
      "press": 2768,
      "großer": 2769,
      "opened": 2770,
      "Bas": 2771,
      "mah": 2772,
      "tau": 2773,
      "bek": 2774,
      "meet": 2775,
      "stay": 2776,
      "gesetzt": 2777,
      "trü": 2778,
      "wandeln": 2779,
      "Feld": 2780,
      "Gebirge": 2781,
      "Finstern": 2782,
      "Yes": 2783,
      "each": 2784,
      "fast": 2785,
      "asten": 2786,
      "sound": 2787,
      "idol": 2788,
      "need": 2789,
      "master": 2790,
      "Fru": 2791,
      "Gutes": 2792,
      "blieb": 2793,
      "def": 2794,
      "sieht": 2795,
      "rost": 2796,
      "schuld": 2797,
      "fressen": 2798,
      "Heze": 2799,
      "gessen": 2800,
      "food": 2801,
      "Armen": 2802,
      ".'\"": 2803,
      "Wherefore": 2804,
      "Schwes": 2805,
      "Frucht": 2806,
      "After": 2807,
      "Hel": 2808,
      "Ti": 2809,
      "uten": 2810,
      "liebe": 2811,
      "bond": 2812,
      "Hezekiah": 2813,
      "Hor": 2814,
      "brass": 2815,
      "daran": 2816,
      "firstborn": 2817,
      "Gefä": 2818,
      "Och": 2819,
      "ron": 2820,
      "upt": 2821,
      "Zede": 2822,
      "offered": 2823,
      "sky": 2824,
      "assembly": 2825,
      "Ke": 2826,
      "cor": 2827,
      "linge": 2828,
      "zäh": 2829,
      "erwe": 2830,
      "leid": 2831,
      "achtet": 2832,
      "Jerich": 2833,
      "court": 2834,
      "desolate": 2835,
      "fet": 2836,
      "kes": 2837,
      "foot": 2838,
      "Hoff": 2839,
      "myself": 2840,
      "Menschenkind": 2841,
      "ubim": 2842,
      "dient": 2843,
      "prom": 2844,
      "chosen": 2845,
      "presence": 2846,
      "Midian": 2847,
      "erfü": 2848,
      "gezogen": 2849,
      "kehren": 2850,
      "herzu": 2851,
      "solche": 2852,
      "trust": 2853,
      "Gericht": 2854,
      "numbered": 2855,
      "ächsten": 2856,
      "Pil": 2857,
      "family": 2858,
      "Fest": 2859,
      "fine": 2860,
      "sup": 2861,
      "chtet": 2862,
      "verw": 2863,
      "dieses": 2864,
      "brechen": 2865,
      "conf": 2866,
      "fürchten": 2867,
      "Freude": 2868,
      "äume": 2869,
      "unserm": 2870,
      "unsers": 2871,
      "wickedness": 2872,
      "Gebot": 2873,
      "Isaak": 2874,
      "Lo": 2875,
      "jour": 2876,
      "bede": 2877,
      "leute": 2878,
      "orns": 2879,
      "wohnt": 2880,
      "Holz": 2881,
      "ivity": 2882,
      "asha": 2883,
      "lips": 2884,
      "perish": 2885,
      "sick": 2886,
      "generations": 2887,
      "Frü": 2888,
      "Tier": 2889,
      "Sündopfer": 2890,
      "Jericho": 2891,
      "Mal": 2892,
      "Per": 2893,
      "thought": 2894,
      "Farren": 2895,
      "Hir": 2896,
      "Wesen": 2897,
      "besser": 2898,
      "corn": 2899,
      "vel": 2900,
      "unnen": 2901,
      "weiter": 2902,
      "Erbe": 2903,
      "Abram": 2904,
      "bleibt": 2905,
      "dab": 2906,
      "aked": 2907,
      "sinned": 2908,
      "thanks": 2909,
      "Assyria": 2910,
      "Hanan": 2911,
      "Blessed": 2912,
      "Lib": 2913,
      "aking": 2914,
      "van": 2915,
      "recken": 2916,
      "stret": 2917,
      "herab": 2918,
      "Statt": 2919,
      "Schanden": 2920,
      "Erst": 2921,
      "wond": 2922,
      "graben": 2923,
      "ready": 2924,
      "raise": 2925,
      "why": 2926,
      "blind": 2927,
      "seventh": 2928,
      "Meine": 2929,
      "Tod": 2930,
      "fing": 2931,
      "mor": 2932,
      "stir": 2933,
      "auft": 2934,
      "akim": 2935,
      "Söhnen": 2936,
      "captivity": 2937,
      "Füßen": 2938,
      "Finsternis": 2939,
      "ale": 2940,
      "yourself": 2941,
      "Hear": 2942,
      "prison": 2943,
      "spoil": 2944,
      "Kna": 2945,
      "gain": 2946,
      "nimm": 2947,
      "entgegen": 2948,
      "Schaf": 2949,
      "zeit": 2950,
      "everyone": 2951,
      "finden": 2952,
      "Fremd": 2953,
      "Yet": 2954,
      "sought": 2955,
      "Stra": 2956,
      "prepar": 2957,
      "Zie": 2958,
      "fand": 2959,
      "jen": 2960,
      "pal": 2961,
      "erfahren": 2962,
      "sold": 2963,
      "willst": 2964,
      "nete": 2965,
      "miteinander": 2966,
      "werk": 2967,
      "los": 2968,
      "Freund": 2969,
      "testimon": 2970,
      "Darnach": 2971,
      "hätte": 2972,
      "Furcht": 2973,
      "Has": 2974,
      "Name": 2975,
      "iles": 2976,
      "desp": 2977,
      "abund": 2978,
      "trum": 2979,
      "yea": 2980,
      "scatter": 2981,
      "Rind": 2982,
      "Zahl": 2983,
      "sy": 2984,
      "ud": 2985,
      "seien": 2986,
      "unken": 2987,
      "lief": 2988,
      "Abner": 2989,
      "welt": 2990,
      "ängnis": 2991,
      "rüh": 2992,
      "wenig": 2993,
      "mächtig": 2994,
      "täglich": 2995,
      "\"'": 2996,
      "At": 2997,
      "Ev": 2998,
      "bad": 2999
    },
    "merges": [
      [
        "e",
        "r"
      ],
      [
        "e",
        "n"
      ],
      [
        "t",
        "h"
      ],
      [
        "n",
        "d"
      ],
      [
        "i",
        "n"
      ],
      [
        "c",
        "h"
      ],
      [
        "th",
        "e"
      ],
      [
        "e",
        "s"
      ],
      [
        "a",
        "nd"
      ],
      [
        "i",
        "e"
      ],
      [
        "u",
        "nd"
      ],
      [
        "l",
        "l"
      ],
      [
        "i",
        "s"
      ],
      [
        "o",
        "r"
      ],
      [
        "h",
        "a"
      ],
      [
        "o",
        "f"
      ],
      [
        "o",
        "n"
      ],
      [
        "o",
        "u"
      ],
      [
        "i",
        "ch"
      ],
      [
        "s",
        "e"
      ],
      [
        "a",
        "n"
      ],
      [
        "a",
        "r"
      ],
      [
        "a",
        "s"
      ],
      [
        "i",
        "t"
      ],
      [
        "t",
        "o"
      ],
      [
        "h",
        "e"
      ],
      [
        "t",
        "e"
      ],
      [
        "r",
        "e"
      ],
      [
        "a",
        "u"
      ],
      [
        "d",
        "er"
      ],
      [
        "d",
        "e"
      ],
      [
        "w",
        "i"
      ],
      [
        "b",
        "e"
      ],
      [
        "a",
        "t"
      ],
      [
        "g",
        "e"
      ],
      [
        "m",
        "e"
      ],
      [
        "l",
        "e"
      ],
      [
        "s",
        "t"
      ],
      [
        "d",
        "en"
      ],
      [
        "in",
        "g"
      ],
      [
        "d",
        "a"
      ],
      [
        "r",
        "a"
      ],
      [
        "u",
        "n"
      ],
      [
        "s",
        "a"
      ],
      [
        "i",
        "h"
      ],
      [
        "d",
        "ie"
      ],
      [
        "i",
        "g"
      ],
      [
        "s",
        "o"
      ],
      [
        "z",
        "u"
      ],
      [
        "i",
        "m"
      ],
      [
        "o",
        "m"
      ],
      [
        "e",
        "in"
      ],
      [
        "a",
        "ll"
      ],
      [
        "e",
        "d"
      ],
      [
        "t",
        "en"
      ],
      [
        "f",
        "or"
      ],
      [
        "i",
        "r"
      ],
      [
        "y",
        "ou"
      ],
      [
        "e",
        "l"
      ],
      [
        "b",
        "er"
      ],
      [
        "t",
        "er"
      ],
      [
        "o",
        "t"
      ],
      [
        "w",
        "h"
      ],
      [
        "v",
        "er"
      ],
      [
        "i",
        "l"
      ],
      [
        "s",
        "ie"
      ],
      [
        "a",
        "l"
      ],
      [
        "w",
        "e"
      ],
      [
        "i",
        "d"
      ],
      [
        "th",
        "at"
      ],
      [
        "er",
        "e"
      ],
      [
        "ich",
        "t"
      ],
      [
        "a",
        "h"
      ],
      [
        "a",
        "m"
      ],
      [
        "s",
        "ha"
      ],
      [
        "v",
        "e"
      ],
      [
        "g",
        "en"
      ],
      [
        "s",
        "p"
      ],
      [
        "is",
        "t"
      ],
      [
        "se",
        "in"
      ],
      [
        "b",
        "en"
      ],
      [
        "d",
        "es"
      ],
      [
        "wi",
        "ll"
      ],
      [
        "h",
        "is"
      ],
      [
        "o",
        "l"
      ],
      [
        "sha",
        "ll"
      ],
      [
        "a",
        "ch"
      ],
      [
        "u",
        "t"
      ],
      [
        "d",
        "as"
      ],
      [
        "n",
        "icht"
      ],
      [
        "da",
        "ß"
      ],
      [
        "k",
        "e"
      ],
      [
        "au",
        "f"
      ],
      [
        "o",
        "w"
      ],
      [
        "H",
        "E"
      ],
      [
        "HE",
        "R"
      ],
      [
        "HER",
        "R"
      ],
      [
        "U",
        "nd"
      ],
      [
        "u",
        "r"
      ],
      [
        "i",
        "nd"
      ],
      [
        "o",
        "d"
      ],
      [
        "n",
        "e"
      ],
      [
        "h",
        "im"
      ],
      [
        "de",
        "m"
      ],
      [
        "r",
        "o"
      ],
      [
        "w",
        "as"
      ],
      [
        "wi",
        "th"
      ],
      [
        "w",
        "ar"
      ],
      [
        "m",
        "en"
      ],
      [
        "u",
        "s"
      ],
      [
        "A",
        "nd"
      ],
      [
        "ha",
        "t"
      ],
      [
        "the",
        "m"
      ],
      [
        "c",
        "e"
      ],
      [
        "th",
        "er"
      ],
      [
        "e",
        "m"
      ],
      [
        "r",
        "en"
      ],
      [
        "s",
        "ch"
      ],
      [
        "m",
        "it"
      ],
      [
        "i",
        "es"
      ],
      [
        "the",
        "y"
      ],
      [
        "v",
        "on"
      ],
      [
        "e",
        "u"
      ],
      [
        "w",
        "er"
      ],
      [
        "a",
        "b"
      ],
      [
        "au",
        "s"
      ],
      [
        "h",
        "t"
      ],
      [
        "h",
        "en"
      ],
      [
        "wi",
        "r"
      ],
      [
        "I",
        "s"
      ],
      [
        "h",
        "er"
      ],
      [
        "a",
        "g"
      ],
      [
        "u",
        "m"
      ],
      [
        "ra",
        "ch"
      ],
      [
        "a",
        "ber"
      ],
      [
        "o",
        "h"
      ],
      [
        "ra",
        "el"
      ],
      [
        "ih",
        "r"
      ],
      [
        "Is",
        "rael"
      ],
      [
        "e",
        "t"
      ],
      [
        "so",
        "ll"
      ],
      [
        "n",
        "ot"
      ],
      [
        "f",
        "r"
      ],
      [
        "d",
        "u"
      ],
      [
        "ih",
        "n"
      ],
      [
        "m",
        "a"
      ],
      [
        "c",
        "k"
      ],
      [
        "er",
        "n"
      ],
      [
        "m",
        "an"
      ],
      [
        "s",
        "en"
      ],
      [
        "de",
        "in"
      ],
      [
        "you",
        "r"
      ],
      [
        "a",
        "d"
      ],
      [
        "m",
        "y"
      ],
      [
        "D",
        "a"
      ],
      [
        "w",
        "or"
      ],
      [
        "u",
        "p"
      ],
      [
        "ot",
        "t"
      ],
      [
        "h",
        "r"
      ],
      [
        "l",
        "i"
      ],
      [
        "sp",
        "rach"
      ],
      [
        "me",
        "in"
      ],
      [
        "un",
        "to"
      ],
      [
        "l",
        "a"
      ],
      [
        "G",
        "ott"
      ],
      [
        "o",
        "p"
      ],
      [
        "H",
        "e"
      ],
      [
        "ha",
        "ve"
      ],
      [
        "w",
        "ie"
      ],
      [
        "i",
        "on"
      ],
      [
        "on",
        "e"
      ],
      [
        "ou",
        "t"
      ],
      [
        "G",
        "od"
      ],
      [
        "v",
        "en"
      ],
      [
        "g",
        "es"
      ],
      [
        "ar",
        "e"
      ],
      [
        "T",
        "he"
      ],
      [
        "wh",
        "o"
      ],
      [
        "sa",
        "id"
      ],
      [
        "t",
        "r"
      ],
      [
        "fr",
        "om"
      ],
      [
        "the",
        "ir"
      ],
      [
        "se",
        "l"
      ],
      [
        "en",
        "n"
      ],
      [
        "wh",
        "ich"
      ],
      [
        "ö",
        "n"
      ],
      [
        "a",
        "in"
      ],
      [
        "f",
        "e"
      ],
      [
        "l",
        "o"
      ],
      [
        "v",
        "or"
      ],
      [
        "b",
        "r"
      ],
      [
        "c",
        "o"
      ],
      [
        "S",
        "t"
      ],
      [
        "s",
        "on"
      ],
      [
        "es",
        "t"
      ],
      [
        "es",
        "s"
      ],
      [
        "a",
        "me"
      ],
      [
        "for",
        "e"
      ],
      [
        "en",
        "t"
      ],
      [
        "h",
        "ou"
      ],
      [
        "HERR",
        "N"
      ],
      [
        "p",
        "e"
      ],
      [
        "S",
        "ch"
      ],
      [
        "we",
        "h"
      ],
      [
        "oh",
        "n"
      ],
      [
        "k",
        "ing"
      ],
      [
        "Y",
        "ah"
      ],
      [
        "wir",
        "d"
      ],
      [
        "ih",
        "m"
      ],
      [
        "Yah",
        "weh"
      ],
      [
        "i",
        "f"
      ],
      [
        "s",
        "ich"
      ],
      [
        "G",
        "e"
      ],
      [
        "den",
        "n"
      ],
      [
        "t",
        "s"
      ],
      [
        "th",
        "ou"
      ],
      [
        "R",
        "D"
      ],
      [
        "L",
        "O"
      ],
      [
        "LO",
        "RD"
      ],
      [
        "th",
        "ere"
      ],
      [
        "f",
        "er"
      ],
      [
        "K",
        "ön"
      ],
      [
        "l",
        "ich"
      ],
      [
        "n",
        "o"
      ],
      [
        "ü",
        "r"
      ],
      [
        "s",
        "er"
      ],
      [
        "d",
        "o"
      ],
      [
        "l",
        "d"
      ],
      [
        "eu",
        "ch"
      ],
      [
        "l",
        "t"
      ],
      [
        "y",
        "e"
      ],
      [
        "ü",
        "ber"
      ],
      [
        "ch",
        "t"
      ],
      [
        "Kön",
        "ig"
      ],
      [
        "ou",
        "r"
      ],
      [
        "p",
        "r"
      ],
      [
        "l",
        "ie"
      ],
      [
        "ol",
        "d"
      ],
      [
        "or",
        "d"
      ],
      [
        "E",
        "r"
      ],
      [
        "ig",
        "ht"
      ],
      [
        "g",
        "o"
      ],
      [
        "h",
        "in"
      ],
      [
        "W",
        "e"
      ],
      [
        "sa",
        "y"
      ],
      [
        "f",
        "a"
      ],
      [
        "s",
        "te"
      ],
      [
        "w",
        "ere"
      ],
      [
        "o",
        "se"
      ],
      [
        "da",
        "y"
      ],
      [
        "b",
        "y"
      ],
      [
        "wer",
        "den"
      ],
      [
        "n",
        "ach"
      ],
      [
        "all",
        "e"
      ],
      [
        "w",
        "o"
      ],
      [
        "au",
        "se"
      ],
      [
        "w",
        "a"
      ],
      [
        "K",
        "ind"
      ],
      [
        "m",
        "ir"
      ],
      [
        "o",
        "s"
      ],
      [
        "b",
        "ut"
      ],
      [
        "th",
        "y"
      ],
      [
        "au",
        "ch"
      ],
      [
        "il",
        "d"
      ],
      [
        "p",
        "t"
      ],
      [
        "th",
        "is"
      ],
      [
        "k",
        "om"
      ],
      [
        "an",
        "n"
      ],
      [
        "al",
        "so"
      ],
      [
        "er",
        "s"
      ],
      [
        "l",
        "y"
      ],
      [
        "a",
        "k"
      ],
      [
        "a",
        "f"
      ],
      [
        "d",
        "ar"
      ],
      [
        "d",
        "ir"
      ],
      [
        "e",
        "h"
      ],
      [
        "s",
        "ind"
      ],
      [
        "ihn",
        "en"
      ],
      [
        "m",
        "ach"
      ],
      [
        "J",
        "es"
      ],
      [
        "he",
        "ar"
      ],
      [
        "ol",
        "k"
      ],
      [
        "ow",
        "n"
      ],
      [
        "S",
        "ohn"
      ],
      [
        "at",
        "ion"
      ],
      [
        "J",
        "u"
      ],
      [
        "c",
        "ame"
      ],
      [
        "i",
        "b"
      ],
      [
        "v",
        "id"
      ],
      [
        "Da",
        "vid"
      ],
      [
        "h",
        "and"
      ],
      [
        "ag",
        "ain"
      ],
      [
        "un",
        "ter"
      ],
      [
        "pe",
        "op"
      ],
      [
        "l",
        "and"
      ],
      [
        "in",
        "e"
      ],
      [
        "ha",
        "d"
      ],
      [
        "an",
        "t"
      ],
      [
        "hou",
        "se"
      ],
      [
        "wh",
        "en"
      ],
      [
        "co",
        "me"
      ],
      [
        "ein",
        "e"
      ],
      [
        "V",
        "olk"
      ],
      [
        "H",
        "er"
      ],
      [
        "un",
        "s"
      ],
      [
        "th",
        "ing"
      ],
      [
        "J",
        "er"
      ],
      [
        ".",
        "\""
      ],
      [
        "wa",
        "y"
      ],
      [
        "sein",
        "e"
      ],
      [
        "ou",
        "g"
      ],
      [
        "c",
        "om"
      ],
      [
        "u",
        "ch"
      ],
      [
        "on",
        "g"
      ],
      [
        "r",
        "ie"
      ],
      [
        "peop",
        "le"
      ],
      [
        "te",
        "d"
      ],
      [
        "L",
        "e"
      ],
      [
        "ch",
        "ild"
      ],
      [
        "ein",
        "en"
      ],
      [
        "m",
        "ich"
      ],
      [
        "d",
        "ies"
      ],
      [
        "ig",
        "en"
      ],
      [
        "i",
        "ve"
      ],
      [
        "in",
        "to"
      ],
      [
        "war",
        "d"
      ],
      [
        "a",
        "th"
      ],
      [
        "i",
        "ll"
      ],
      [
        "g",
        "er"
      ],
      [
        "d",
        "ich"
      ],
      [
        "the",
        "e"
      ],
      [
        "o",
        "k"
      ],
      [
        "e",
        "ver"
      ],
      [
        "D",
        "enn"
      ],
      [
        "B",
        "r"
      ],
      [
        "L",
        "and"
      ],
      [
        "Z",
        "e"
      ],
      [
        "f",
        "en"
      ],
      [
        "ih",
        "re"
      ],
      [
        "S",
        "o"
      ],
      [
        "F",
        "or"
      ],
      [
        "n",
        "ow"
      ],
      [
        "b",
        "o"
      ],
      [
        "ur",
        "n"
      ],
      [
        "T",
        "h"
      ],
      [
        "zu",
        "m"
      ],
      [
        "child",
        "ren"
      ],
      [
        "n",
        "ess"
      ],
      [
        "le",
        "m"
      ],
      [
        "as",
        "t"
      ],
      [
        "be",
        "fore"
      ],
      [
        "se",
        "t"
      ],
      [
        "is",
        "e"
      ],
      [
        "Kind",
        "er"
      ],
      [
        "i",
        "de"
      ],
      [
        "p",
        "h"
      ],
      [
        "w",
        "ent"
      ],
      [
        "a",
        "c"
      ],
      [
        "ha",
        "s"
      ],
      [
        "R",
        "e"
      ],
      [
        "wor",
        "d"
      ],
      [
        "Ju",
        "da"
      ],
      [
        "c",
        "ause"
      ],
      [
        "z",
        "e"
      ],
      [
        "u",
        "sa"
      ],
      [
        "A",
        "b"
      ],
      [
        "v",
        "es"
      ],
      [
        "it",
        "y"
      ],
      [
        "ie",
        "l"
      ],
      [
        "i",
        "en"
      ],
      [
        "h",
        "ö"
      ],
      [
        "f",
        "ü"
      ],
      [
        "z",
        "en"
      ],
      [
        "Jes",
        "us"
      ],
      [
        "S",
        "e"
      ],
      [
        "Jer",
        "usa"
      ],
      [
        "Jerusa",
        "lem"
      ],
      [
        "again",
        "st"
      ],
      [
        "l",
        "es"
      ],
      [
        "s",
        "he"
      ],
      [
        "k",
        "en"
      ],
      [
        "fa",
        "ther"
      ],
      [
        "B",
        "ut"
      ],
      [
        "g",
        "an"
      ],
      [
        "und",
        "er"
      ],
      [
        "e",
        "ar"
      ],
      [
        "re",
        "d"
      ],
      [
        "ha",
        "be"
      ],
      [
        "ha",
        "ben"
      ],
      [
        "b",
        "re"
      ],
      [
        "I",
        "ch"
      ],
      [
        "kom",
        "men"
      ],
      [
        "sp",
        "r"
      ],
      [
        "i",
        "er"
      ],
      [
        "c",
        "on"
      ],
      [
        "h",
        "o"
      ],
      [
        "ur",
        "ch"
      ],
      [
        "o",
        "ver"
      ],
      [
        "an",
        "s"
      ],
      [
        "p",
        "ro"
      ],
      [
        "ha",
        "st"
      ],
      [
        "g",
        "y"
      ],
      [
        "te",
        "t"
      ],
      [
        "ig",
        "h"
      ],
      [
        "ß",
        "en"
      ],
      [
        "i",
        "a"
      ],
      [
        "at",
        "er"
      ],
      [
        "or",
        "n"
      ],
      [
        "ge",
        "l"
      ],
      [
        "r",
        "u"
      ],
      [
        "ch",
        "en"
      ],
      [
        "B",
        "e"
      ],
      [
        "S",
        "ie"
      ],
      [
        "hat",
        "te"
      ],
      [
        "k",
        "am"
      ],
      [
        "m",
        "t"
      ],
      [
        "all",
        "en"
      ],
      [
        "g",
        "t"
      ],
      [
        "G",
        "es"
      ],
      [
        "g",
        "a"
      ],
      [
        "of",
        "fer"
      ],
      [
        "i",
        "ah"
      ],
      [
        "w",
        "el"
      ],
      [
        "ma",
        "de"
      ],
      [
        "f",
        "t"
      ],
      [
        "up",
        "on"
      ],
      [
        "ü",
        "nd"
      ],
      [
        "g",
        "l"
      ],
      [
        "say",
        "ing"
      ],
      [
        "m",
        "and"
      ],
      [
        "re",
        "t"
      ],
      [
        "g",
        "re"
      ],
      [
        "un",
        "g"
      ],
      [
        "ge",
        "t"
      ],
      [
        "a",
        "ke"
      ],
      [
        "sein",
        "en"
      ],
      [
        "be",
        "i"
      ],
      [
        "d",
        "urch"
      ],
      [
        "b",
        "t"
      ],
      [
        "m",
        "er"
      ],
      [
        "ge",
        "ben"
      ],
      [
        "f",
        "o"
      ],
      [
        "le",
        "d"
      ],
      [
        "st",
        "en"
      ],
      [
        "or",
        "e"
      ],
      [
        "E",
        "s"
      ],
      [
        "v",
        "ed"
      ],
      [
        "g",
        "ro"
      ],
      [
        "ha",
        "th"
      ],
      [
        "f",
        "ür"
      ],
      [
        "i",
        "ce"
      ],
      [
        "e",
        "ven"
      ],
      [
        "le",
        "t"
      ],
      [
        "en",
        "d"
      ],
      [
        "war",
        "en"
      ],
      [
        "i",
        "th"
      ],
      [
        "o",
        "ther"
      ],
      [
        "st",
        "and"
      ],
      [
        "oug",
        "ht"
      ],
      [
        "au",
        "l"
      ],
      [
        "me",
        "l"
      ],
      [
        "b",
        "a"
      ],
      [
        "ou",
        "n"
      ],
      [
        "no",
        "ch"
      ],
      [
        "p",
        "la"
      ],
      [
        "ch",
        "te"
      ],
      [
        "n",
        "en"
      ],
      [
        "dein",
        "e"
      ],
      [
        "ma",
        "y"
      ],
      [
        "W",
        "as"
      ],
      [
        "d",
        "r"
      ],
      [
        "M",
        "en"
      ],
      [
        "d",
        "id"
      ],
      [
        "T",
        "hen"
      ],
      [
        "ges",
        "ch"
      ],
      [
        "f",
        "u"
      ],
      [
        "Gott",
        "es"
      ],
      [
        "ser",
        "v"
      ],
      [
        "ou",
        "s"
      ],
      [
        "br",
        "ing"
      ],
      [
        "a",
        "p"
      ],
      [
        "r",
        "t"
      ],
      [
        "al",
        "s"
      ],
      [
        "le",
        "i"
      ],
      [
        "re",
        "i"
      ],
      [
        "ä",
        "n"
      ],
      [
        "g",
        "ing"
      ],
      [
        "se",
        "d"
      ],
      [
        "mein",
        "e"
      ],
      [
        "s",
        "u"
      ],
      [
        "C",
        "hr"
      ],
      [
        "l",
        "as"
      ],
      [
        "sein",
        "em"
      ],
      [
        "i",
        "p"
      ],
      [
        "a",
        "ge"
      ],
      [
        "J",
        "o"
      ],
      [
        "son",
        "s"
      ],
      [
        "b",
        "is"
      ],
      [
        "ge",
        "b"
      ],
      [
        "d",
        "own"
      ],
      [
        "n",
        "un"
      ],
      [
        "thing",
        "s"
      ],
      [
        "k",
        "now"
      ],
      [
        "z",
        "ig"
      ],
      [
        "pr",
        "ies"
      ],
      [
        "ha",
        "l"
      ],
      [
        "L",
        "ord"
      ],
      [
        "as",
        "s"
      ],
      [
        "A",
        "ber"
      ],
      [
        "A",
        "s"
      ],
      [
        "we",
        "i"
      ],
      [
        "H",
        "and"
      ],
      [
        "e",
        "p"
      ],
      [
        "The",
        "y"
      ],
      [
        "ever",
        "y"
      ],
      [
        "v",
        "o"
      ],
      [
        "nd",
        "ern"
      ],
      [
        "spr",
        "icht"
      ],
      [
        "b",
        "ro"
      ],
      [
        "p",
        "he"
      ],
      [
        "b",
        "u"
      ],
      [
        "all",
        "es"
      ],
      [
        "W",
        "or"
      ],
      [
        "Men",
        "sch"
      ],
      [
        "it",
        "er"
      ],
      [
        "it",
        "s"
      ],
      [
        "ß",
        "t"
      ],
      [
        "ar",
        "s"
      ],
      [
        "al",
        "t"
      ],
      [
        "th",
        "r"
      ],
      [
        "j",
        "a"
      ],
      [
        "be",
        "cause"
      ],
      [
        "c",
        "t"
      ],
      [
        "t",
        "re"
      ],
      [
        "g",
        "r"
      ],
      [
        "gre",
        "at"
      ],
      [
        "i",
        "me"
      ],
      [
        "m",
        "u"
      ],
      [
        "n",
        "ame"
      ],
      [
        "af",
        "ter"
      ],
      [
        "W",
        "er"
      ],
      [
        "p",
        "ar"
      ],
      [
        "de",
        "t"
      ],
      [
        "n",
        "er"
      ],
      [
        "an",
        "y"
      ],
      [
        "offer",
        "ing"
      ],
      [
        "ma",
        "ke"
      ],
      [
        "se",
        "e"
      ],
      [
        "s",
        "in"
      ],
      [
        "H",
        "aus"
      ],
      [
        "so",
        "ndern"
      ],
      [
        "c",
        "es"
      ],
      [
        "D",
        "er"
      ],
      [
        "ter",
        "n"
      ],
      [
        "h",
        "old"
      ],
      [
        "Chr",
        "ist"
      ],
      [
        "n",
        "or"
      ],
      [
        "q",
        "u"
      ],
      [
        "se",
        "i"
      ],
      [
        "g",
        "lich"
      ],
      [
        "i",
        "ther"
      ],
      [
        "ke",
        "it"
      ],
      [
        "sel",
        "f"
      ],
      [
        "o",
        "b"
      ],
      [
        "A",
        "n"
      ],
      [
        "ear",
        "th"
      ],
      [
        "z",
        "er"
      ],
      [
        "the",
        "se"
      ],
      [
        "wi",
        "der"
      ],
      [
        "th",
        "en"
      ],
      [
        "soll",
        "en"
      ],
      [
        "it",
        "e"
      ],
      [
        "op",
        "fer"
      ],
      [
        "w",
        "enn"
      ],
      [
        "j",
        "e"
      ],
      [
        "s",
        "h"
      ],
      [
        "b",
        "es"
      ],
      [
        "p",
        "er"
      ],
      [
        "sein",
        "er"
      ],
      [
        "a",
        "way"
      ],
      [
        "D",
        "ie"
      ],
      [
        "i",
        "ge"
      ],
      [
        "A",
        "l"
      ],
      [
        "c",
        "r"
      ],
      [
        "Ze",
        "it"
      ],
      [
        "ll",
        "en"
      ],
      [
        "t",
        "un"
      ],
      [
        "ch",
        "e"
      ],
      [
        "li",
        "ke"
      ],
      [
        "K",
        "ne"
      ],
      [
        "i",
        "le"
      ],
      [
        "d",
        "om"
      ],
      [
        "com",
        "mand"
      ],
      [
        "ah",
        "r"
      ],
      [
        "j",
        "u"
      ],
      [
        "w",
        "ä"
      ],
      [
        "z",
        "o"
      ],
      [
        "s",
        "and"
      ],
      [
        "ih",
        "ren"
      ],
      [
        "soll",
        "st"
      ],
      [
        "g",
        "te"
      ],
      [
        "p",
        "ut"
      ],
      [
        "g",
        "ive"
      ],
      [
        "A",
        "r"
      ],
      [
        "ig",
        "t"
      ],
      [
        "zu",
        "r"
      ],
      [
        "ac",
        "c"
      ],
      [
        "th",
        "ose"
      ],
      [
        "g",
        "h"
      ],
      [
        "u",
        "e"
      ],
      [
        "V",
        "ater"
      ],
      [
        "A",
        "m"
      ],
      [
        "l",
        "an"
      ],
      [
        "o",
        "der"
      ],
      [
        "ge",
        "hen"
      ],
      [
        "wie",
        "der"
      ],
      [
        "U",
        "n"
      ],
      [
        "am",
        "ong"
      ],
      [
        "st",
        "r"
      ],
      [
        "os",
        "es"
      ],
      [
        "A",
        "u"
      ],
      [
        "h",
        "il"
      ],
      [
        "v",
        "om"
      ],
      [
        "ch",
        "es"
      ],
      [
        "b",
        "in"
      ],
      [
        "ö",
        "h"
      ],
      [
        "Y",
        "ou"
      ],
      [
        "am",
        "en"
      ],
      [
        "m",
        "o"
      ],
      [
        "it",
        "es"
      ],
      [
        "day",
        "s"
      ],
      [
        "br",
        "ought"
      ],
      [
        "T",
        "o"
      ],
      [
        "be",
        "l"
      ],
      [
        "b",
        "st"
      ],
      [
        "c",
        "ity"
      ],
      [
        "ge",
        "f"
      ],
      [
        "w",
        "is"
      ],
      [
        "M",
        "oses"
      ],
      [
        "Th",
        "ere"
      ],
      [
        "i",
        "re"
      ],
      [
        "eu",
        "er"
      ],
      [
        "M",
        "ann"
      ],
      [
        "ß",
        "e"
      ],
      [
        "ad",
        "t"
      ],
      [
        "u",
        "te"
      ],
      [
        "ch",
        "ten"
      ],
      [
        "l",
        "en"
      ],
      [
        "ar",
        "um"
      ],
      [
        "S",
        "aul"
      ],
      [
        "H",
        "ä"
      ],
      [
        "hear",
        "t"
      ],
      [
        "c",
        "all"
      ],
      [
        "ge",
        "gen"
      ],
      [
        "m",
        "ight"
      ],
      [
        "t",
        "wo"
      ],
      [
        "Juda",
        "h"
      ],
      [
        "is",
        "h"
      ],
      [
        "St",
        "adt"
      ],
      [
        "h",
        "ol"
      ],
      [
        "go",
        "od"
      ],
      [
        "Mensch",
        "en"
      ],
      [
        "H",
        "ause"
      ],
      [
        "wor",
        "k"
      ],
      [
        "St",
        "ä"
      ],
      [
        "sa",
        "gen"
      ],
      [
        "ord",
        "ing"
      ],
      [
        "V",
        "er"
      ],
      [
        "h",
        "ren"
      ],
      [
        "of",
        "f"
      ],
      [
        "sha",
        "lt"
      ],
      [
        "D",
        "as"
      ],
      [
        "l",
        "u"
      ],
      [
        "te",
        "te"
      ],
      [
        "w",
        "ohn"
      ],
      [
        "t",
        "y"
      ],
      [
        "et",
        "z"
      ],
      [
        "s",
        "hou"
      ],
      [
        "be",
        "t"
      ],
      [
        "t",
        "ain"
      ],
      [
        "he",
        "a"
      ],
      [
        "p",
        "o"
      ],
      [
        "n",
        "a"
      ],
      [
        "ü",
        "t"
      ],
      [
        "N",
        "ow"
      ],
      [
        "pla",
        "ce"
      ],
      [
        "th",
        "an"
      ],
      [
        "we",
        "ll"
      ],
      [
        "men",
        "t"
      ],
      [
        "P",
        "r"
      ],
      [
        "ha",
        "r"
      ],
      [
        "an",
        "ts"
      ],
      [
        "oug",
        "h"
      ],
      [
        "u",
        "b"
      ],
      [
        "acc",
        "ording"
      ],
      [
        "i",
        "be"
      ],
      [
        "las",
        "sen"
      ],
      [
        "M",
        "ose"
      ],
      [
        "me",
        "hr"
      ],
      [
        "ein",
        "em"
      ],
      [
        "sel",
        "bst"
      ],
      [
        "for",
        "th"
      ],
      [
        "t",
        "ake"
      ],
      [
        "sa",
        "m"
      ],
      [
        "m",
        "on"
      ],
      [
        "v",
        "il"
      ],
      [
        "he",
        "il"
      ],
      [
        "H",
        "im"
      ],
      [
        "to",
        "ok"
      ],
      [
        "c",
        "a"
      ],
      [
        "o",
        "th"
      ],
      [
        "T",
        "ag"
      ],
      [
        "ck",
        "en"
      ],
      [
        "e",
        "at"
      ],
      [
        "gy",
        "pt"
      ],
      [
        "it",
        "t"
      ],
      [
        "Him",
        "mel"
      ],
      [
        "do",
        "ch"
      ],
      [
        "D",
        "u"
      ],
      [
        "n",
        "ie"
      ],
      [
        "ach",
        "t"
      ],
      [
        "p",
        "ass"
      ],
      [
        "there",
        "fore"
      ],
      [
        "Pr",
        "ies"
      ],
      [
        "g",
        "i"
      ],
      [
        "m",
        "ore"
      ],
      [
        "it",
        "en"
      ],
      [
        "E",
        "gypt"
      ],
      [
        "wh",
        "om"
      ],
      [
        "sp",
        "e"
      ],
      [
        "w",
        "hat"
      ],
      [
        "ation",
        "s"
      ],
      [
        "dein",
        "en"
      ],
      [
        "sa",
        "l"
      ],
      [
        "ind",
        "e"
      ],
      [
        "J",
        "e"
      ],
      [
        "an",
        "ce"
      ],
      [
        "so",
        "l"
      ],
      [
        "ie",
        "d"
      ],
      [
        "nd",
        "e"
      ],
      [
        "Land",
        "e"
      ],
      [
        "Le",
        "v"
      ],
      [
        "ne",
        "ither"
      ],
      [
        "d",
        "is"
      ],
      [
        "n",
        "ah"
      ],
      [
        "s",
        "to"
      ],
      [
        "sprach",
        "en"
      ],
      [
        "gy",
        "p"
      ],
      [
        "M",
        "e"
      ],
      [
        "in",
        "s"
      ],
      [
        "Ä",
        "gyp"
      ],
      [
        "b",
        "l"
      ],
      [
        "sen",
        "t"
      ],
      [
        "F",
        "re"
      ],
      [
        "mach",
        "t"
      ],
      [
        "h",
        "or"
      ],
      [
        "Her",
        "r"
      ],
      [
        "p",
        "le"
      ],
      [
        "J",
        "a"
      ],
      [
        "Sie",
        "he"
      ],
      [
        "B",
        "a"
      ],
      [
        "he",
        "it"
      ],
      [
        "B",
        "eh"
      ],
      [
        "y",
        "r"
      ],
      [
        "ch",
        "er"
      ],
      [
        "es",
        "sen"
      ],
      [
        "hr",
        "t"
      ],
      [
        "p",
        "re"
      ],
      [
        "ar",
        "on"
      ],
      [
        "ge",
        "w"
      ],
      [
        "Beh",
        "old"
      ],
      [
        "Was",
        "ser"
      ],
      [
        "ant",
        "wor"
      ],
      [
        "N",
        "e"
      ],
      [
        "i",
        "den"
      ],
      [
        "is",
        "ter"
      ],
      [
        "A",
        "aron"
      ],
      [
        "p",
        "ra"
      ],
      [
        "ou",
        "ld"
      ],
      [
        "T",
        "age"
      ],
      [
        "k",
        "ein"
      ],
      [
        "re",
        "e"
      ],
      [
        "f",
        "ir"
      ],
      [
        "W",
        "hen"
      ],
      [
        "ü",
        "n"
      ],
      [
        "z",
        "ie"
      ],
      [
        "v",
        "ing"
      ],
      [
        "shou",
        "ld"
      ],
      [
        "b",
        "urn"
      ],
      [
        "des",
        "t"
      ],
      [
        "I",
        "t"
      ],
      [
        "sel",
        "ves"
      ],
      [
        "get",
        "an"
      ],
      [
        "Wor",
        "t"
      ],
      [
        "le",
        "ich"
      ],
      [
        "W",
        "h"
      ],
      [
        "w",
        "om"
      ],
      [
        "igh",
        "te"
      ],
      [
        "bro",
        "ther"
      ],
      [
        "S",
        "ünd"
      ],
      [
        "e",
        "x"
      ],
      [
        "ch",
        "ter"
      ],
      [
        "P",
        "hil"
      ],
      [
        "N",
        "amen"
      ],
      [
        "se",
        "ven"
      ],
      [
        "thr",
        "ough"
      ],
      [
        "s",
        "ou"
      ],
      [
        "l",
        "ä"
      ],
      [
        "au",
        "gh"
      ],
      [
        "it",
        "ten"
      ],
      [
        "Pries",
        "ter"
      ],
      [
        "ans",
        "wer"
      ],
      [
        "w",
        "oh"
      ],
      [
        "v",
        "iel"
      ],
      [
        "dein",
        "em"
      ],
      [
        "re",
        "de"
      ],
      [
        "be",
        "hold"
      ],
      [
        "at",
        "t"
      ],
      [
        "S",
        "am"
      ],
      [
        "augh",
        "ter"
      ],
      [
        "E",
        "l"
      ],
      [
        "ju",
        "d"
      ],
      [
        "e",
        "vil"
      ],
      [
        "st",
        "er"
      ],
      [
        "ha",
        "b"
      ],
      [
        "ne",
        "h"
      ],
      [
        "p",
        "en"
      ],
      [
        "B",
        "l"
      ],
      [
        "u",
        "re"
      ],
      [
        "hear",
        "d"
      ],
      [
        "h",
        "und"
      ],
      [
        "and",
        "ern"
      ],
      [
        "sa",
        "ith"
      ],
      [
        "wh",
        "ere"
      ],
      [
        "H",
        "a"
      ],
      [
        "z",
        "wei"
      ],
      [
        "eu",
        "re"
      ],
      [
        "under",
        "t"
      ],
      [
        "hund",
        "red"
      ],
      [
        "ighte",
        "ous"
      ],
      [
        "Israel",
        "s"
      ],
      [
        "es",
        "en"
      ],
      [
        "v",
        "ier"
      ],
      [
        "E",
        "in"
      ],
      [
        "A",
        "ll"
      ],
      [
        "g",
        "ere"
      ],
      [
        "sie",
        "he"
      ],
      [
        "g",
        "ra"
      ],
      [
        "d",
        "on"
      ],
      [
        "r",
        "ighteous"
      ],
      [
        "ä",
        "u"
      ],
      [
        "ö",
        "t"
      ],
      [
        "t",
        "ime"
      ],
      [
        "ig",
        "n"
      ],
      [
        "ag",
        "t"
      ],
      [
        "I",
        "f"
      ],
      [
        "M",
        "an"
      ],
      [
        "r",
        "ich"
      ],
      [
        "soll",
        "t"
      ],
      [
        "ha",
        "m"
      ],
      [
        "sa",
        "w"
      ],
      [
        "sa",
        "h"
      ],
      [
        "hea",
        "ven"
      ],
      [
        "in",
        "k"
      ],
      [
        "t",
        "il"
      ],
      [
        "Al",
        "so"
      ],
      [
        "tr",
        "u"
      ],
      [
        "D",
        "arum"
      ],
      [
        "kom",
        "mt"
      ],
      [
        "call",
        "ed"
      ],
      [
        "la",
        "w"
      ],
      [
        "Ab",
        "ra"
      ],
      [
        "Ägyp",
        "ten"
      ],
      [
        "y",
        "es"
      ],
      [
        "w",
        "and"
      ],
      [
        "i",
        "c"
      ],
      [
        "ha",
        "n"
      ],
      [
        "Ges",
        "ch"
      ],
      [
        "j",
        "o"
      ],
      [
        "n",
        "is"
      ],
      [
        "t",
        "urn"
      ],
      [
        "or",
        "gen"
      ],
      [
        "s",
        "es"
      ],
      [
        "He",
        "il"
      ],
      [
        "mach",
        "en"
      ],
      [
        "li",
        "ver"
      ],
      [
        "M",
        "o"
      ],
      [
        "Br",
        "ü"
      ],
      [
        "at",
        "ers"
      ],
      [
        "el",
        "t"
      ],
      [
        "se",
        "hen"
      ],
      [
        "ihr",
        "er"
      ],
      [
        "s",
        "uch"
      ],
      [
        "me",
        "d"
      ],
      [
        "ir",
        "it"
      ],
      [
        "W",
        "enn"
      ],
      [
        "I",
        "n"
      ],
      [
        "b",
        "ar"
      ],
      [
        "w",
        "ür"
      ],
      [
        "ut",
        "ter"
      ],
      [
        "B",
        "er"
      ],
      [
        "word",
        "s"
      ],
      [
        "fir",
        "st"
      ],
      [
        "un",
        "ser"
      ],
      [
        "d",
        "aughter"
      ],
      [
        "de",
        "liver"
      ],
      [
        "ge",
        "geben"
      ],
      [
        "thou",
        "sand"
      ],
      [
        "r",
        "ü"
      ],
      [
        "sie",
        "ben"
      ],
      [
        "fu",
        "l"
      ],
      [
        "ck",
        "ed"
      ],
      [
        "König",
        "s"
      ],
      [
        "ein",
        "er"
      ],
      [
        "s",
        "i"
      ],
      [
        "ha",
        "ra"
      ],
      [
        "fü",
        "n"
      ],
      [
        "L",
        "a"
      ],
      [
        "mein",
        "em"
      ],
      [
        "mein",
        "en"
      ],
      [
        "c",
        "oun"
      ],
      [
        "father",
        "s"
      ],
      [
        "d",
        "one"
      ],
      [
        "he",
        "ad"
      ],
      [
        "F",
        "ür"
      ],
      [
        "g",
        "leich"
      ],
      [
        "wer",
        "de"
      ],
      [
        "serv",
        "ant"
      ],
      [
        "woh",
        "l"
      ],
      [
        "Brü",
        "der"
      ],
      [
        "H",
        "au"
      ],
      [
        "is",
        "ch"
      ],
      [
        "d",
        "rei"
      ],
      [
        "Au",
        "gen"
      ],
      [
        "Se",
        "e"
      ],
      [
        "c",
        "le"
      ],
      [
        "fo",
        "und"
      ],
      [
        "all",
        "er"
      ],
      [
        "t",
        "at"
      ],
      [
        "f",
        "ire"
      ],
      [
        "aus",
        "end"
      ],
      [
        "We",
        "ib"
      ],
      [
        "k",
        "ann"
      ],
      [
        "fün",
        "f"
      ],
      [
        "k",
        "ind"
      ],
      [
        "pries",
        "t"
      ],
      [
        "F",
        "e"
      ],
      [
        "J",
        "os"
      ],
      [
        "u",
        "el"
      ],
      [
        "z",
        "w"
      ],
      [
        "b",
        "le"
      ],
      [
        "Kind",
        "ern"
      ],
      [
        "gi",
        "ven"
      ],
      [
        "ö",
        "l"
      ],
      [
        "ye",
        "ars"
      ],
      [
        "S",
        "he"
      ],
      [
        "an",
        "gen"
      ],
      [
        "P",
        "hara"
      ],
      [
        "u",
        "a"
      ],
      [
        "ä",
        "t"
      ],
      [
        "dein",
        "er"
      ],
      [
        "dar",
        "um"
      ],
      [
        "dies",
        "e"
      ],
      [
        "as",
        "se"
      ],
      [
        "say",
        "s"
      ],
      [
        "him",
        "self"
      ],
      [
        "it",
        "ies"
      ],
      [
        "man",
        "y"
      ],
      [
        "cht",
        "ig"
      ],
      [
        "b",
        "lo"
      ],
      [
        "eh",
        "n"
      ],
      [
        "a",
        "ce"
      ],
      [
        "re",
        "in"
      ],
      [
        "Er",
        "de"
      ],
      [
        "Le",
        "ben"
      ],
      [
        "There",
        "fore"
      ],
      [
        "ab",
        "out"
      ],
      [
        "B",
        "en"
      ],
      [
        "J",
        "ah"
      ],
      [
        "G",
        "er"
      ],
      [
        "S",
        "p"
      ],
      [
        "e",
        "yes"
      ],
      [
        "will",
        "en"
      ],
      [
        "an",
        "k"
      ],
      [
        "sou",
        "l"
      ],
      [
        "w",
        "r"
      ],
      [
        "ing",
        "s"
      ],
      [
        "and",
        "er"
      ],
      [
        "in",
        "ge"
      ],
      [
        "wo",
        "ll"
      ],
      [
        "gl",
        "or"
      ],
      [
        "G",
        "ere"
      ],
      [
        "L",
        "et"
      ],
      [
        "M",
        "än"
      ],
      [
        "st",
        "re"
      ],
      [
        "h",
        "l"
      ],
      [
        "nicht",
        "s"
      ],
      [
        "je",
        "glich"
      ],
      [
        "serv",
        "ants"
      ],
      [
        "pro",
        "phe"
      ],
      [
        "e",
        "ur"
      ],
      [
        "w",
        "ould"
      ],
      [
        "ga",
        "ve"
      ],
      [
        "g",
        "u"
      ],
      [
        "P",
        "ro"
      ],
      [
        "f",
        "l"
      ],
      [
        "Ge",
        "ist"
      ],
      [
        "ge",
        "ther"
      ],
      [
        "lie",
        "ß"
      ],
      [
        "to",
        "gether"
      ],
      [
        "ro",
        "y"
      ],
      [
        "r",
        "i"
      ],
      [
        "hal",
        "ten"
      ],
      [
        "vo",
        "ice"
      ],
      [
        "ur",
        "den"
      ],
      [
        "be",
        "g"
      ],
      [
        "he",
        "l"
      ],
      [
        "m",
        "oun"
      ],
      [
        "d",
        "s"
      ],
      [
        "He",
        "iden"
      ],
      [
        "f",
        "our"
      ],
      [
        "s",
        "ide"
      ],
      [
        "hol",
        "y"
      ],
      [
        "H",
        "ö"
      ],
      [
        "S",
        "öh"
      ],
      [
        "te",
        "ll"
      ],
      [
        "answer",
        "ed"
      ],
      [
        "b",
        "ist"
      ],
      [
        "kam",
        "en"
      ],
      [
        "sein",
        "es"
      ],
      [
        "zo",
        "gen"
      ],
      [
        "e",
        "hen"
      ],
      [
        "d",
        "i"
      ],
      [
        "th",
        "ree"
      ],
      [
        "Her",
        "z"
      ],
      [
        "l",
        "au"
      ],
      [
        "?",
        "\""
      ],
      [
        "Pro",
        "phe"
      ],
      [
        "y",
        "et"
      ],
      [
        "he",
        "d"
      ],
      [
        "Abra",
        "ham"
      ],
      [
        "p",
        "l"
      ],
      [
        "re",
        "g"
      ],
      [
        "a",
        "se"
      ],
      [
        "ges",
        "agt"
      ],
      [
        "spe",
        "ak"
      ],
      [
        "J",
        "ose"
      ],
      [
        "S",
        "on"
      ],
      [
        "ab",
        "le"
      ],
      [
        "b",
        "au"
      ],
      [
        "a",
        "i"
      ],
      [
        "f",
        "re"
      ],
      [
        "ver",
        "s"
      ],
      [
        "s",
        "il"
      ],
      [
        "wi",
        "cked"
      ],
      [
        "li",
        "fe"
      ],
      [
        "bre",
        "ad"
      ],
      [
        "gro",
        "ß"
      ],
      [
        "d",
        "well"
      ],
      [
        "w",
        "en"
      ],
      [
        "al",
        "k"
      ],
      [
        "Jose",
        "ph"
      ],
      [
        "ü",
        "ste"
      ],
      [
        "ie",
        "ld"
      ],
      [
        "den",
        "en"
      ],
      [
        "a",
        "te"
      ],
      [
        "mach",
        "te"
      ],
      [
        "e",
        "wi"
      ],
      [
        "ha",
        "bt"
      ],
      [
        "ge",
        "kommen"
      ],
      [
        "c",
        "ar"
      ],
      [
        "m",
        "ü"
      ],
      [
        "dar",
        "in"
      ],
      [
        "Be",
        "th"
      ],
      [
        "E",
        "li"
      ],
      [
        "ca",
        "pt"
      ],
      [
        "r",
        "ight"
      ],
      [
        "command",
        "ed"
      ],
      [
        "blo",
        "od"
      ],
      [
        "nah",
        "m"
      ],
      [
        "la",
        "gen"
      ],
      [
        "wer",
        "t"
      ],
      [
        "F",
        "el"
      ],
      [
        "c",
        "an"
      ],
      [
        "S",
        "al"
      ],
      [
        "th",
        "ir"
      ],
      [
        "im",
        "m"
      ],
      [
        "th",
        "ine"
      ],
      [
        "ou",
        "th"
      ],
      [
        "sp",
        "o"
      ],
      [
        "Sohn",
        "es"
      ],
      [
        "t",
        "ra"
      ],
      [
        "z",
        "ehn"
      ],
      [
        "there",
        "of"
      ],
      [
        "dest",
        "roy"
      ],
      [
        "Her",
        "zen"
      ],
      [
        "ch",
        "ar"
      ],
      [
        "Kne",
        "cht"
      ],
      [
        "ge",
        "macht"
      ],
      [
        "See",
        "le"
      ],
      [
        "J",
        "eh"
      ],
      [
        "ihre",
        "m"
      ],
      [
        "p",
        "f"
      ],
      [
        "c",
        "ities"
      ],
      [
        "hand",
        "s"
      ],
      [
        "G",
        "r"
      ],
      [
        "men",
        "ts"
      ],
      [
        "Stä",
        "d"
      ],
      [
        "hö",
        "r"
      ],
      [
        "rie",
        "d"
      ],
      [
        "h",
        "ie"
      ],
      [
        "ret",
        "urn"
      ],
      [
        "z",
        "ar"
      ],
      [
        "un",
        "til"
      ],
      [
        "an",
        "other"
      ],
      [
        "Bl",
        "ut"
      ],
      [
        "E",
        "ph"
      ],
      [
        "f",
        "am"
      ],
      [
        "m",
        "outh"
      ],
      [
        "ge",
        "ht"
      ],
      [
        "V",
        "ä"
      ],
      [
        "se",
        "id"
      ],
      [
        "Ges",
        "etz"
      ],
      [
        "zo",
        "g"
      ],
      [
        "an",
        "ger"
      ],
      [
        "ha",
        "p"
      ],
      [
        "m",
        "id"
      ],
      [
        "Hau",
        "pt"
      ],
      [
        "F",
        "euer"
      ],
      [
        "zie",
        "hen"
      ],
      [
        "fa",
        "ce"
      ],
      [
        "g",
        "ar"
      ],
      [
        "w",
        "ater"
      ],
      [
        "te",
        "m"
      ],
      [
        "antwor",
        "tete"
      ],
      [
        "e",
        "th"
      ],
      [
        "F",
        "le"
      ],
      [
        "ne",
        "t"
      ],
      [
        "hat",
        "ten"
      ],
      [
        "ck",
        "t"
      ],
      [
        "hö",
        "ren"
      ],
      [
        "Jah",
        "re"
      ],
      [
        "b",
        "rach"
      ],
      [
        "I",
        "hr"
      ],
      [
        "be",
        "en"
      ],
      [
        "ga",
        "ther"
      ],
      [
        "E",
        "n"
      ],
      [
        "s",
        "word"
      ],
      [
        "h",
        "re"
      ],
      [
        "n",
        "ations"
      ],
      [
        "c",
        "ast"
      ],
      [
        "Män",
        "ner"
      ],
      [
        "g",
        "old"
      ],
      [
        "ar",
        "k"
      ],
      [
        "ill",
        "ed"
      ],
      [
        "T",
        "his"
      ],
      [
        "neh",
        "men"
      ],
      [
        "ke",
        "ep"
      ],
      [
        "S",
        "te"
      ],
      [
        "Th",
        "us"
      ],
      [
        "lich",
        "e"
      ],
      [
        "da",
        "selbst"
      ],
      [
        "S",
        "pe"
      ],
      [
        "se",
        "a"
      ],
      [
        "re",
        "cht"
      ],
      [
        "j",
        "am"
      ],
      [
        "Ge",
        "f"
      ],
      [
        "d",
        "ien"
      ],
      [
        "f",
        "ah"
      ],
      [
        "ar",
        "m"
      ],
      [
        "wi",
        "fe"
      ],
      [
        "Ge",
        "b"
      ],
      [
        "les",
        "h"
      ],
      [
        "s",
        "sen"
      ],
      [
        "c",
        "lo"
      ],
      [
        "Hä",
        "nde"
      ],
      [
        "pra",
        "y"
      ],
      [
        "pe",
        "ace"
      ],
      [
        "r",
        "est"
      ],
      [
        "J",
        "ak"
      ],
      [
        "re",
        "ich"
      ],
      [
        "nie",
        "mand"
      ],
      [
        "ben",
        "d"
      ],
      [
        "fr",
        "u"
      ],
      [
        "pr",
        "in"
      ],
      [
        "f",
        "lesh"
      ],
      [
        "ge",
        "wor"
      ],
      [
        "an",
        "a"
      ],
      [
        "ra",
        "im"
      ],
      [
        "t",
        "ausend"
      ],
      [
        "them",
        "selves"
      ],
      [
        "sch",
        "af"
      ],
      [
        "cle",
        "an"
      ],
      [
        "ge",
        "d"
      ],
      [
        "fe",
        "ar"
      ],
      [
        "il",
        "t"
      ],
      [
        "pries",
        "ts"
      ],
      [
        "Jak",
        "ob"
      ],
      [
        "A",
        "lt"
      ],
      [
        "h",
        "igh"
      ],
      [
        "on",
        "es"
      ],
      [
        "alt",
        "ar"
      ],
      [
        "W",
        "o"
      ],
      [
        "u",
        "der"
      ],
      [
        "S",
        "ol"
      ],
      [
        "f",
        "ind"
      ],
      [
        "sa",
        "ge"
      ],
      [
        "G",
        "öt"
      ],
      [
        "we",
        "g"
      ],
      [
        "gan",
        "ze"
      ],
      [
        "t",
        "ak"
      ],
      [
        "hr",
        "te"
      ],
      [
        "l",
        "ight"
      ],
      [
        "F",
        "ü"
      ],
      [
        "J",
        "ord"
      ],
      [
        "V",
        "or"
      ],
      [
        "he",
        "i"
      ],
      [
        "glor",
        "y"
      ],
      [
        "w",
        "urden"
      ],
      [
        "hö",
        "rt"
      ],
      [
        "Mo",
        "ab"
      ],
      [
        "M",
        "a"
      ],
      [
        "b",
        "or"
      ],
      [
        "g",
        "ab"
      ],
      [
        "la",
        "y"
      ],
      [
        "t",
        "ut"
      ],
      [
        "W",
        "hat"
      ],
      [
        "am",
        "m"
      ],
      [
        "w",
        "s"
      ],
      [
        "ver",
        "k"
      ],
      [
        "Sch",
        "wert"
      ],
      [
        "l",
        "on"
      ],
      [
        "ie",
        "f"
      ],
      [
        "sol",
        "ches"
      ],
      [
        "und",
        "e"
      ],
      [
        "ll",
        "ow"
      ],
      [
        "mu",
        "lt"
      ],
      [
        "h",
        "undert"
      ],
      [
        "Gesch",
        "le"
      ],
      [
        "u",
        "de"
      ],
      [
        "c",
        "ut"
      ],
      [
        "J",
        "ün"
      ],
      [
        "dein",
        "es"
      ],
      [
        "co",
        "b"
      ],
      [
        "Br",
        "uder"
      ],
      [
        "W",
        "ho"
      ],
      [
        "de",
        "ath"
      ],
      [
        "ye",
        "ar"
      ],
      [
        "b",
        "lei"
      ],
      [
        "wir",
        "st"
      ],
      [
        "did",
        "n"
      ],
      [
        "Ja",
        "cob"
      ],
      [
        "N",
        "a"
      ],
      [
        "h",
        "ow"
      ],
      [
        "sel",
        "ben"
      ],
      [
        "vo",
        "ll"
      ],
      [
        "c",
        "l"
      ],
      [
        "f",
        "lo"
      ],
      [
        "ä",
        "m"
      ],
      [
        "W",
        "ein"
      ],
      [
        "z",
        "eu"
      ],
      [
        "im",
        "me"
      ],
      [
        "you",
        "n"
      ],
      [
        "H",
        "üt"
      ],
      [
        "fa",
        "ith"
      ],
      [
        "Me",
        "er"
      ],
      [
        "c",
        "ke"
      ],
      [
        "en",
        "em"
      ],
      [
        "is",
        "en"
      ],
      [
        "bring",
        "en"
      ],
      [
        "ste",
        "hen"
      ],
      [
        "d",
        "re"
      ],
      [
        "it",
        "ter"
      ],
      [
        "ver",
        "y"
      ],
      [
        "Söh",
        "ne"
      ],
      [
        "mid",
        "st"
      ],
      [
        "l",
        "der"
      ],
      [
        "B",
        "o"
      ],
      [
        "t",
        "est"
      ],
      [
        "T",
        "r"
      ],
      [
        "Eph",
        "raim"
      ],
      [
        "re",
        "ce"
      ],
      [
        "M",
        "orgen"
      ],
      [
        "de",
        "ad"
      ],
      [
        "St",
        "imme"
      ],
      [
        "dr",
        "ink"
      ],
      [
        "wom",
        "an"
      ],
      [
        "Prophe",
        "ten"
      ],
      [
        "T",
        "or"
      ],
      [
        "Ben",
        "jam"
      ],
      [
        "with",
        "out"
      ],
      [
        "f",
        "ield"
      ],
      [
        "par",
        "t"
      ],
      [
        "ar",
        "t"
      ],
      [
        "lo",
        "ve"
      ],
      [
        "D",
        "ies"
      ],
      [
        "ing",
        "en"
      ],
      [
        "ct",
        "ion"
      ],
      [
        "burn",
        "t"
      ],
      [
        "p",
        "ur"
      ],
      [
        "Kne",
        "chte"
      ],
      [
        "rede",
        "te"
      ],
      [
        "le",
        "in"
      ],
      [
        "to",
        "ward"
      ],
      [
        "le",
        "ft"
      ],
      [
        "We",
        "i"
      ],
      [
        "s",
        "k"
      ],
      [
        "fu",
        "ll"
      ],
      [
        "le",
        "a"
      ],
      [
        "mein",
        "er"
      ],
      [
        "is",
        "ed"
      ],
      [
        "w",
        "alk"
      ],
      [
        "G",
        "o"
      ],
      [
        "as",
        "k"
      ],
      [
        "moun",
        "tain"
      ],
      [
        "am",
        "p"
      ],
      [
        "T",
        "e"
      ],
      [
        "hab",
        "it"
      ],
      [
        "hap",
        "pen"
      ],
      [
        "T",
        "hou"
      ],
      [
        "W",
        "üste"
      ],
      [
        "sa",
        "mt"
      ],
      [
        "in",
        "n"
      ],
      [
        "c",
        "re"
      ],
      [
        "g",
        "od"
      ],
      [
        "ging",
        "en"
      ],
      [
        "m",
        "ine"
      ],
      [
        "con",
        "c"
      ],
      [
        "sa",
        "me"
      ],
      [
        "p",
        "os"
      ],
      [
        "bo",
        "th"
      ],
      [
        "co",
        "ver"
      ],
      [
        "L",
        "eu"
      ],
      [
        "M",
        "utter"
      ],
      [
        "re",
        "ad"
      ],
      [
        "li",
        "ve"
      ],
      [
        "und",
        "en"
      ],
      [
        "I",
        "sa"
      ],
      [
        "f",
        "ive"
      ],
      [
        "f",
        "allen"
      ],
      [
        "ü",
        "ck"
      ],
      [
        "wer",
        "det"
      ],
      [
        "b",
        "s"
      ],
      [
        "ra",
        "m"
      ],
      [
        "might",
        "y"
      ],
      [
        "re",
        "ign"
      ],
      [
        "wo",
        "llen"
      ],
      [
        "mu",
        "ß"
      ],
      [
        "me",
        "m"
      ],
      [
        "D",
        "an"
      ],
      [
        "her",
        "it"
      ],
      [
        "sh",
        "ip"
      ],
      [
        "Für",
        "sten"
      ],
      [
        "sp",
        "irit"
      ],
      [
        "f",
        "ra"
      ],
      [
        "g",
        "ten"
      ],
      [
        "er",
        "sch"
      ],
      [
        "ich",
        "en"
      ],
      [
        "gere",
        "det"
      ],
      [
        "he",
        "t"
      ],
      [
        "dis",
        "c"
      ],
      [
        "M",
        "y"
      ],
      [
        "be",
        "lie"
      ],
      [
        "ag",
        "er"
      ],
      [
        "n",
        "ight"
      ],
      [
        "el",
        "n"
      ],
      [
        "J",
        "on"
      ],
      [
        "m",
        "other"
      ],
      [
        "s",
        "ight"
      ],
      [
        "gewor",
        "den"
      ],
      [
        "W",
        "elt"
      ],
      [
        "Benjam",
        "in"
      ],
      [
        "o",
        "ch"
      ],
      [
        "righteous",
        "ness"
      ],
      [
        ".",
        "'"
      ],
      [
        "w",
        "ise"
      ],
      [
        "Jord",
        "an"
      ],
      [
        "Ge",
        "me"
      ],
      [
        "an",
        "ge"
      ],
      [
        "king",
        "s"
      ],
      [
        "S",
        "il"
      ],
      [
        "W",
        "ie"
      ],
      [
        "a",
        "gen"
      ],
      [
        "all",
        "em"
      ],
      [
        "chtig",
        "keit"
      ],
      [
        "P",
        "aul"
      ],
      [
        "at",
        "en"
      ],
      [
        "king",
        "dom"
      ],
      [
        "ath",
        "an"
      ],
      [
        "p",
        "or"
      ],
      [
        "sa",
        "cr"
      ],
      [
        "zw",
        "an"
      ],
      [
        "sacr",
        "if"
      ],
      [
        "tak",
        "en"
      ],
      [
        "W",
        "ir"
      ],
      [
        "t",
        "went"
      ],
      [
        "bo",
        "ten"
      ],
      [
        "sto",
        "od"
      ],
      [
        "youn",
        "g"
      ],
      [
        "ar",
        "y"
      ],
      [
        "w",
        "all"
      ],
      [
        "H",
        "is"
      ],
      [
        "ll",
        "e"
      ],
      [
        "um",
        "ber"
      ],
      [
        "mein",
        "es"
      ],
      [
        "i",
        "z"
      ],
      [
        "se",
        "ch"
      ],
      [
        "ib",
        "t"
      ],
      [
        "zwan",
        "zig"
      ],
      [
        "j",
        "em"
      ],
      [
        "is",
        "hed"
      ],
      [
        "R",
        "u"
      ],
      [
        "u",
        "st"
      ],
      [
        "ab",
        "y"
      ],
      [
        "dies",
        "er"
      ],
      [
        "sil",
        "ver"
      ],
      [
        "fam",
        "il"
      ],
      [
        "in",
        "i"
      ],
      [
        "and",
        "ere"
      ],
      [
        "jud",
        "g"
      ],
      [
        "Z",
        "ion"
      ],
      [
        "P",
        "e"
      ],
      [
        "en",
        "ter"
      ],
      [
        "un",
        "gen"
      ],
      [
        "ow",
        "er"
      ],
      [
        "oh",
        "ne"
      ],
      [
        "o",
        "be"
      ],
      [
        "Br",
        "and"
      ],
      [
        "gan",
        "z"
      ],
      [
        "B",
        "und"
      ],
      [
        "so",
        "me"
      ],
      [
        "An",
        "ges"
      ],
      [
        "mon",
        "th"
      ],
      [
        "ana",
        "an"
      ],
      [
        "J",
        "ere"
      ],
      [
        "k",
        "enn"
      ],
      [
        "s",
        "at"
      ],
      [
        "ein",
        "es"
      ],
      [
        "ut",
        "es"
      ],
      [
        "lie",
        "b"
      ],
      [
        "Er",
        "den"
      ],
      [
        "jem",
        "and"
      ],
      [
        "s",
        "an"
      ],
      [
        "te",
        "il"
      ],
      [
        "at",
        "s"
      ],
      [
        "Z",
        "orn"
      ],
      [
        "ge",
        "hor"
      ],
      [
        "Hüt",
        "te"
      ],
      [
        "ini",
        "qu"
      ],
      [
        "s",
        "it"
      ],
      [
        "te",
        "ten"
      ],
      [
        "st",
        "ru"
      ],
      [
        "gro",
        "ße"
      ],
      [
        "F",
        "a"
      ],
      [
        "gew",
        "esen"
      ],
      [
        "ab",
        "b"
      ],
      [
        "de",
        "d"
      ],
      [
        "ge",
        "le"
      ],
      [
        "Wor",
        "te"
      ],
      [
        "Fle",
        "isch"
      ],
      [
        "aby",
        "lon"
      ],
      [
        "ren",
        "g"
      ],
      [
        "O",
        "rt"
      ],
      [
        "k",
        "eine"
      ],
      [
        "in",
        "herit"
      ],
      [
        "hin",
        "ein"
      ],
      [
        "co",
        "ven"
      ],
      [
        "As",
        "s"
      ],
      [
        "ü",
        "br"
      ],
      [
        "se",
        "hr"
      ],
      [
        "re",
        "den"
      ],
      [
        "ver",
        "b"
      ],
      [
        "op",
        "f"
      ],
      [
        "eur",
        "en"
      ],
      [
        "r",
        "ow"
      ],
      [
        "he",
        "im"
      ],
      [
        "si",
        "x"
      ],
      [
        "at",
        "ter"
      ],
      [
        "ho",
        "st"
      ],
      [
        "st",
        "ar"
      ],
      [
        "B",
        "abylon"
      ],
      [
        "wi",
        "lder"
      ],
      [
        "om",
        "on"
      ],
      [
        "n",
        "umber"
      ],
      [
        "s",
        "c"
      ],
      [
        "k",
        "ön"
      ],
      [
        "u",
        "l"
      ],
      [
        "rie",
        "ben"
      ],
      [
        "Br",
        "ot"
      ],
      [
        "Sol",
        "omon"
      ],
      [
        "v",
        "ie"
      ],
      [
        "if",
        "t"
      ],
      [
        "les",
        "sed"
      ],
      [
        "Gere",
        "chtigkeit"
      ],
      [
        "f",
        "all"
      ],
      [
        "om",
        "men"
      ],
      [
        "la",
        "id"
      ],
      [
        "En",
        "gel"
      ],
      [
        "i",
        "ck"
      ],
      [
        "da",
        "zu"
      ],
      [
        "wilder",
        "ness"
      ],
      [
        "dies",
        "en"
      ],
      [
        "fah",
        "ren"
      ],
      [
        "coven",
        "ant"
      ],
      [
        "b",
        "ur"
      ],
      [
        "m",
        "uch"
      ],
      [
        "b",
        "orn"
      ],
      [
        "in",
        "es"
      ],
      [
        "He",
        "er"
      ],
      [
        "r",
        "es"
      ],
      [
        "ll",
        "t"
      ],
      [
        "an",
        "gel"
      ],
      [
        "!",
        "\""
      ],
      [
        "sch",
        "lu"
      ],
      [
        "a",
        "y"
      ],
      [
        "öl",
        "k"
      ],
      [
        "Städ",
        "te"
      ],
      [
        "r",
        "y"
      ],
      [
        "s",
        "le"
      ],
      [
        "ä",
        "r"
      ],
      [
        "op",
        "en"
      ],
      [
        "S",
        "yr"
      ],
      [
        "ne",
        "w"
      ],
      [
        "on",
        "s"
      ],
      [
        "if",
        "ied"
      ],
      [
        "be",
        "ar"
      ],
      [
        "da",
        "von"
      ],
      [
        "hin",
        "auf"
      ],
      [
        "twent",
        "y"
      ],
      [
        "Jere",
        "m"
      ],
      [
        "V",
        "ölk"
      ],
      [
        "m",
        "ö"
      ],
      [
        "of",
        "fen"
      ],
      [
        "Sal",
        "om"
      ],
      [
        "ba",
        "oth"
      ],
      [
        "etz",
        "t"
      ],
      [
        "Phil",
        "ist"
      ],
      [
        "c",
        "y"
      ],
      [
        "st",
        "reng"
      ],
      [
        "W",
        "ahr"
      ],
      [
        "l",
        "ord"
      ],
      [
        "be",
        "d"
      ],
      [
        "lo",
        "ok"
      ],
      [
        "Sch",
        "a"
      ],
      [
        "set",
        "z"
      ],
      [
        "blei",
        "ben"
      ],
      [
        "Geme",
        "inde"
      ],
      [
        "to",
        "ld"
      ],
      [
        "sp",
        "ake"
      ],
      [
        "V",
        "aters"
      ],
      [
        "u",
        "ld"
      ],
      [
        "or",
        "en"
      ],
      [
        "ein",
        "ander"
      ],
      [
        "way",
        "s"
      ],
      [
        "Anges",
        "icht"
      ],
      [
        "wel",
        "che"
      ],
      [
        "G",
        "na"
      ],
      [
        "spo",
        "ke"
      ],
      [
        "Alt",
        "ar"
      ],
      [
        "f",
        "iel"
      ],
      [
        "ile",
        "ad"
      ],
      [
        "T",
        "ö"
      ],
      [
        "c",
        "er"
      ],
      [
        "g",
        "nis"
      ],
      [
        "wohn",
        "en"
      ],
      [
        "Ba",
        "bel"
      ],
      [
        "H",
        "ol"
      ],
      [
        "wi",
        "nd"
      ],
      [
        "D",
        "on"
      ],
      [
        "G",
        "el"
      ],
      [
        "ern",
        "ing"
      ],
      [
        "To",
        "chter"
      ],
      [
        "es",
        "e"
      ],
      [
        "Jo",
        "ab"
      ],
      [
        "auf",
        "en"
      ],
      [
        "str",
        "ong"
      ],
      [
        "mult",
        "it"
      ],
      [
        "l",
        "ö"
      ],
      [
        "soll",
        "te"
      ],
      [
        "Ze",
        "baoth"
      ],
      [
        "att",
        "le"
      ],
      [
        "Z",
        "u"
      ],
      [
        "n",
        "one"
      ],
      [
        "w",
        "aters"
      ],
      [
        "sp",
        "ok"
      ],
      [
        "F",
        "rie"
      ],
      [
        "m",
        "ä"
      ],
      [
        "el",
        "s"
      ],
      [
        "lei",
        "der"
      ],
      [
        "disc",
        "ip"
      ],
      [
        "J",
        "ahr"
      ],
      [
        "der",
        "s"
      ],
      [
        "ba",
        "ck"
      ],
      [
        "turn",
        "ed"
      ],
      [
        "spok",
        "en"
      ],
      [
        "N",
        "ach"
      ],
      [
        "l",
        "ong"
      ],
      [
        "th",
        "ren"
      ],
      [
        "gesch",
        "rieben"
      ],
      [
        "lan",
        "ge"
      ],
      [
        "gl",
        "au"
      ],
      [
        "m",
        "al"
      ],
      [
        "we",
        "il"
      ],
      [
        "gan",
        "zen"
      ],
      [
        "Sam",
        "uel"
      ],
      [
        "Z",
        "eu"
      ],
      [
        "es",
        "ten"
      ],
      [
        "ne",
        "ar"
      ],
      [
        "who",
        "se"
      ],
      [
        "h",
        "ä"
      ],
      [
        "ch",
        "ief"
      ],
      [
        "Brand",
        "opfer"
      ],
      [
        "H",
        "am"
      ],
      [
        "We",
        "g"
      ],
      [
        "ster",
        "ben"
      ],
      [
        "g",
        "ol"
      ],
      [
        "be",
        "ing"
      ],
      [
        "Fa",
        "ther"
      ],
      [
        "in",
        "habit"
      ],
      [
        "bre",
        "thren"
      ],
      [
        "Phara",
        "oh"
      ],
      [
        "wor",
        "ld"
      ],
      [
        "A",
        "h"
      ],
      [
        "do",
        "es"
      ],
      [
        "ga",
        "te"
      ],
      [
        "G",
        "ilead"
      ],
      [
        "deliver",
        "ed"
      ],
      [
        "im",
        "on"
      ],
      [
        "ab",
        "o"
      ],
      [
        "wr",
        "itten"
      ],
      [
        "san",
        "ct"
      ],
      [
        "b",
        "al"
      ],
      [
        "i",
        "ved"
      ],
      [
        "ser",
        "ve"
      ],
      [
        "rie",
        "f"
      ],
      [
        "offering",
        "s"
      ],
      [
        "sand",
        "te"
      ],
      [
        "jeglich",
        "er"
      ],
      [
        "se",
        "en"
      ],
      [
        "man",
        "n"
      ],
      [
        "in",
        "ted"
      ],
      [
        "da",
        "hin"
      ],
      [
        "David",
        "s"
      ],
      [
        "wei",
        "ß"
      ],
      [
        "b",
        "ow"
      ],
      [
        "G",
        "lau"
      ],
      [
        "la",
        "ß"
      ],
      [
        "ewi",
        "glich"
      ],
      [
        "se",
        "ed"
      ],
      [
        "ste",
        "ht"
      ],
      [
        "ar",
        "ia"
      ],
      [
        "ge",
        "he"
      ],
      [
        "ge",
        "boten"
      ],
      [
        "Wei",
        "ber"
      ],
      [
        "L",
        "ie"
      ],
      [
        "au",
        "m"
      ],
      [
        "ver",
        "sch"
      ],
      [
        "conc",
        "erning"
      ],
      [
        "ie",
        "h"
      ],
      [
        "A",
        "ch"
      ],
      [
        "in",
        "ed"
      ],
      [
        "Ju",
        "den"
      ],
      [
        "dies",
        "em"
      ],
      [
        "ion",
        "s"
      ],
      [
        "b",
        "od"
      ],
      [
        "u",
        "en"
      ],
      [
        "ch",
        "ed"
      ],
      [
        "Gott",
        "lo"
      ],
      [
        "brother",
        "s"
      ],
      [
        "Vä",
        "ter"
      ],
      [
        "l",
        "ess"
      ],
      [
        "under",
        "stand"
      ],
      [
        "pos",
        "s"
      ],
      [
        "do",
        "or"
      ],
      [
        "i",
        "ous"
      ],
      [
        "her",
        "aus"
      ],
      [
        "dar",
        "auf"
      ],
      [
        "Lev",
        "ites"
      ],
      [
        "c",
        "ub"
      ],
      [
        "mem",
        "ber"
      ],
      [
        "st",
        "ill"
      ],
      [
        "ges",
        "ehen"
      ],
      [
        "fü",
        "hrt"
      ],
      [
        "prin",
        "ces"
      ],
      [
        "Man",
        "asse"
      ],
      [
        "Sünd",
        "e"
      ],
      [
        "iniqu",
        "ity"
      ],
      [
        "an",
        "g"
      ],
      [
        "O",
        "ber"
      ],
      [
        "hie",
        "ß"
      ],
      [
        "f",
        "ol"
      ],
      [
        "co",
        "nd"
      ],
      [
        "w",
        "ine"
      ],
      [
        "ra",
        "th"
      ],
      [
        "fe",
        "et"
      ],
      [
        "Kön",
        "ige"
      ],
      [
        "Lev",
        "iten"
      ],
      [
        "Wh",
        "ere"
      ],
      [
        "gather",
        "ed"
      ],
      [
        "g",
        "ht"
      ],
      [
        "p",
        "ower"
      ],
      [
        "k",
        "n"
      ],
      [
        "v",
        "is"
      ],
      [
        "We",
        "is"
      ],
      [
        "bes",
        "ch"
      ],
      [
        "hör",
        "te"
      ],
      [
        "p",
        "as"
      ],
      [
        "K",
        "leider"
      ],
      [
        "ou",
        "d"
      ],
      [
        "M",
        "on"
      ],
      [
        "e",
        "it"
      ],
      [
        "heil",
        "ig"
      ],
      [
        "Ber",
        "ge"
      ],
      [
        "i",
        "ans"
      ],
      [
        "G",
        "old"
      ],
      [
        "p",
        "s"
      ],
      [
        "fru",
        "it"
      ],
      [
        "f",
        "if"
      ],
      [
        "and",
        "t"
      ],
      [
        "hin",
        "aus"
      ],
      [
        "ju",
        "st"
      ],
      [
        "cer",
        "tain"
      ],
      [
        "h",
        "ua"
      ],
      [
        "m",
        "b"
      ],
      [
        "We",
        "ge"
      ],
      [
        "Leu",
        "te"
      ],
      [
        "Philist",
        "ines"
      ],
      [
        "work",
        "s"
      ],
      [
        "enem",
        "ies"
      ],
      [
        "Ass",
        "yr"
      ],
      [
        "Gna",
        "de"
      ],
      [
        "l",
        "er"
      ],
      [
        "ar",
        "d"
      ],
      [
        "see",
        "k"
      ],
      [
        "happen",
        "ed"
      ],
      [
        "b",
        "and"
      ],
      [
        "t",
        "ö"
      ],
      [
        "c",
        "ong"
      ],
      [
        "daughter",
        "s"
      ],
      [
        "cong",
        "reg"
      ],
      [
        "re",
        "jo"
      ],
      [
        "Th",
        "ese"
      ],
      [
        "ac",
        "le"
      ],
      [
        "Je",
        "ws"
      ],
      [
        "Jeh",
        "o"
      ],
      [
        "O",
        "r"
      ],
      [
        "em",
        "p"
      ],
      [
        "prophe",
        "t"
      ],
      [
        "l",
        "am"
      ],
      [
        "c",
        "ur"
      ],
      [
        "fo",
        "llow"
      ],
      [
        "congreg",
        "ation"
      ],
      [
        "as",
        "h"
      ],
      [
        "fe",
        "ll"
      ],
      [
        "Am",
        "mon"
      ],
      [
        "c",
        "amp"
      ],
      [
        "all",
        "ein"
      ],
      [
        "D",
        "ien"
      ],
      [
        "E",
        "dom"
      ],
      [
        "th",
        "us"
      ],
      [
        "un",
        "rein"
      ],
      [
        "im",
        "mer"
      ],
      [
        "if",
        "y"
      ],
      [
        "pr",
        "es"
      ],
      [
        "in",
        "ken"
      ],
      [
        "Phil",
        "ister"
      ],
      [
        "discip",
        "les"
      ],
      [
        "h",
        "ier"
      ],
      [
        "ä",
        "nd"
      ],
      [
        "tr",
        "ibe"
      ],
      [
        "Sp",
        "irit"
      ],
      [
        "multit",
        "ude"
      ],
      [
        "N",
        "acht"
      ],
      [
        "Salom",
        "o"
      ],
      [
        "f",
        "illed"
      ],
      [
        "af",
        "f"
      ],
      [
        "z",
        "t"
      ],
      [
        "ach",
        "e"
      ],
      [
        "sch",
        "en"
      ],
      [
        "gan",
        "gen"
      ],
      [
        "coun",
        "tr"
      ],
      [
        "w",
        "he"
      ],
      [
        "aber",
        "n"
      ],
      [
        "ä",
        "d"
      ],
      [
        "wür",
        "de"
      ],
      [
        "E",
        "nde"
      ],
      [
        "au",
        "t"
      ],
      [
        "ck",
        "s"
      ],
      [
        "who",
        "le"
      ],
      [
        "A",
        "sa"
      ],
      [
        "M",
        "ein"
      ],
      [
        "poss",
        "ess"
      ],
      [
        "i",
        "an"
      ],
      [
        "Ge",
        "w"
      ],
      [
        "ib",
        "es"
      ],
      [
        "itt",
        "le"
      ],
      [
        "ex",
        "ce"
      ],
      [
        "H",
        "o"
      ],
      [
        "b",
        "ö"
      ],
      [
        "no",
        "thing"
      ],
      [
        "S",
        "el"
      ],
      [
        "Jes",
        "u"
      ],
      [
        "W",
        "arum"
      ],
      [
        "t",
        "abern"
      ],
      [
        "er",
        "t"
      ],
      [
        "sa",
        "gte"
      ],
      [
        "lich",
        "en"
      ],
      [
        "gro",
        "ßen"
      ],
      [
        "su",
        "re"
      ],
      [
        "sam",
        "mel"
      ],
      [
        "vie",
        "le"
      ],
      [
        "H",
        "ow"
      ],
      [
        "Wh",
        "y"
      ],
      [
        "prophe",
        "ts"
      ],
      [
        "god",
        "s"
      ],
      [
        "Ba",
        "al"
      ],
      [
        "inherit",
        "ance"
      ],
      [
        "M",
        "acht"
      ],
      [
        "and",
        "en"
      ],
      [
        "st",
        "ra"
      ],
      [
        "d",
        "ann"
      ],
      [
        "wis",
        "sen"
      ],
      [
        "we",
        "en"
      ],
      [
        "judg",
        "ment"
      ],
      [
        "z",
        "we"
      ],
      [
        "gen",
        "er"
      ],
      [
        "Ar",
        "m"
      ],
      [
        "Sil",
        "ber"
      ],
      [
        "p",
        "fer"
      ],
      [
        "w",
        "ahr"
      ],
      [
        "Ö",
        "l"
      ],
      [
        "ch",
        "o"
      ],
      [
        "heil",
        "igen"
      ],
      [
        "M",
        "is"
      ],
      [
        "k",
        "iah"
      ],
      [
        "bet",
        "ween"
      ],
      [
        "woll",
        "te"
      ],
      [
        "F",
        "r"
      ],
      [
        "l",
        "ittle"
      ],
      [
        "en",
        "se"
      ],
      [
        "ag",
        "es"
      ],
      [
        "N",
        "o"
      ],
      [
        "ma",
        "le"
      ],
      [
        "Tag",
        "es"
      ],
      [
        "capt",
        "ain"
      ],
      [
        "ges",
        "t"
      ],
      [
        "orn",
        "ing"
      ],
      [
        "K",
        "r"
      ],
      [
        "V",
        "ieh"
      ],
      [
        "m",
        "ar"
      ],
      [
        "be",
        "came"
      ],
      [
        "T",
        "ür"
      ],
      [
        "ge",
        "hört"
      ],
      [
        "M",
        "und"
      ],
      [
        "mü",
        "ssen"
      ],
      [
        "I",
        "st"
      ],
      [
        "m",
        "orning"
      ],
      [
        "ra",
        "id"
      ],
      [
        "h",
        "on"
      ],
      [
        "is",
        "ten"
      ],
      [
        "sen",
        "d"
      ],
      [
        "ges",
        "andt"
      ],
      [
        "geb",
        "oren"
      ],
      [
        "wä",
        "re"
      ],
      [
        "G",
        "a"
      ],
      [
        "ch",
        "em"
      ],
      [
        "er",
        "ret"
      ],
      [
        "et",
        "liche"
      ],
      [
        "hr",
        "ten"
      ],
      [
        "König",
        "reich"
      ],
      [
        "Herr",
        "n"
      ],
      [
        "f",
        "al"
      ],
      [
        "B",
        "ö"
      ],
      [
        "T",
        "emp"
      ],
      [
        "tru",
        "th"
      ],
      [
        "tabern",
        "acle"
      ],
      [
        "le",
        "ch"
      ],
      [
        "n",
        "ur"
      ],
      [
        "h",
        "ere"
      ],
      [
        "W",
        "ill"
      ],
      [
        "ind",
        "en"
      ],
      [
        "at",
        "es"
      ],
      [
        "af",
        "raid"
      ],
      [
        "Jon",
        "athan"
      ],
      [
        "B",
        "ar"
      ],
      [
        "S",
        "a"
      ],
      [
        "zeu",
        "gte"
      ],
      [
        "kn",
        "own"
      ],
      [
        "S",
        "abb"
      ],
      [
        "f",
        "ä"
      ],
      [
        "n",
        "ed"
      ],
      [
        "w",
        "rath"
      ],
      [
        "wel",
        "cher"
      ],
      [
        "Sam",
        "aria"
      ],
      [
        "G",
        "re"
      ],
      [
        "St",
        "amm"
      ],
      [
        "wis",
        "dom"
      ],
      [
        "on",
        "ly"
      ],
      [
        "Jos",
        "hua"
      ],
      [
        "E",
        "llen"
      ],
      [
        "Sch",
        "w"
      ],
      [
        "streng",
        "th"
      ],
      [
        "t",
        "in"
      ],
      [
        "ah",
        "l"
      ],
      [
        "ä",
        "h"
      ],
      [
        "sch",
        "w"
      ],
      [
        "wis",
        "chen"
      ],
      [
        "P",
        "har"
      ],
      [
        "pla",
        "ces"
      ],
      [
        "lan",
        "g"
      ],
      [
        "jo",
        "y"
      ],
      [
        "h",
        "ü"
      ],
      [
        "er",
        "wä"
      ],
      [
        "st",
        "one"
      ],
      [
        "sa",
        "gt"
      ],
      [
        "gen",
        "ommen"
      ],
      [
        "lich",
        "keit"
      ],
      [
        "T",
        "hat"
      ],
      [
        "ap",
        "po"
      ],
      [
        "j",
        "as"
      ],
      [
        "led",
        "ge"
      ],
      [
        "O",
        "f"
      ],
      [
        "t",
        "ue"
      ],
      [
        "Glau",
        "ben"
      ],
      [
        "cub",
        "its"
      ],
      [
        "f",
        "ar"
      ],
      [
        "k",
        "s"
      ],
      [
        "u",
        "hl"
      ],
      [
        "her",
        "r"
      ],
      [
        "lie",
        "ben"
      ],
      [
        "die",
        "d"
      ],
      [
        "Ab",
        "sal"
      ],
      [
        "bod",
        "y"
      ],
      [
        "Absal",
        "om"
      ],
      [
        "f",
        "le"
      ],
      [
        "z",
        "wischen"
      ],
      [
        "fü",
        "hren"
      ],
      [
        "ter",
        "s"
      ],
      [
        "es",
        "h"
      ],
      [
        "st",
        "ern"
      ],
      [
        "zu",
        "sam"
      ],
      [
        "m",
        "in"
      ],
      [
        "re",
        "ma"
      ],
      [
        "sa",
        "ke"
      ],
      [
        "c",
        "our"
      ],
      [
        "g",
        "one"
      ],
      [
        "ar",
        "ren"
      ],
      [
        "Re",
        "ich"
      ],
      [
        "me",
        "t"
      ],
      [
        "your",
        "selves"
      ],
      [
        "mer",
        "cy"
      ],
      [
        "A",
        "bend"
      ],
      [
        "D",
        "ar"
      ],
      [
        "Sünd",
        "en"
      ],
      [
        "aller",
        "lei"
      ],
      [
        "Jün",
        "ger"
      ],
      [
        "zusam",
        "men"
      ],
      [
        "l",
        "est"
      ],
      [
        "k",
        "ill"
      ],
      [
        "v",
        "i"
      ],
      [
        "ver",
        "der"
      ],
      [
        "gen",
        "d"
      ],
      [
        "wel",
        "chen"
      ],
      [
        "nie",
        "der"
      ],
      [
        "Fe",
        "inde"
      ],
      [
        "verk",
        "ünd"
      ],
      [
        "Tö",
        "chter"
      ],
      [
        "bu",
        "ild"
      ],
      [
        "i",
        "as"
      ],
      [
        "t",
        "wel"
      ],
      [
        "u",
        "ß"
      ],
      [
        "be",
        "come"
      ],
      [
        "one",
        "y"
      ],
      [
        "dar",
        "nach"
      ],
      [
        "H",
        "ar"
      ],
      [
        "st",
        "at"
      ],
      [
        "k",
        "t"
      ],
      [
        "o",
        "il"
      ],
      [
        "in",
        "t"
      ],
      [
        "re",
        "it"
      ],
      [
        "pas",
        "sed"
      ],
      [
        "ot",
        "s"
      ],
      [
        "gro",
        "und"
      ],
      [
        "ha",
        "ving"
      ],
      [
        "v",
        "ine"
      ],
      [
        "ß",
        "er"
      ],
      [
        "ur",
        "es"
      ],
      [
        "fore",
        "ver"
      ],
      [
        "she",
        "ep"
      ],
      [
        "N",
        "un"
      ],
      [
        "so",
        "ever"
      ],
      [
        "bal",
        "d"
      ],
      [
        "ß",
        "ig"
      ],
      [
        "lo",
        "ved"
      ],
      [
        "dar",
        "k"
      ],
      [
        "spr",
        "ich"
      ],
      [
        "f",
        "lie"
      ],
      [
        "for",
        "t"
      ],
      [
        "Christ",
        "us"
      ],
      [
        "sacrif",
        "ice"
      ],
      [
        "t",
        "im"
      ],
      [
        "be",
        "it"
      ],
      [
        "cr",
        "y"
      ],
      [
        "schlu",
        "g"
      ],
      [
        "abo",
        "ve"
      ],
      [
        "n",
        "te"
      ],
      [
        "ro",
        "und"
      ],
      [
        "bu",
        "ilt"
      ],
      [
        "g",
        "ern"
      ],
      [
        "Re",
        "cht"
      ],
      [
        "Fre",
        "m"
      ],
      [
        "Ägypten",
        "land"
      ],
      [
        "Gottlo",
        "sen"
      ],
      [
        "sure",
        "ly"
      ],
      [
        "hal",
        "f"
      ],
      [
        "f",
        "el"
      ],
      [
        "gesch",
        "ehen"
      ],
      [
        "tem",
        "ple"
      ],
      [
        "un",
        "clean"
      ],
      [
        "wh",
        "ile"
      ],
      [
        "ck",
        "er"
      ],
      [
        "inhabit",
        "ants"
      ],
      [
        "s",
        "ing"
      ],
      [
        "rach",
        "t"
      ],
      [
        "if",
        "ts"
      ],
      [
        "he",
        "ute"
      ],
      [
        "we",
        "is"
      ],
      [
        "Be",
        "cause"
      ],
      [
        "tre",
        "e"
      ],
      [
        "W",
        "ohn"
      ],
      [
        "c",
        "ed"
      ],
      [
        "j",
        "ah"
      ],
      [
        "Phara",
        "o"
      ],
      [
        "p",
        "hat"
      ],
      [
        "te",
        "ach"
      ],
      [
        "ü",
        "h"
      ],
      [
        "gesch",
        "ah"
      ],
      [
        "Mis",
        "set"
      ],
      [
        "k",
        "ia"
      ],
      [
        "ge",
        "führt"
      ],
      [
        "she",
        "w"
      ],
      [
        "übr",
        "ig"
      ],
      [
        "opf",
        "ern"
      ],
      [
        "ar",
        "o"
      ],
      [
        "L",
        "ö"
      ],
      [
        "Ä",
        "lt"
      ],
      [
        "sa",
        "ve"
      ],
      [
        "K",
        "a"
      ],
      [
        "l",
        "ag"
      ],
      [
        "r",
        "us"
      ],
      [
        "de",
        "v"
      ],
      [
        "ra",
        "ft"
      ],
      [
        "Jo",
        "han"
      ],
      [
        "La",
        "de"
      ],
      [
        "Jos",
        "ua"
      ],
      [
        "schaf",
        "t"
      ],
      [
        "Weis",
        "heit"
      ],
      [
        "Y",
        "e"
      ],
      [
        "po",
        "or"
      ],
      [
        "aro",
        "und"
      ],
      [
        "A",
        "us"
      ],
      [
        "M",
        "au"
      ],
      [
        "W",
        "agen"
      ],
      [
        "bl",
        "ess"
      ],
      [
        "Herr",
        "lichkeit"
      ],
      [
        "lä",
        "ßt"
      ],
      [
        "clo",
        "the"
      ],
      [
        "countr",
        "y"
      ],
      [
        "G",
        "ad"
      ],
      [
        "e",
        "ast"
      ],
      [
        "p",
        "red"
      ],
      [
        "des",
        "ol"
      ],
      [
        "tr",
        "ou"
      ],
      [
        "ap",
        "pe"
      ],
      [
        "h",
        "ät"
      ],
      [
        "da",
        "mit"
      ],
      [
        "li",
        "ved"
      ],
      [
        "fo",
        "ol"
      ],
      [
        "stand",
        "en"
      ],
      [
        "Völk",
        "er"
      ],
      [
        "Temp",
        "el"
      ],
      [
        "ha",
        "te"
      ],
      [
        "bo",
        "ok"
      ],
      [
        "G",
        "ed"
      ],
      [
        "L",
        "icht"
      ],
      [
        "ö",
        "r"
      ],
      [
        "et",
        "was"
      ],
      [
        "ves",
        "sel"
      ],
      [
        "con",
        "tin"
      ],
      [
        "La",
        "ß"
      ],
      [
        "O",
        "n"
      ],
      [
        "p",
        "a"
      ],
      [
        "ro",
        "ck"
      ],
      [
        "K",
        "rie"
      ],
      [
        "er",
        "sten"
      ],
      [
        "th",
        "al"
      ],
      [
        "ge",
        "gangen"
      ],
      [
        "ig",
        "te"
      ],
      [
        "jud",
        "ge"
      ],
      [
        "te",
        "l"
      ],
      [
        "wor",
        "ship"
      ],
      [
        "l",
        "ach"
      ],
      [
        "m",
        "as"
      ],
      [
        "mo",
        "st"
      ],
      [
        "Frie",
        "den"
      ],
      [
        "B",
        "al"
      ],
      [
        "a",
        "sed"
      ],
      [
        "O",
        "pfer"
      ],
      [
        "p",
        "ie"
      ],
      [
        "le",
        "ben"
      ],
      [
        "such",
        "en"
      ],
      [
        "G",
        "ibe"
      ],
      [
        "nd",
        "en"
      ],
      [
        "sin",
        "s"
      ],
      [
        "der",
        "n"
      ],
      [
        "sch",
        "lagen"
      ],
      [
        "her",
        "zig"
      ],
      [
        "rece",
        "ive"
      ],
      [
        "Ält",
        "esten"
      ],
      [
        "E",
        "hre"
      ],
      [
        "par",
        "ted"
      ],
      [
        "au",
        "b"
      ],
      [
        "ten",
        "t"
      ],
      [
        "Christ",
        "i"
      ],
      [
        "dien",
        "en"
      ],
      [
        "Geschle",
        "cht"
      ],
      [
        "thou",
        "gh"
      ],
      [
        "Re",
        "de"
      ],
      [
        "G",
        "ü"
      ],
      [
        "ä",
        "er"
      ],
      [
        "ig",
        "keit"
      ],
      [
        "um",
        "her"
      ],
      [
        "Un",
        "gl"
      ],
      [
        "thir",
        "d"
      ],
      [
        "return",
        "ed"
      ],
      [
        "twel",
        "ve"
      ],
      [
        "as",
        "ts"
      ],
      [
        "el",
        "ders"
      ],
      [
        "ot",
        "ten"
      ],
      [
        "He",
        "br"
      ],
      [
        "fü",
        "hrte"
      ],
      [
        "A",
        "hab"
      ],
      [
        "D",
        "e"
      ],
      [
        "a",
        "ja"
      ],
      [
        "ig",
        "er"
      ],
      [
        "rich",
        "ten"
      ],
      [
        "Ober",
        "sten"
      ],
      [
        "b",
        "lessed"
      ],
      [
        "st",
        "ones"
      ],
      [
        "wom",
        "en"
      ],
      [
        "O",
        "hren"
      ],
      [
        "g",
        "st"
      ],
      [
        "un",
        "ge"
      ],
      [
        "bro",
        "ken"
      ],
      [
        "Lie",
        "be"
      ],
      [
        "s",
        "or"
      ],
      [
        "s",
        "we"
      ],
      [
        "Sch",
        "r"
      ],
      [
        "Gew",
        "alt"
      ],
      [
        "F",
        "l"
      ],
      [
        "s",
        "la"
      ],
      [
        "ä",
        "ch"
      ],
      [
        "sch",
        "e"
      ],
      [
        "pra",
        "ise"
      ],
      [
        "zw",
        "öl"
      ],
      [
        "Te",
        "il"
      ],
      [
        "Scha",
        "fe"
      ],
      [
        "c",
        "ried"
      ],
      [
        "h",
        "us"
      ],
      [
        "i",
        "v"
      ],
      [
        "w",
        "it"
      ],
      [
        "Stä",
        "t"
      ],
      [
        "El",
        "is"
      ],
      [
        "or",
        "s"
      ],
      [
        "be",
        "gan"
      ],
      [
        "n",
        "ung"
      ],
      [
        "o",
        "me"
      ],
      [
        "le",
        "gen"
      ],
      [
        "le",
        "gte"
      ],
      [
        "ihr",
        "es"
      ],
      [
        "Le",
        "ib"
      ],
      [
        "Brüder",
        "n"
      ],
      [
        "da",
        "m"
      ],
      [
        "il",
        "y"
      ],
      [
        "bor",
        "der"
      ],
      [
        "in",
        "c"
      ],
      [
        "und",
        "zwanzig"
      ],
      [
        "an",
        "o"
      ],
      [
        "ur",
        "t"
      ],
      [
        "Ze",
        "ichen"
      ],
      [
        "s",
        "un"
      ],
      [
        "b",
        "ir"
      ],
      [
        "p",
        "ed"
      ],
      [
        "p",
        "et"
      ],
      [
        "se",
        "cond"
      ],
      [
        "ther",
        "ein"
      ],
      [
        "thr",
        "one"
      ],
      [
        "L",
        "ot"
      ],
      [
        "d",
        "ra"
      ],
      [
        "r",
        "is"
      ],
      [
        "tr",
        "ie"
      ],
      [
        "mountain",
        "s"
      ],
      [
        "G",
        "al"
      ],
      [
        "t",
        "ä"
      ],
      [
        "her",
        "auf"
      ],
      [
        "lie",
        "gt"
      ],
      [
        "hin",
        "ab"
      ],
      [
        "alle",
        "y"
      ],
      [
        "k",
        "on"
      ],
      [
        "k",
        "r"
      ],
      [
        "z",
        "a"
      ],
      [
        "le",
        "bend"
      ],
      [
        "om",
        "in"
      ],
      [
        "with",
        "in"
      ],
      [
        "wel",
        "ches"
      ],
      [
        "M",
        "ich"
      ],
      [
        "p",
        "it"
      ],
      [
        "de",
        "parted"
      ],
      [
        "Fel",
        "de"
      ],
      [
        "thir",
        "ty"
      ],
      [
        "K",
        "ing"
      ],
      [
        "b",
        "us"
      ],
      [
        "zu",
        "vor"
      ],
      [
        "Misset",
        "at"
      ],
      [
        "s",
        "mo"
      ],
      [
        "aff",
        "li"
      ],
      [
        "M",
        "itt"
      ],
      [
        "se",
        "c"
      ],
      [
        "an",
        "ken"
      ],
      [
        "li",
        "f"
      ],
      [
        "St",
        "reit"
      ],
      [
        "ho",
        "b"
      ],
      [
        "Heil",
        "igt"
      ],
      [
        "famil",
        "ies"
      ],
      [
        "n",
        "es"
      ],
      [
        "por",
        "t"
      ],
      [
        "b",
        "attle"
      ],
      [
        "v",
        "alley"
      ],
      [
        "as",
        "on"
      ],
      [
        "St",
        "uhl"
      ],
      [
        "geb",
        "racht"
      ],
      [
        "Am",
        "or"
      ],
      [
        "Son",
        "ne"
      ],
      [
        "char",
        "i"
      ],
      [
        "h",
        "ill"
      ],
      [
        "as",
        "ure"
      ],
      [
        "rejo",
        "ice"
      ],
      [
        "b",
        "est"
      ],
      [
        "Ste",
        "in"
      ],
      [
        "Zeu",
        "gnis"
      ],
      [
        "tim",
        "es"
      ],
      [
        "Stät",
        "te"
      ],
      [
        "U",
        "r"
      ],
      [
        "re",
        "member"
      ],
      [
        "li",
        "ving"
      ],
      [
        "gol",
        "den"
      ],
      [
        "appe",
        "ar"
      ],
      [
        "ab",
        "omin"
      ],
      [
        "mach",
        "ten"
      ],
      [
        "Es",
        "au"
      ],
      [
        "Heil",
        "igen"
      ],
      [
        "Gre",
        "uel"
      ],
      [
        "com",
        "mit"
      ],
      [
        "l",
        "ast"
      ],
      [
        "ou",
        "red"
      ],
      [
        "sa",
        "hen"
      ],
      [
        "we",
        "der"
      ],
      [
        "hou",
        "ses"
      ],
      [
        "belie",
        "ve"
      ],
      [
        "Wohn",
        "ung"
      ],
      [
        "Schr",
        "ift"
      ],
      [
        "Y",
        "our"
      ],
      [
        "know",
        "ledge"
      ],
      [
        "command",
        "ment"
      ],
      [
        "reign",
        "ed"
      ],
      [
        "D",
        "es"
      ],
      [
        "ess",
        "er"
      ],
      [
        "lie",
        "ßen"
      ],
      [
        "com",
        "es"
      ],
      [
        "bu",
        "ll"
      ],
      [
        "Wer",
        "k"
      ],
      [
        "An",
        "t"
      ],
      [
        "gef",
        "unden"
      ],
      [
        "Vä",
        "tern"
      ],
      [
        "äm",
        "lich"
      ],
      [
        "n",
        "ation"
      ],
      [
        "asse",
        "mb"
      ],
      [
        "stru",
        "ck"
      ],
      [
        "S",
        "h"
      ],
      [
        "S",
        "tr"
      ],
      [
        "n",
        "t"
      ],
      [
        "setz",
        "te"
      ],
      [
        "appo",
        "inted"
      ],
      [
        "b",
        "te"
      ],
      [
        "M",
        "er"
      ],
      [
        "W",
        "oh"
      ],
      [
        "n",
        "ämlich"
      ],
      [
        "ge",
        "be"
      ],
      [
        "gef",
        "allen"
      ],
      [
        "destroy",
        "ed"
      ],
      [
        "Wahr",
        "heit"
      ],
      [
        "Ungl",
        "ück"
      ],
      [
        ")",
        ","
      ],
      [
        "c",
        "ould"
      ],
      [
        "k",
        "illed"
      ],
      [
        "it",
        "te"
      ],
      [
        "ke",
        "pt"
      ],
      [
        "ad",
        "ne"
      ],
      [
        "kom",
        "me"
      ],
      [
        "ann",
        "t"
      ],
      [
        "für",
        "chte"
      ],
      [
        "Fü",
        "ße"
      ],
      [
        "Paul",
        "us"
      ],
      [
        "g",
        "s"
      ],
      [
        "o",
        "nd"
      ],
      [
        "en",
        "ce"
      ],
      [
        "ime",
        "lech"
      ],
      [
        "R",
        "at"
      ],
      [
        "h",
        "id"
      ],
      [
        "s",
        "ign"
      ],
      [
        "Dan",
        "iel"
      ],
      [
        "ar",
        "ose"
      ],
      [
        "mit",
        "ten"
      ],
      [
        "li",
        "ves"
      ],
      [
        "ask",
        "ed"
      ],
      [
        "C",
        "anaan"
      ],
      [
        "K",
        "raft"
      ],
      [
        "v",
        "ation"
      ],
      [
        "be",
        "ide"
      ],
      [
        "sch",
        "rie"
      ],
      [
        "Wer",
        "ke"
      ],
      [
        "ha",
        "z"
      ],
      [
        "understand",
        "ing"
      ],
      [
        "H",
        "ur"
      ],
      [
        "S",
        "amen"
      ],
      [
        "se",
        "g"
      ],
      [
        "ar",
        "my"
      ],
      [
        "ne",
        "igh"
      ],
      [
        "tra",
        "gen"
      ],
      [
        "Spe",
        "is"
      ],
      [
        "dark",
        "ness"
      ],
      [
        "te",
        "en"
      ],
      [
        "P",
        "et"
      ],
      [
        "S",
        "ime"
      ],
      [
        "h",
        "op"
      ],
      [
        "m",
        "als"
      ],
      [
        "ü",
        "gel"
      ],
      [
        "bo",
        "te"
      ],
      [
        "To",
        "ten"
      ],
      [
        "Mitt",
        "ag"
      ],
      [
        "Heiligt",
        "um"
      ],
      [
        "Pet",
        "rus"
      ],
      [
        "H",
        "an"
      ],
      [
        "S",
        "em"
      ],
      [
        "i",
        "red"
      ],
      [
        "Pe",
        "ter"
      ],
      [
        "hus",
        "band"
      ],
      [
        "k",
        "einen"
      ],
      [
        "me",
        "at"
      ],
      [
        "Ge",
        "bote"
      ],
      [
        "nach",
        "t"
      ],
      [
        "gef",
        "angen"
      ],
      [
        "b",
        "are"
      ],
      [
        "d",
        "ow"
      ],
      [
        "con",
        "su"
      ],
      [
        "V",
        "on"
      ],
      [
        "te",
        "th"
      ],
      [
        "su",
        "f"
      ],
      [
        "coun",
        "sel"
      ],
      [
        "tat",
        "en"
      ],
      [
        "ver",
        "lassen"
      ],
      [
        "us",
        "er"
      ],
      [
        "command",
        "ments"
      ],
      [
        "G",
        "et"
      ],
      [
        "L",
        "ager"
      ],
      [
        "p",
        "ill"
      ],
      [
        "We",
        "ibe"
      ],
      [
        "uns",
        "re"
      ],
      [
        "ear",
        "s"
      ],
      [
        "brach",
        "te"
      ],
      [
        "zwöl",
        "f"
      ],
      [
        "G",
        "O"
      ],
      [
        "c",
        "ted"
      ],
      [
        "l",
        "ing"
      ],
      [
        "he",
        "m"
      ],
      [
        "H",
        "il"
      ],
      [
        "a",
        "z"
      ],
      [
        "b",
        "ten"
      ],
      [
        "e",
        "he"
      ],
      [
        "l",
        "isten"
      ],
      [
        "if",
        "f"
      ],
      [
        "vier",
        "zig"
      ],
      [
        "K",
        "or"
      ],
      [
        "R",
        "am"
      ],
      [
        "id",
        "es"
      ],
      [
        "sal",
        "vation"
      ],
      [
        "sla",
        "in"
      ],
      [
        "o",
        "ben"
      ],
      [
        "de",
        "ce"
      ],
      [
        "ir",
        "c"
      ],
      [
        "Volk",
        "s"
      ],
      [
        "nor",
        "th"
      ],
      [
        "drei",
        "ßig"
      ],
      [
        "fünf",
        "zig"
      ],
      [
        "T",
        "ake"
      ],
      [
        "ph",
        "es"
      ],
      [
        "fif",
        "ty"
      ],
      [
        "m",
        "ag"
      ],
      [
        "o",
        "bo"
      ],
      [
        "ch",
        "tern"
      ],
      [
        "is",
        "che"
      ],
      [
        "Hol",
        "y"
      ],
      [
        "obo",
        "am"
      ],
      [
        "tre",
        "es"
      ],
      [
        "GO",
        "D"
      ],
      [
        "B",
        "arm"
      ],
      [
        "et",
        "t"
      ],
      [
        "tr",
        "at"
      ],
      [
        "does",
        "n"
      ],
      [
        ".",
        ")"
      ],
      [
        "S",
        "ha"
      ],
      [
        "i",
        "led"
      ],
      [
        "l",
        "ab"
      ],
      [
        "sp",
        "re"
      ],
      [
        "wit",
        "ness"
      ],
      [
        "G",
        "ren"
      ],
      [
        "f",
        "at"
      ],
      [
        "w",
        "ü"
      ],
      [
        "is",
        "on"
      ],
      [
        "re",
        "pro"
      ],
      [
        "sch",
        "re"
      ],
      [
        "tr",
        "inken"
      ],
      [
        "ünd",
        "igt"
      ],
      [
        "brach",
        "ten"
      ],
      [
        "herzig",
        "keit"
      ],
      [
        "lif",
        "ted"
      ],
      [
        "for",
        "ty"
      ],
      [
        "c",
        "irc"
      ],
      [
        "g",
        "ut"
      ],
      [
        "er",
        "wür"
      ],
      [
        "in",
        "ter"
      ],
      [
        "contin",
        "u"
      ],
      [
        "s",
        "cr"
      ],
      [
        "t",
        "ou"
      ],
      [
        "com",
        "p"
      ],
      [
        "M",
        "itter"
      ],
      [
        "au",
        "en"
      ],
      [
        "ver",
        "st"
      ],
      [
        "Au",
        "f"
      ],
      [
        "hei",
        "ßen"
      ],
      [
        "Barm",
        "herzigkeit"
      ],
      [
        "Mitter",
        "nacht"
      ],
      [
        "i",
        "ces"
      ],
      [
        "as",
        "sen"
      ],
      [
        "ent",
        "s"
      ],
      [
        "Hebr",
        "on"
      ],
      [
        "A",
        "uch"
      ],
      [
        "fr",
        "öh"
      ],
      [
        "hö",
        "re"
      ],
      [
        "Haus",
        "es"
      ],
      [
        "Al",
        "s"
      ],
      [
        "car",
        "ried"
      ],
      [
        "Göt",
        "zen"
      ],
      [
        "inc",
        "ense"
      ],
      [
        "Speis",
        "opfer"
      ],
      [
        "n",
        "ing"
      ],
      [
        "u",
        "g"
      ],
      [
        "P",
        "sal"
      ],
      [
        "S",
        "in"
      ],
      [
        "W",
        "id"
      ],
      [
        "a",
        "il"
      ],
      [
        "ich",
        "tet"
      ],
      [
        "em",
        "pf"
      ],
      [
        "bre",
        "ak"
      ],
      [
        "str",
        "i"
      ],
      [
        "bau",
        "te"
      ],
      [
        "u",
        "f"
      ],
      [
        "pr",
        "of"
      ],
      [
        "kind",
        "ness"
      ],
      [
        "host",
        "s"
      ],
      [
        "O",
        "ne"
      ],
      [
        "h",
        "st"
      ],
      [
        "s",
        "s"
      ],
      [
        "ab",
        "l"
      ],
      [
        "nah",
        "men"
      ],
      [
        "through",
        "out"
      ],
      [
        "sanct",
        "u"
      ],
      [
        "erwä",
        "h"
      ],
      [
        "M",
        "ag"
      ],
      [
        "wo",
        "od"
      ],
      [
        "rece",
        "ived"
      ],
      [
        "Jerem",
        "iah"
      ],
      [
        "K",
        "anaan"
      ],
      [
        "S",
        "at"
      ],
      [
        "k",
        "el"
      ],
      [
        "ge",
        "den"
      ],
      [
        "ke",
        "t"
      ],
      [
        "mach",
        "e"
      ],
      [
        "cover",
        "ed"
      ],
      [
        "pr",
        "esen"
      ],
      [
        "sh",
        "ow"
      ],
      [
        "Manasse",
        "h"
      ],
      [
        "f",
        "te"
      ],
      [
        "g",
        "ibt"
      ],
      [
        "ih",
        "undert"
      ],
      [
        "fer",
        "ne"
      ],
      [
        "ho",
        "ch"
      ],
      [
        "Geb",
        "ir"
      ],
      [
        "Jerem",
        "ia"
      ],
      [
        "h",
        "ind"
      ],
      [
        "vessel",
        "s"
      ],
      [
        "N",
        "ot"
      ],
      [
        "ä",
        "uch"
      ],
      [
        "ü",
        "bel"
      ],
      [
        "ra",
        "y"
      ],
      [
        "come",
        "th"
      ],
      [
        "pro",
        "phes"
      ],
      [
        "rei",
        "ben"
      ],
      [
        "Städ",
        "ten"
      ],
      [
        "Spe",
        "ise"
      ],
      [
        "äm",
        "mer"
      ],
      [
        "star",
        "b"
      ],
      [
        "f",
        "led"
      ],
      [
        "l",
        "in"
      ],
      [
        "at",
        "ch"
      ],
      [
        "um",
        "c"
      ],
      [
        "wa",
        "it"
      ],
      [
        "sou",
        "th"
      ],
      [
        "ri",
        "ver"
      ],
      [
        "D",
        "o"
      ],
      [
        "w",
        "n"
      ],
      [
        "St",
        "ifts"
      ],
      [
        "Gere",
        "chten"
      ],
      [
        "hä",
        "lt"
      ],
      [
        "whe",
        "ther"
      ],
      [
        "tr",
        "ans"
      ],
      [
        "b",
        "an"
      ],
      [
        "l",
        "s"
      ],
      [
        "la",
        "ge"
      ],
      [
        "g",
        "ates"
      ],
      [
        "p",
        "her"
      ],
      [
        "u",
        "fen"
      ],
      [
        "re",
        "p"
      ],
      [
        "am",
        "s"
      ],
      [
        "Ne",
        "b"
      ],
      [
        "heaven",
        "s"
      ],
      [
        "Arm",
        "ies"
      ],
      [
        "sanctu",
        "ary"
      ],
      [
        "A",
        "men"
      ],
      [
        "gl",
        "ad"
      ],
      [
        "head",
        "s"
      ],
      [
        "A",
        "has"
      ],
      [
        "I",
        "m"
      ],
      [
        "m",
        "essen"
      ],
      [
        "ll",
        "te"
      ],
      [
        "im",
        "mt"
      ],
      [
        "sch",
        "lä"
      ],
      [
        "fröh",
        "lich"
      ],
      [
        "S",
        "er"
      ],
      [
        "S",
        "imon"
      ],
      [
        "m",
        "oney"
      ],
      [
        "t",
        "ong"
      ],
      [
        "in",
        "cre"
      ],
      [
        "circ",
        "umc"
      ],
      [
        "it",
        "z"
      ],
      [
        "ver",
        "til"
      ],
      [
        "am",
        "es"
      ],
      [
        "jeglich",
        "en"
      ],
      [
        "f",
        "ter"
      ],
      [
        "de",
        "cl"
      ],
      [
        "B",
        "uch"
      ],
      [
        "S",
        "ar"
      ],
      [
        "le",
        "bt"
      ],
      [
        "Ge",
        "he"
      ],
      [
        "lie",
        "gen"
      ],
      [
        "set",
        "zen"
      ],
      [
        "hel",
        "p"
      ],
      [
        "pl",
        "ag"
      ],
      [
        "C",
        "ome"
      ],
      [
        "F",
        "in"
      ],
      [
        "stat",
        "utes"
      ],
      [
        ",",
        "\""
      ],
      [
        "g",
        "n"
      ],
      [
        "m",
        "ind"
      ],
      [
        "sch",
        "on"
      ],
      [
        "la",
        "ßt"
      ],
      [
        "Er",
        "b"
      ],
      [
        "uns",
        "ern"
      ],
      [
        "serv",
        "ice"
      ],
      [
        "hei",
        "ßt"
      ],
      [
        "v",
        "ide"
      ],
      [
        "look",
        "ed"
      ],
      [
        "min",
        "ister"
      ],
      [
        "A",
        "cker"
      ],
      [
        "E",
        "sel"
      ],
      [
        "M",
        "unde"
      ],
      [
        "m",
        "ur"
      ],
      [
        "en",
        "tr"
      ],
      [
        "in",
        "nen"
      ],
      [
        "be",
        "ge"
      ],
      [
        "est",
        "abl"
      ],
      [
        "Re",
        "chten"
      ],
      [
        "ru",
        "fen"
      ],
      [
        "ank",
        "opfer"
      ],
      [
        "hör",
        "ten"
      ],
      [
        "pie",
        "ces"
      ],
      [
        "M",
        "ore"
      ],
      [
        "to",
        "p"
      ],
      [
        "gra",
        "ce"
      ],
      [
        "da",
        "her"
      ],
      [
        "mo",
        "ved"
      ],
      [
        "wohn",
        "ten"
      ],
      [
        "Ber",
        "g"
      ],
      [
        "L",
        "ust"
      ],
      [
        "in",
        "stru"
      ],
      [
        "an",
        "im"
      ],
      [
        "des",
        "ire"
      ],
      [
        "fe",
        "ast"
      ],
      [
        "mu",
        "st"
      ],
      [
        "moun",
        "t"
      ],
      [
        "D",
        "am"
      ],
      [
        "s",
        "ister"
      ],
      [
        "ge",
        "da"
      ],
      [
        "soll",
        "ten"
      ],
      [
        "durch",
        "s"
      ],
      [
        "Kne",
        "chten"
      ],
      [
        "offen",
        "bar"
      ],
      [
        "M",
        "id"
      ],
      [
        "j",
        "etzt"
      ],
      [
        "n",
        "ten"
      ],
      [
        "tre",
        "ten"
      ],
      [
        "a",
        "ted"
      ],
      [
        "r",
        "ise"
      ],
      [
        "der",
        "er"
      ],
      [
        "A",
        "mt"
      ],
      [
        "e",
        "igen"
      ],
      [
        "f",
        "in"
      ],
      [
        "m",
        "our"
      ],
      [
        "be",
        "ll"
      ],
      [
        "ck",
        "te"
      ],
      [
        "Re",
        "chte"
      ],
      [
        "eure",
        "m"
      ],
      [
        "Für",
        "st"
      ],
      [
        "kenn",
        "t"
      ],
      [
        "kenn",
        "en"
      ],
      [
        "hop",
        "e"
      ],
      [
        "trans",
        "gr"
      ],
      [
        "all",
        "y"
      ],
      [
        "Z",
        "er"
      ],
      [
        "h",
        "of"
      ],
      [
        "k",
        "new"
      ],
      [
        "o",
        "x"
      ],
      [
        "wi",
        "ves"
      ],
      [
        "ig",
        "ten"
      ],
      [
        "ro",
        "se"
      ],
      [
        "ger",
        "ichtet"
      ],
      [
        "Land",
        "es"
      ],
      [
        "Lev",
        "i"
      ],
      [
        "bau",
        "en"
      ],
      [
        "Gr",
        "imm"
      ],
      [
        "Göt",
        "ter"
      ],
      [
        "Gel",
        "d"
      ],
      [
        "More",
        "over"
      ],
      [
        "F",
        "ur"
      ],
      [
        "J",
        "ohn"
      ],
      [
        "un",
        "ger"
      ],
      [
        "are",
        "th"
      ],
      [
        "com",
        "ing"
      ],
      [
        "Ab",
        "imelech"
      ],
      [
        "bu",
        "k"
      ],
      [
        "G",
        "ra"
      ],
      [
        "re",
        "fu"
      ],
      [
        "ber",
        "eit"
      ],
      [
        "sp",
        "read"
      ],
      [
        "pre",
        "ach"
      ],
      [
        "gleich",
        "wie"
      ],
      [
        "Isa",
        "ac"
      ],
      [
        "kön",
        "nen"
      ],
      [
        "Johan",
        "nes"
      ],
      [
        "suf",
        "fer"
      ],
      [
        "Wid",
        "der"
      ],
      [
        "M",
        "ar"
      ],
      [
        "me",
        "lt"
      ],
      [
        "pr",
        "ess"
      ],
      [
        "groß",
        "er"
      ],
      [
        "open",
        "ed"
      ],
      [
        "B",
        "as"
      ],
      [
        "m",
        "ah"
      ],
      [
        "t",
        "au"
      ],
      [
        "be",
        "k"
      ],
      [
        "me",
        "et"
      ],
      [
        "st",
        "ay"
      ],
      [
        "ges",
        "etzt"
      ],
      [
        "tr",
        "ü"
      ],
      [
        "wand",
        "eln"
      ],
      [
        "Fel",
        "d"
      ],
      [
        "Gebir",
        "ge"
      ],
      [
        "Fin",
        "stern"
      ],
      [
        "Y",
        "es"
      ],
      [
        "e",
        "ach"
      ],
      [
        "f",
        "ast"
      ],
      [
        "as",
        "ten"
      ],
      [
        "so",
        "und"
      ],
      [
        "id",
        "ol"
      ],
      [
        "ne",
        "ed"
      ],
      [
        "mas",
        "ter"
      ],
      [
        "F",
        "ru"
      ],
      [
        "G",
        "utes"
      ],
      [
        "b",
        "lieb"
      ],
      [
        "de",
        "f"
      ],
      [
        "sie",
        "ht"
      ],
      [
        "ro",
        "st"
      ],
      [
        "sch",
        "uld"
      ],
      [
        "fr",
        "essen"
      ],
      [
        "He",
        "ze"
      ],
      [
        "ges",
        "sen"
      ],
      [
        "fo",
        "od"
      ],
      [
        "Ar",
        "men"
      ],
      [
        ".'",
        "\""
      ],
      [
        "Where",
        "fore"
      ],
      [
        "Schw",
        "es"
      ],
      [
        "Fru",
        "cht"
      ],
      [
        "A",
        "fter"
      ],
      [
        "H",
        "el"
      ],
      [
        "T",
        "i"
      ],
      [
        "u",
        "ten"
      ],
      [
        "lie",
        "be"
      ],
      [
        "bo",
        "nd"
      ],
      [
        "Heze",
        "kiah"
      ],
      [
        "H",
        "or"
      ],
      [
        "br",
        "ass"
      ],
      [
        "dar",
        "an"
      ],
      [
        "first",
        "born"
      ],
      [
        "Gef",
        "ä"
      ],
      [
        "O",
        "ch"
      ],
      [
        "r",
        "on"
      ],
      [
        "up",
        "t"
      ],
      [
        "Ze",
        "de"
      ],
      [
        "offer",
        "ed"
      ],
      [
        "sk",
        "y"
      ],
      [
        "assemb",
        "ly"
      ],
      [
        "K",
        "e"
      ],
      [
        "c",
        "or"
      ],
      [
        "l",
        "inge"
      ],
      [
        "z",
        "äh"
      ],
      [
        "er",
        "we"
      ],
      [
        "le",
        "id"
      ],
      [
        "ach",
        "tet"
      ],
      [
        "Jer",
        "ich"
      ],
      [
        "cour",
        "t"
      ],
      [
        "desol",
        "ate"
      ],
      [
        "f",
        "et"
      ],
      [
        "k",
        "es"
      ],
      [
        "fo",
        "ot"
      ],
      [
        "H",
        "off"
      ],
      [
        "my",
        "self"
      ],
      [
        "Menschen",
        "kind"
      ],
      [
        "ub",
        "im"
      ],
      [
        "di",
        "ent"
      ],
      [
        "pr",
        "om"
      ],
      [
        "cho",
        "sen"
      ],
      [
        "presen",
        "ce"
      ],
      [
        "Mid",
        "ian"
      ],
      [
        "er",
        "fü"
      ],
      [
        "ge",
        "zogen"
      ],
      [
        "ke",
        "hren"
      ],
      [
        "her",
        "zu"
      ],
      [
        "sol",
        "che"
      ],
      [
        "tru",
        "st"
      ],
      [
        "Ger",
        "icht"
      ],
      [
        "number",
        "ed"
      ],
      [
        "äch",
        "sten"
      ],
      [
        "P",
        "il"
      ],
      [
        "famil",
        "y"
      ],
      [
        "F",
        "est"
      ],
      [
        "f",
        "ine"
      ],
      [
        "s",
        "up"
      ],
      [
        "ch",
        "tet"
      ],
      [
        "ver",
        "w"
      ],
      [
        "dies",
        "es"
      ],
      [
        "bre",
        "chen"
      ],
      [
        "con",
        "f"
      ],
      [
        "für",
        "chten"
      ],
      [
        "Fre",
        "ude"
      ],
      [
        "äu",
        "me"
      ],
      [
        "unser",
        "m"
      ],
      [
        "unser",
        "s"
      ],
      [
        "wicked",
        "ness"
      ],
      [
        "Geb",
        "ot"
      ],
      [
        "Isa",
        "ak"
      ],
      [
        "L",
        "o"
      ],
      [
        "j",
        "our"
      ],
      [
        "be",
        "de"
      ],
      [
        "le",
        "ute"
      ],
      [
        "orn",
        "s"
      ],
      [
        "wohn",
        "t"
      ],
      [
        "Hol",
        "z"
      ],
      [
        "iv",
        "ity"
      ],
      [
        "as",
        "ha"
      ],
      [
        "li",
        "ps"
      ],
      [
        "per",
        "ish"
      ],
      [
        "si",
        "ck"
      ],
      [
        "gener",
        "ations"
      ],
      [
        "F",
        "rü"
      ],
      [
        "T",
        "ier"
      ],
      [
        "Sünd",
        "opfer"
      ],
      [
        "Jerich",
        "o"
      ],
      [
        "M",
        "al"
      ],
      [
        "P",
        "er"
      ],
      [
        "thou",
        "ght"
      ],
      [
        "F",
        "arren"
      ],
      [
        "H",
        "ir"
      ],
      [
        "W",
        "esen"
      ],
      [
        "b",
        "esser"
      ],
      [
        "c",
        "orn"
      ],
      [
        "v",
        "el"
      ],
      [
        "un",
        "nen"
      ],
      [
        "we",
        "iter"
      ],
      [
        "Er",
        "be"
      ],
      [
        "Abra",
        "m"
      ],
      [
        "ble",
        "ibt"
      ],
      [
        "da",
        "b"
      ],
      [
        "ak",
        "ed"
      ],
      [
        "sin",
        "ned"
      ],
      [
        "than",
        "ks"
      ],
      [
        "Assyr",
        "ia"
      ],
      [
        "Han",
        "an"
      ],
      [
        "B",
        "lessed"
      ],
      [
        "L",
        "ib"
      ],
      [
        "a",
        "king"
      ],
      [
        "v",
        "an"
      ],
      [
        "re",
        "cken"
      ],
      [
        "st",
        "ret"
      ],
      [
        "her",
        "ab"
      ],
      [
        "St",
        "att"
      ],
      [
        "Sch",
        "anden"
      ],
      [
        "Er",
        "st"
      ],
      [
        "wo",
        "nd"
      ],
      [
        "gra",
        "ben"
      ],
      [
        "read",
        "y"
      ],
      [
        "ra",
        "ise"
      ],
      [
        "wh",
        "y"
      ],
      [
        "bl",
        "ind"
      ],
      [
        "seven",
        "th"
      ],
      [
        "M",
        "eine"
      ],
      [
        "T",
        "od"
      ],
      [
        "f",
        "ing"
      ],
      [
        "m",
        "or"
      ],
      [
        "st",
        "ir"
      ],
      [
        "auf",
        "t"
      ],
      [
        "ak",
        "im"
      ],
      [
        "Söh",
        "nen"
      ],
      [
        "capt",
        "ivity"
      ],
      [
        "Fü",
        "ßen"
      ],
      [
        "Finstern",
        "is"
      ],
      [
        "a",
        "le"
      ],
      [
        "your",
        "self"
      ],
      [
        "He",
        "ar"
      ],
      [
        "pr",
        "ison"
      ],
      [
        "spo",
        "il"
      ],
      [
        "K",
        "na"
      ],
      [
        "g",
        "ain"
      ],
      [
        "n",
        "imm"
      ],
      [
        "ent",
        "gegen"
      ],
      [
        "Sch",
        "af"
      ],
      [
        "ze",
        "it"
      ],
      [
        "every",
        "one"
      ],
      [
        "find",
        "en"
      ],
      [
        "Frem",
        "d"
      ],
      [
        "Y",
        "et"
      ],
      [
        "s",
        "ought"
      ],
      [
        "St",
        "ra"
      ],
      [
        "pre",
        "par"
      ],
      [
        "Z",
        "ie"
      ],
      [
        "f",
        "and"
      ],
      [
        "j",
        "en"
      ],
      [
        "p",
        "al"
      ],
      [
        "er",
        "fahren"
      ],
      [
        "so",
        "ld"
      ],
      [
        "will",
        "st"
      ],
      [
        "ne",
        "te"
      ],
      [
        "mit",
        "einander"
      ],
      [
        "wer",
        "k"
      ],
      [
        "lo",
        "s"
      ],
      [
        "Fre",
        "und"
      ],
      [
        "test",
        "imon"
      ],
      [
        "Dar",
        "nach"
      ],
      [
        "hät",
        "te"
      ],
      [
        "Fur",
        "cht"
      ],
      [
        "H",
        "as"
      ],
      [
        "N",
        "ame"
      ],
      [
        "il",
        "es"
      ],
      [
        "des",
        "p"
      ],
      [
        "ab",
        "und"
      ],
      [
        "tr",
        "um"
      ],
      [
        "ye",
        "a"
      ],
      [
        "sc",
        "atter"
      ],
      [
        "R",
        "ind"
      ],
      [
        "Z",
        "ahl"
      ],
      [
        "s",
        "y"
      ],
      [
        "u",
        "d"
      ],
      [
        "se",
        "ien"
      ],
      [
        "un",
        "ken"
      ],
      [
        "lie",
        "f"
      ],
      [
        "Ab",
        "ner"
      ],
      [
        "wel",
        "t"
      ],
      [
        "än",
        "gnis"
      ],
      [
        "rü",
        "h"
      ],
      [
        "wen",
        "ig"
      ],
      [
        "mä",
        "chtig"
      ],
      [
        "tä",
        "glich"
      ],
      [
        "\"",
        "'"
      ],
      [
        "A",
        "t"
      ],
      [
        "E",
        "v"
      ],
      [
        "b",
        "ad"
      ]
    ]
  }
}